#version: 0.2 - Trained by `huggingface/tokenizers`
Ġ t
i n
e r
Ġ a
o n
h e
e s
Ġ s
o r
a n
Ġt he
e d
e n
a r
i t
a t
Ġ f
Ġ o
Ġ c
in g
a l
Ġ w
r e
Ġ p
Ġt o
Ġ b
i s
Ġ in
i c
r o
a s
Ġo f
Ġ m
a y
i l
Ġ S
n d
Ġ h
i on
t er
l e
Ġ d
o u
i d
Ġ C
o m
s t
Ġ A
en t
Ġ T
Ġa nd
Ġ on
e t
e l
a c
u r
Ġ M
Ġt h
e c
a d
Ġf or
Ġ n
Ġ P
Ġ l
i g
o l
Ġ I
a m
o t
Ġ B
i r
Ġ re
Ġ g
u t
Ġ e
er s
Ġ -
Ġ #
d ay
u s
3 9
v e
il l
Ġ W
Ġs t
Ġ F
Ġ r
o w
Ġ (
Ġ N
es t
Ġ it
i m
Ġ R
t h
v er
Ġ D
r a
at ion
Ġ U
u n
l y
q u
Ġ G
t s
c h
u p
it h
e w
Ġ H
e ar
Ġa n
Ġa t
Ġ L
c e
o s
a k
Ġ E
ig h
Ġb e
u l
Ġa s
an d
Ġ O
Ġth at
Ġw ith
a g
r i
e m
l d
ter s
o p
es s
Ġp ro
Ġc om
a in
Ġ 1
Ġ is
Ġ y
o c
Ġs a
k s
Ġc on
Ġit s
' s
c t
al l
i an
a p
Ġ 2
Ġ J
Ġ he
0 0
Ġ v
Ġd e
at e
u ters
as t
Ġsa id
u m
ĠI n
Ġb y
f t
or e
i es
i a
o st
ou r
en d
Ġh as
p or
Ġ le
ro m
e e
ĠS t
R e
Ġs h
Ġ qu
Ġw h
Ġe x
igh t
Ġp l
u st
Ġc h
o o
A P
ac k
Ġcom p
Re uters
u nd
Ġf rom
is t
m ent
i v
it y
Ġ K
ar d
ar t
Ġa g
i al
p p
i f
Ġp r
ou n
Ġof f
f ter
. .
es day
ĠT he
in e
u g
i ve
Ġh is
u d
el l
Ġw ill
Ġ k
ĠC h
Ġw as
t ed
a ve
l t
r y
g t
Ġa l
a b
Ġn ew
or d
Ġs p
o b
Ġa fter
ic e
i p
o ft
T he
Ġ Y
ĠT h
Ġo ver
m er
er e
Ġ j
Ġf ir
Ġs e
Ġw or
f f
ion s
ar g
ou ld
ac e
s e
ar e
an s
i e
u b
on g
ĠF r
Ġ up
n ing
ay s
\ $
Ġc l
Ġh ave
ic k
ol d
an y
Ġ V
u c
Ġy ear
ter n
ou t
Ġthe ir
w o
Ġa re
u e
Ġo ut
ĠU S
am e
g e
Ġa c
Ġ \$
om e
Ġqu ot
a il
ill ion
Ġ un
k e
o ver
Ġs ec
id e
Ġ ro
ig n
an t
id ent
re e
il e
ro s
ar k
e x
im e
o d
ĠP r
i re
Ġex p
on d
ra q
Ġin t
Ġa b
e p
or s
o g
ak e
en s
Ġfir st
a v
ow n
ĠM on
as s
ic h
Ġr es
Ġt wo
is h
am p
ag e
ic es
as e
ĠU n
ur s
ĠI raq
c om
ation s
O N
ee k
b er
on e
por t
Ġ2 00
Ġo p
ol l
Ġ- -
at es
u re
ro w
Ġag ain
ar y
Ġp er
ro p
Ġm ore
ec t
he n
Ġb ut
id ay
es ident
th er
ac t
Ġle ad
Ġcon t
Ġs c
ac h
Ġ 3
Ġre c
ed n
et s
Ġf in
ot e
edn esday
er v
ĠMon day
an ce
.. .
u esday
Ġt e
h n
he d
r it
ĠW ednesday
o v
Ġw in
urs day
ĠT uesday
or y
Ġ en
i z
m p
Ġt r
an k
le ct
ĠIn c
ĠTh ursday
it e
Ġcomp any
an c
is s
a w
Ġth is
Ġn ot
Ġa d
ĠN ew
en ce
ul l
ad e
Ġd is
at ed
ation al
ar ter
ĠFr iday
as h
ou s
ic t
v est
oun t
oo d
Ġon e
e op
it ed
oc k
ear ch
or k
or t
Ġagain st
ic ros
; /
O R
Ġa pp
Ġth an
es ter
eop le
ur n
et w
ic an
Ġint o
Ġ us
o in
as on
g h
ou nd
Ġw eek
Ġl ast
ester day
Ġac c
o y
or m
us h
Ġwh o
v en
Ġy esterday
ĠS h
Ġab out
Ġpl ay
Ġin c
icros oft
al s
Ġa r
Ġc r
ĠC or
h er
m an
i b
Ġw ere
ro up
e b
Ġthe y
Ġoff ic
Ġan n
Ġal l
l and
over n
Ġat t
p l
w are
os s
in a
Ġbe en
Ġe ar
ex t
ĠI nd
Ġ im
Ġwor ld
it ion
oc ks
ĠS p
Ġ or
re at
v el
e y
ic al
it s
Ġm an
ĠC om
Ġ 4
y st
ir d
u ct
A N
ĠIn tern
Ġh igh
e at
an g
t on
l l
Ġm illion
Ġh ad
Ġst r
Ġm ark
Ġth ree
in d
Ġk ill
ĠCor p
er al
c ed
overn ment
ĠA n
r al
on th
ow er
Ġ &
Q u
Ġre t
t le
os e
Ġb l
ĠI s
oo k
he s
as ed
c ent
il it
is e
Ġ 6
us s
A S
g r
l ine
ec ted
t ing
ur ity
und ay
Ġoffic ial
U S
ĠL e
ĠP ro
ĠS unday
Ġw ar
in es
Ġd ec
u rop
Ġw ould
ĠR e
Ġte am
A F
o k
urop e
Ġb ack
Ġ end
Ġo il
i x
a z
at ing
o ve
ol og
Ġs erv
Ġc ould
ab le
Ġs l
ĠS at
Ġf our
el y
Ġde f
Ġann oun
ĠA mer
Ġf l
por ts
p h
ug h
Ġg overnment
Ġb u
I N
Ġsec ond
Ġs et
ĠUn ited
ic s
o x
Ġp ol
ĠA s
Ġwh ich
Ġyear s
al es
in ess
oft ware
Ġcon s
AF P
on s
ent s
Ġm ak
Ġs up
ĠE x
E W
Ġto day
Ġp eople
Ġm onth
Ġc o
us iness
r on
w w
I n
in is
ow s
Ġpl an
or ld
p r
Ġe lect
Ġin d
ub l
t t
Ġ Ġ
Ġd es
Ġpr ices
a ir
ec hn
ĠE n
Ġper cent
ĠE urope
Ġse ason
a h
h ip
Ġ 5
it al
in s
Ġd own
Ġw hen
i er
en c
Ġs ays
Ġp art
ur day
Ġqu arter
Ġn ext
Ġm e
u ch
Ġs ur
Ġt ime
l es
Ġp re
yst em
Ġg o
e f
ĠSat urday
al ly
l p
Ġn ight
ĠPr esident
at ch
em ent
ing s
Ġwor k
Ġre g
Ġc ount
Ġg ame
ĠA r
ie f
ap an
Ġl i
Ġth ird
Ġp h
Ġin vest
Ġ 7
il d
ec ut
a j
is ts
Ġpro d
b all
a un
ĠC o
g ed
on om
Ġb ec
inis ter
OR K
ur ing
ĠY ORK
echn olog
Ġmark et
und er
p t
Ġrec ord
ĠB l
Ġv ict
Ġc ap
Ġm ay
r an
Ġn e
or n
Ġs oftware
f orm
Ġm ilit
c ess
om b
i ed
ou gh
m s
Ġc an
er r
ust ral
is ion
Ġpro f
= "
ar s
ul t
Ġhe lp
Ġ1 0
ra el
am es
e al
o ot
g er
Ġre le
S t
Ġop en
Ġb usiness
Ġ200 4
el s
ĠA f
n ed
l ess
n er
Ġannoun ced
el d
our t
ĠM icrosoft
le ar
Ġ ec
u ter
ap p
ĠP l
Ġag re
00 0
por ted
ĠIntern et
us e
Ġde al
Ġcon f
Ġs ome
Ġr un
Ġg roup
ĠB rit
Qu ote
Ġb ig
Ġb illion
n e
Ġl arg
ur r
at h
Ġd o
ĠW orld
and s
Ġto p
ou th
ro ugh
on es
A T
b le
Ġc all
ist an
Ġsec urity
l ed
ic a
r ac
Ġt ake
Ġm ed
ĠA ir
Ġm ost
i o
y ear
ee p
R E
ar es
i ous
Ġs o
Ġpr esident
in u
ĠR es
e en
Ġin s
ĠC l
Ġc ar
Ġt arg
Ġs ay
ĠJ apan
ĠA l
ĠI t
c es
Ġt al
Ġec onom
Ġa m
echnolog y
Ġst art
ag ue
w ard
ro und
er t
ĠC on
in ce
Ġvict ory
Ġin ter
i am
Ġo ther
Ġ under
Ġn ear
Ġre m
Ġkill ed
Ġg row
Ġt ri
ac ks
Ġd ay
Ġa ir
Ġcom m
g le
ĠJ o
a im
on y
iv es
Ġofficial s
Ġs ign
i eld
ĠCh ina
aj or
Ġre ported
Ġs ales
ĠB ush
Ġb o
u al
ur es
c o
amp ions
v ent
an ad
ri v
Ġw e
ep t
E R
an ts
etw ork
ĠP al
or th
ot her
ĠF l
ĠS ec
Ġoff er
r ug
ly mp
ĠC up
IN G
in ian
l ud
Ġhe ad
Ġl aun
vel op
Ġc ut
i ent
ning s
Ġop er
al if
Ġcount ry
o ol
ro v
Ġ "
N ew
Ġpl ans
Ġtarg et
it ies
Ġpro v
ĠO p
ĠF or
l ing
B M
f ore
ĠR uss
ĠA ustral
w ay
Ġj ust
Ġg et
ĠCom m
Ġ1 9
ĠEurope an
op s
us p
Ġh ome
Ġbe fore
us ic
est inian
Ġd em
g an
g y
i um
Ġl aw
Ġman ag
Ġbu y
Ġ 8
ed eral
enc y
ĠN o
g est
oo gle
Ġsh ow
A L
Ġs er
c k
ĠO lymp
Ġim p
ĠSt ates
em ber
s u
ĠM inister
iss ion
ord ing
an ge
ĠS er
C h
Ġas s
Ġt ak
ĠP h
c er
; ...
Ġl ong
Ġj ob
a x
Ġa ct
ĠM ar
;... &
ĠY ork
ĠIs rael
Ġb ro
Ġn o
Ġs ystem
Ġch arg
Ġre port
ĠR ed
" &
ur y
A R
in k
Ġnew s
ing ton
Ġt ra
M icrosoft
he ad
Ġfor mer
ick er
ĠN EW
Ġh ost
t o
ob ile
ian t
w n
T ON
ĠAmer ican
Ġk n
Ġt ro
Ġfin al
Ġy ou
re ak
Ġb r
Ġs u
an ies
Ġb id
m ed
en n
ec h
ĠJo hn
ther n
Ġinc lud
. ,
Ġw on
Ġre l
um p
Ġf ive
i k
Ġb ank
Ġt echnology
f o
Ġle ast
ĠA d
Ġm ade
at a
es e
a use
i pp
ul ar
ubl ic
Ġh im
etw een
Ġp oin
ĠA t
end ing
Ġp ost
Ġm ajor
Ġh er
Ġde velop
Ġ 9
en se
Ġh it
Ġind ust
Ġm ake
Ġb omb
c hed
Ġmak er
ĠPro f
er m
Ġl at
I S
oll ar
a i
Ġe ff
Ġb etween
Ġex ecut
ad y
T h
Ġch ief
Ġs m
Ġlarg est
err or
Ġinc re
Ġs w
ear s
Ġthe m
ĠPal estinian
Ġpro gr
/ /
is ing
i ew
Ġd uring
Ġdis c
ĠEn g
Ġprof it
: //
is ed
tt p
6 6
Ġre b
Ġ if
Ġth rough
ard s
le y
Ġcomp anies
h ttp
Ġcl aim
ou se
ash ington
Ġtal ks
Ġwh at
Ġacc ording
f ul
Ġh op
E N
Ġp ay
f er
re w
Ġex t
ot s
ain s
Ġt est
g in
iv ers
Ġad d
ee ks
Ġg l
ĠW eb
Ġ Z
Ġr a
Ġserv ice
re m
er ed
al e
Ġs usp
Ġan other
ĠIraq i
ra w
Ġb at
Ġco ach
Ġlead er
ire less
Ġl oss
ww w
al f
ĠBrit ish
Ġn ow
ag es
uct ion
t y
uc lear
Ġin tern
r act
Ġexp ected
ĠO ct
Ġa ut
a f
ĠA pp
Ġs ix
ut ion
r up
Ġg iant
Ġf il
ow ing
ĠLe ague
us ed
B A
Ġin j
Ġst ri
il ity
Ġexp l
Ġme et
Ġs earch
n s
Ġp e
ic ations
in fo
t icker
re uters
ec ts
ĠInd ia
RE F
en eral
Ġte le
ĠH REF
Ġle ft
ĠC ol
if e
er ry
ĠO ff
ĠU p
Ġ2 0
ak istan
' t
Ġatt ack
Ġp ower
Ġst ate
Ġprod uc
p os
Ġc ost
Ġw ay
ur ed
s on
Ġs ub
re t
e ed
ad ing
Ġs ince
Ġd el
Ġth reat
Ġp ass
ĠS ept
ĠT r
Ġg u
b ack
C O
Ġst ill
ĠOp en
Ġwh ile
Ġr iv
ĠD e
5 0
Ġin f
i ver
Ġm iss
Ġc ourt
Ġbe ing
Ġpro t
Ġm ov
Ġs ell
Ġm ove
Ġstr ong
Ġear ly
Ġindust ry
Ġc amp
Ġf ound
Ġpol ice
Ġa mp
igh ts
m b
ment s
vest or
as p
st r
b ers
Ġan t
u el
o ff
ĠB e
Ġ1 1
Ġret urn
E L
Ġm usic
Ġde ad
ar m
d own
ĠS outh
m in
Ġp ut
gh an
Ġan y
r ess
is m
ĠG roup
Ġsh are
Ġagre ed
Ġprogr am
ĠA g
Ġde b
rac le
ĠA ra
ĠAs s
ĠS c
is on
p ar
Ġmilit ary
ri es
d ate
b e
ob al
i ol
t el
Ġ X
Ġ '
Ġc ent
D A
Ġmonth s
at or
ĠCom p
az a
ĠIntern ational
rup t
o on
en ch
Ġ i
Ġc ol
ĠS ox
Ġelect ion
f ull
y s
Ġe ver
st ocks
F ull
c hes
u k
ING TON
ĠK ore
qu ick
Ġl ook
at ors
ĠS e
ĠCh ampions
id n
Ġgrow th
qu ote
in vestor
Ġd ays
= /
Ġr ul
asp x
full quote
Full Quote
quick info
Ġon ly
v es
our ce
if ic
ind ows
Ġ ...
Ġn uclear
Ġp ar
A n
ib le
Ġbec ause
Ġcomp uter
Ġt error
ĠPr ime
Ġs old
is es
ĠO n
oc i
Ġcl os
Ġe ven
ros s
AS H
Ġd rug
re et
Ġr est
Ġ1 2
ur g
ot h
Ġm in
t ain
s p
O S
ers on
ĠN orth
Ġon line
or ed
ĠB ank
p ut
Ġn um
r est
ip s
ire ct
Ġm obile
oot ball
Ġh old
ust om
urr ican
id er
i ers
p ite
ĠW ith
S oft
Ġph one
r ed
in t
ĠW ill
ud e
Ġres earch
ASH INGTON
Ġf oll
Ġle g
Ġbe at
anad ian
ĠOlymp ic
Ġserv ices
ĠM an
ĠU N
Ġinclud ing
le g
Ġf all
ĠW indows
Ġre v
Ġb el
en ter
m y
ĠSt ate
am il
ĠA b
ĠAf r
Ġst ud
ĠG re
r es
le t
at ive
ĠC alif
Ġth ere
c l
E S
Ġsp ec
ĠB r
Ġsh ould
h d
Ġplay ers
at er
ch ool
Ġag o
Ġlat est
Ġcons um
ĠD av
he l
Ġj oin
Ġear nings
Ġhigh er
N EW
ĠAf ghan
ĠF all
Ġsp ace
Ġli ke
Ġh and
ĠB ag
Ġf ace
ĠO il
ĠW ar
id a
Ġfir m
ra ft
eople Soft
b ased
Ġret ail
Ġpoin ts
ĠC ar
Ġk eep
T O
uc k
Ġrele ased
hd ad
Ġc ity
Ġk ey
Ġn ation
Ġad v
Ġm any
Ġbig gest
A M
en e
Ġro se
ĠN ational
ĠH e
Ġf ut
Ġb ar
ĠB ut
Ġcomp et
it ing
Ġne ed
or es
Ġf ight
Ġst ock
ide o
Ġp ublic
ost on
ĠW h
Ġt urn
qu arter
Ġsh ares
Ġm em
Ġm uch
l in
ĠW est
Ġg ames
Ġt it
ĠG aza
ot t
Ġd ata
im es
Ġro und
ĠO r
ĠP C
ĠA nd
Ġac qu
i or
Ġf ell
Ġv iol
Ġf ree
Ġpe ace
d er
ĠG oogle
3 6
iz e
F or
i ke
Ġc he
Ġd ou
Ġre f
Ġ200 5
ON D
Ġrec ent
; &
Ġc ustom
Ġtro ops
Ġst ocks
ud an
E C
Ġv ers
ĠEng land
ĠBag hdad
1 0
p ly
end ed
ĠN etwork
anc ial
ĠS an
Ġg old
Ġus ers
os ition
inu x
U p
ut s
Ġf ail
Ġv is
ĠP akistan
Ġhe ld
a ul
ĠW ashington
ĠAustral ia
en g
Ġp ast
ian s
s o
Ġa v
Ġw om
Ġpol it
Ġs uc
Ġo wn
a ign
OND ON
Ġintern ational
ĠA ug
ood s
Ġfour th
Ġcont ract
ĠD ec
Ġcont inu
S h
Ġa head
Ġl ine
ist r
p e
at s
Ġf ac
ig ital
iv ing
Ġrele ase
Ġreg ion
Ġ ord
ĠS up
re l
m ail
h or
el t
AS A
Ġde v
iz ed
Ġeconom y
ro l
Ġw eeks
Ġdem and
ĠM ich
Ġc or
Ġd irect
I t
S ports
Ġpr ice
I s
Ġwh ere
ĠT e
ig er
ĠD ar
one y
Ġlead ers
Ġtr ade
ĠĠ Ġ
Ġh om
is co
ĠM c
Ġr ed
as es
Ġre ports
Ġlaun ch
ri b
op p
Ġsup port
Ġexecut ive
ĠRes earch
Ġfor ces
Ġst and
l oy
Ġg r
ob er
ĠPr ess
Ġh alf
Ġp oss
Ġh ow
Ġpro cess
Ġen g
Ġb an
Ġ1 5
ĠB o
ak er
Ġcon cer
j ect
ĠG u
Ġ1 8
Ġpr ess
it ch
s h
ĠIsrael i
Ġpresident ial
ĠAss oci
I T
Ġus e
f ur
Ġf ederal
ĠSt reet
E O
h am
end s
Ġeconom ic
l o
ĠI ran
f at
I BM
Ġbo ost
er ve
e or
Ġfor m
Ġst ra
Ġb et
Ġen ter
ient ists
as k
Ġh ist
id ed
or ida
ĠA ll
Ġm ain
ĠB oston
Ġe mp
ĠA fter
urrican e
ĠE ar
Ġnum ber
Ġd ollar
el f
e es
Ġy our
Ġinvest ig
Ġriv al
Ġo pp
Ġto ok
Ġr ight
Ġl ower
ĠB u
ul ts
B C
l im
Ġt ry
an n
ĠL inux
at ic
h old
Ġl ow
Ġre ce
Ġtit le
y ing
Ġh ard
ĠG r
Ġe v
in n
ri z
Ġjob s
ĠAmer ica
ough t
Ġm en
Ġnear ly
Ġcall ed
Ġde ath
Ġinvest ors
ve il
al t
Up date
Ġ Q
an ke
ĠS w
ĠM ay
Ġinter est
Ġser ies
Ġus ed
ĠB ar
pp ed
ĠRuss ian
Ġse ver
Ġfin d
n ess
ĠO ut
Ġ Qu
Ġse ven
ĠN ov
I nd
ill s
Ġcl ose
Ġa im
Ġa round
Ġbu ild
Ġin v
un ications
ke y
id es
l ines
anke es
in al
ĠUn ion
Ġ1 4
ir ed
Ġatt acks
ĠS erv
or ks
Ġf und
Ġd ri
I C
Ġs ent
Ġp op
ĠKore a
ar ing
ĠC ity
g ing
m it
ad es
am s
Ġcamp aign
a id
ĠT o
in als
ĠRuss ia
T A
ĠSec urity
Ġl ate
ĠD ep
id d
b r
Ġgl obal
ĠS un
ĠD is
a el
Ġkill ing
ĠO racle
1 5
ro d
ĠW all
Ġwork ers
ak es
Ġn etwork
en ed
ĠAn g
p er
Ġc are
Ġd et
if f
ĠApp le
Ġsh ort
ĠS ays
ĠE d
ud ge
c y
u j
ĠS udan
ĠH igh
ĠI BM
Ġqu est
Ġl it
ĠM ot
Ġm ight
Ġ1 6
ĠInd ian
at t
Ġm od
av ing
Ġc a
Ġdes pite
ĠD em
un g
ĠG ame
Ġsuc cess
Ġ1 3
t op
Ġs chool
Ġ3 0
ĠDar fur
Ġpro m
Ġsm all
ĠP eopleSoft
ab or
ĠFr ench
Ġlead ing
ĠFl orida
ĠPh il
er gy
Ġc ase
id ence
Ġvers ion
ĠIt al
Ġp at
ĠSept ember
Ġal so
or thern
b y
art ment
i j
ou thern
al k
Ġch amp
Ġrem ain
ĠE lect
Ġfoll owing
ad r
Ġv ideo
ĠK erry
ĠComm ission
Ġbro ad
g et
Ġh ol
a it
l am
it es
Ġ1 7
Ġapp l
T H
Ġan al
Ġd om
ens ive
Ġar rest
Ġagre ement
en er
ĠA c
it t
Ġb est
um an
O il
on t
Ġg ood
ĠNew s
S p
Ġt ax
Ġn ational
ĠM ark
anc es
ign ed
Ġr ise
ĠOct ober
ĠSt e
Ġb reak
am ed
Ġst ar
et h
ĠP ar
is hed
Ġtr ans
ug g
Ġs he
Ġ ed
Ġpro pos
Ġcap ital
Ġfor e
ut e
Ġcon d
anad a
orn ia
u ce
m ber
Ġst e
ess ion
Ġproduc ts
s c
ĠO ver
u ro
v ed
Ġe as
ystem s
or ts
t ime
Ġc re
ĠR ep
Ġbe gin
ĠPl ay
ro ve
ĠT V
ow ed
Ġb oth
Ġf amil
Ġw he
ove mber
w ays
Ġf ootball
ĠC ourt
ĠB y
Ġcustom ers
) ,
Ġs ol
l er
Ġc urr
ap e
ad s
im b
Ġreg ul
as ter
Ġg ive
Ġli k
Ġa way
o le
ĠU K
Ġto uch
oo ks
Ġin st
Ġm inister
Ġdec ision
Ġw ell
ĠAra fat
n ers
Ġfor ec
ĠI v
ĠN ot
ase ball
Ġout s
G H
Ġw ireless
Ġst ep
Ġfut ure
er man
oc r
es c
Ġplay er
ivers ity
th ers
Ġp erson
Ġbat tle
Ġh ere
ĠAustral ian
Ġm ar
Ġfin ancial
Ġpolit ical
ĠG eor
ian ts
Ġapp rov
Ġcharg es
Ġs uch
ĠY ankees
Ġc rit
A s
Ġe qu
Ġres p
Ġmeet ing
M S
n ey
Ġ ur
Ġr ace
um b
r en
Ġmanag er
Ġfore ign
Ġd ue
ĠR ec
R AN
Ġemp loy
ĠJapan ese
U N
u f
Ġm atch
Ġsc ored
ens ion
Ġchamp ion
g o
o f
Ġd igital
Ġe mb
Ġexp er
Ġto ld
Ġ :
Ġc ell
ĠC r
ĠS l
Ġeng ine
Ġbe h
ag o
ur t
P od
Ġl ist
Ġl ife
Ġpro ble
m ing
Ġp ull
ra z
Ġres ults
r ic
Ġd iv
ĠF ederal
ines e
iam s
er ing
Ġl oc
ĠProf it
O L
air man
ac y
Ġre ven
our s
ex as
row s
er n
form ation
Ġm or
ad io
Ġis su
Ġch ip
Ġun veil
ĠT est
Ġwith out
o id
ĠS y
st on
pr ise
Ġstra ight
Ġsever al
Ġm er
ĠH am
G oogle
hen s
Ġwhe ther
Ġcost s
w e
en al
ĠProf ile
C anadian
ĠC EO
Ġever y
Ġs ite
Ġsay ing
Ġaut hor
i ft
Ġtri al
es tern
ĠF ir
Ġo b
ĠIn tel
et t
Ġelect ions
Ġ est
os p
Ġ Quote
ent ial
ĠE U
ĠD ef
Ġset tle
m ost
ĠO ne
ap s
Ġch ampions
Ġper form
an a
od y
Ġbec ome
v iew
ĠChampions hip
idn app
ĠSer ies
I L
C om
f or
Ġf ew
row n
Ġ1 00
Ġlit tle
k er
al th
Ġexp ect
etw orks
ret ary
ĠSh ar
I D
erm any
ĠCalif ornia
F L
ĠP ost
ĠN ovember
I A
Ġre ach
Ġe ight
ĠFr ance
Ġmed ia
min istr
er a
Ġlaun ched
Ġs k
k top
Ġop t
Ġtr ad
ĠM us
Ġac ross
l ook
r ist
ĠP e
Ġpl ace
Ġweek end
Ġmak ing
Is rael
R uss
W ASHINGTON
ĠG l
ch ange
Ġpol ic
t he
Ġg reat
Ġag ency
Ġdo es
Ġstri ke
Ġbet ter
a ff
Ġwin ning
Ġro ck
Ch ina
Ġbank rupt
B l
Ġl ost
ĠB ig
A C
Ġ2 5
Ġincre ase
ĠAug ust
ĠS ch
av y
Ġtele v
is k
Ġsh ar
ah oo
S E
Ġrun ning
Ġ 0
E x
ect ion
Ġquarter ly
Ġne g
Ġwom en
ick et
u es
ĠE l
e le
W h
Ġhist ory
an e
ĠP at
Ġanal yst
i et
Ġf ire
Ġw ound
ap er
v ers
en ior
le x
Ġcont rol
ĠF in
ak ers
Ġus ing
ĠW in
Ġre ac
iv ed
Ġhe alth
Ġc lear
as ts
Ġconsum er
ĠP ol
New s
Ġhost age
\ \
Ġv ote
Ġant i
Ġlik ely
p ected
B rit
I raq
Ġp riv
ic ans
ĠM a
Ġtak ing
Ġhop es
f ield
Ġch all
ĠA m
at her
ĠC anada
ĠCon t
oin t
Ġf ield
od e
ous ands
or ies
Ġcom e
Ġmanag ement
Ġbel ie
il es
Ġst at
Ġf ans
re en
Ġl ess
am ent
ir us
Ġp oll
ĠT exas
Ġs ame
Ġatt em
ĠM ed
ur ance
Ġwar ned
Ġi Pod
uf act
Ġs ee
l ier
ad ium
i ence
ri p
ond on
Ġ2 4
on a
- -
ĠN et
ĠSp ace
ĠAfghan istan
Ġj ump
it z
ĠW ireless
ot i
Ġbo ard
Ġbar rel
Ġmem bers
ĠBrit ain
gan iz
ĠDep artment
t d
Ġlaw su
Ġs um
Ġf eat
Ġch ild
Ġsh ot
Ġf ar
Ġacc used
Ġshow ed
F r
l ant
Ġto ward
Ġd r
Ġam ong
Ġtouch down
Ġd ist
et ro
Ġmor ning
A ustral
ic ation
S P
ĠWill iams
u le
Ġ ve
Ġd id
Ġl ed
if ied
Ġoper ating
Ġr ates
Ġas k
c il
Ġconf ir
Ġpost ed
e v
ĠP er
ir gin
Ġ ent
Ġp o
Ġ2 1
Ġexpl os
ĠD el
Ġf ull
le ged
Ġd rop
Ġs eek
ak ing
ĠMich ael
ĠP art
Ġact ion
it ive
Ġg as
Ġcl ub
s et
Ġf uel
ĠA tt
ol ution
oc us
Ġbeh ind
U n
ar ed
Ġpr ison
Ġmed al
Ġam id
Ġacc ess
ĠIs lam
Ġtak es
ĠDem ocr
Ġmilit ants
Ġposs ible
por ate
ĠCh ief
ĠS ing
qu e
in o
Ġb all
ot a
ve y
Ġvis it
ic ago
ĠI T
ĠG eneral
Ġgo ing
Ġwith d
Ġr ate
ĠN ations
Ġviol ence
Ġto o
Ġwin s
Ġclaim s
E M
y o
ĠCh inese
raz il
at ely
g es
am b
ĠT al
os ing
b and
in ed
it ions
Ġbr ing
Ġm id
Ġtr ading
re as
ĠB ay
ĠUn iversity
Ġapp ear
ĠE ast
Ġs em
Ġin formation
ĠH ol
Ġw atch
Ġre pl
ra ud
Ġe mer
Ġv ot
Ġact iv
A r
N o
Ġc ash
re ady
L E
Ġh uman
ON T
G O
al d
ĠFr anc
EN S
ac ed
Ġbe gan
ĠAfr ica
en ing
ĠC ong
Ġl and
Ġcr ude
ĠComp uter
ass er
Ġph ones
A D
en a
c ast
Ġto ol
ou ston
o es
Ġc ame
ĠJ e
ĠJ an
Ġinj ured
in c
Ġch ang
Ġ el
Ġd oc
ĠG ermany
our n
Ġs im
am a
ĠL td
oun cil
Ġinf l
and id
Ġal most
Ġsc ientists
B S
Ġg ot
Ġv o
iv il
Ġsign ed
Ġtake over
ĠFall uj
Ġbankrupt cy
in ing
Ġpop ular
ĠM ore
pt ion
r un
Ġm ass
Ġch ange
Ġdou b
ĠL ou
U R
ra ph
Ġprof its
Ġhelp ed
66 66
ministr ation
W orld
ĠLe ad
Ġs enior
ow l
Ġoffer ing
Ġtelev ision
Ġm ess
ĠN ASA
Ġp ush
Ġre al
Ġsold iers
Ġsa f
Ġth ose
Ġre qu
ĠH urricane
A pp
ĠS earch
ĠJ ones
our ces
or ing
Ġn ine
Ġal leged
Ġcont in
O ne
ĠM art
ĠR et
Ġconf er
Ġo ld
Ġd ied
ĠF ed
ĠMus lim
w an
w ide
Ġh ot
Ġen ergy
P r
e g
Ġpr es
ap ons
Ġle vel
Ġend ed
ic ks
ur ch
ĠM o
ĠB ill
Ġint rod
Ġcar ri
ĠS en
ĠD es
ecut ive
P al
V D
Ġso on
r ust
as ing
ĠS m
ĠG old
Ġj udge
Ġ19 9
r ing
Ġm et
ec e
ĠH ouse
Ġun it
J apan
Ġprod uct
Ġcare er
y n
Ġs ource
ĠD eal
gy pt
A l
ĠC he
ĠF RAN
Ġun t
ok es
15 1
Ġ ver
an ks
U P
v ious
Ġs ing
Ġf act
St ocks
y m
Ġst orm
Ġear lier
Ġprod uction
Ġstud y
Ġpart y
ĠDav id
Ġneg oti
ic ide
ĠW e
L ONDON
T wo
Ġn orthern
ĠS u
re am
ĠP aul
Ġk idnapp
ĠT ur
ac es
ron ics
is c
ĠJ u
Ġcut s
res h
Ġg ain
Ġf ur
Ġm oney
ĠS ales
ĠAir ways
A mer
ĠCh ar
com m
Ġreven ue
A t
Ġhe art
anc hes
Ġman ufact
s enal
Ġs outhern
ĠG ames
eal th
Ġopen ing
Ġb ill
ut ch
Ġy et
Ġcap t
ĠAt hens
Y O
as hed
ĠSt ocks
In tel
Ġm ust
and er
Ġp itch
Ġg ets
is is
ĠR y
ĠSec retary
ur d
Ġsu ff
Ġeff orts
ir on
ĠH ar
und red
Ġle t
M art
Ġin it
Ġal ready
ĠOlymp ics
Ġp le
Ġp ubl
ĠD own
ex pected
Ġannoun ce
pr ess
osp ital
e ing
un t
P h
Ġf re
Ġw eb
ĠAfr ican
Ġt er
et y
ĠH ouston
Ġperform ance
ĠFRAN C
Ġf ast
Ġp ot
Ġm at
Ġsh ut
Ġconcer ns
Ġfor ce
Ġdef ense
ask et
IS CO
O n
Ġm ult
Ġsc hed
Ġcall s
ĠServ ice
Ġconfer ence
B ush
Ġf e
Ġg ave
Ġcount ries
ĠAt lant
Ġcor porate
ĠAssoci ation
Ġperson al
Ġre j
ĠR o
en ger
il le
Ġg eneral
Ġacc ount
rem e
y a
Ġh ours
ĠH ow
ĠCh icago
ĠC ub
Ġse em
ĠFRANC ISCO
w ood
ver t
Ġmak es
ĠAng el
Ġforec ast
Ġn et
Ġrec over
K YO
un e
ok yo
Ġtry ing
Ġmark ets
ol f
Ġcon v
ian ce
ĠRes erve
Ġcurr ent
m ir
Ġc ivil
Ġen ough
anc ed
Ġa id
ĠG erman
Ġs ug
ĠSp ain
Ġouts ide
un ity
ĠAmer icans
Ġcons ider
ĠComm unications
Ġleg al
Ġexp and
r is
Ġs n
ĠS ystems
Ġgrow ing
Ġs ale
ĠM er
ĠR ob
idd le
Ġp ort
Ġd en
Ġqu alif
Ġcomp uters
) .
Ġy ards
a q
Ġre ady
ra p
Ġwith in
ri al
r ong
il y
Ġle ague
ĠC ouncil
ron t
ĠN ext
ĠBl ack
S c
ay ed
Ġst ake
ĠH old
oc cer
d s
ut in
Ġst op
ĠLou is
t or
u ally
Ġun ion
ical ly
Ġreac hed
Ġcontin ue
ĠSh ares
Ġav ail
Ġaim ed
Ġteam s
Ġre ve
Ġarrest ed
1 4
Ġc andid
Ġair line
Ġunt il
Ġo thers
ut es
ĠN FL
ĠJ ust
Ġb en
Ġreb els
Ġ2 3
Ġopp osition
end er
Ġli ft
C H
I R
ĠK ill
Ġdef eat
Ġloc al
C P
F ONT
le ge
ĠM ars
Ġsystem s
Ġf ile
Ġc oll
ĠT O
Ġl o
Ġre p
ri an
Ġpre par
Ġc op
ĠM ac
Ġwe apons
ĠC le
ul ation
Ġsl ow
ert ain
iam i
Ġtak en
Ġcharg ed
Ġinv ol
C ol
Ġanalyst s
e ad
ĠE nd
Ġ2 2
ish ing
ĠInd ones
ĠAs ia
Ġeff ort
anches ter
b us
Ġcompet ition
in ks
Ġr ally
ĠL ondon
1 2
en ge
Ġw rit
a ud
Ġins urg
or age
ĠT ra
ĠW ASHINGTON
Ġquest ion
ĠGeor ge
oun g
Ġstart ing
Ġcontinu ed
ĠGr and
ĠAn n
Ġfail ed
Ġauthor ities
a ult
ĠM iss
Ġsp okes
Ġbl ock
Ġsup pl
asket ball
Ġf ocus
al ed
Ġchampions hip
ĠG iants
Ġsup er
ĠAra b
App le
u ary
Ġf av
Ġw ants
ĠT wo
Ġe ach
Ġcent ral
iv en
Ġar riv
ipp ed
Ġc oun
Ġon ce
if fer
ĠAir lines
Ġpre vious
Ġpr act
Ġretail er
m ar
Ġdel iver
ot o
Ġoff ice
ug e
he ld
Ġdou ble
Ġe uro
ab ility
Ġfin ally
Ġp os
Ġdis put
Ġe vent
Ġa ff
adr id
Ġsug gest
ĠV irgin
ĠA st
ĠCh rist
ail s
ĠAg ain
Ġsp ending
b it
Ġf resh
Ġth ousands
Ġdom in
ic ip
com p
Ġdown lo
Ġfil ed
ĠOn line
Ġspec ial
Ġfur ther
ĠL ONDON
Ġinvest ment
AT E
U K
ĠD VD
Ġra ised
S AN
Ġf ig
im s
im ate
Ġreb el
DA D
ourn al
U L
Ġquarter back
ter ed
g ers
h an
Ġse en
Ġexecut ives
GH DAD
k ins
Ġp ack
Ġh ands
Ġd raw
ell ite
ĠDav is
ĠFranc isco
3 0
r ight
Ġc enter
Ġs at
Ġd am
r ich
Ġg un
ond s
c ing
ĠS ony
ĠC ons
Ġe y
p le
Ġoper ations
Ġpress ure
ĠIv an
1 1
ph one
Ġfamil y
ĠS et
Ġro ll
s ue
Ġs ide
Ġpr ed
ord er
ĠY asser
Ġ200 6
oll ars
Ġcr ed
Ġstr ugg
m ark
ĠB ack
Ġcr isis
Ġdes igned
Ġ5 0
Ġinj ury
Ġlook ing
F T
ad d
Ġen v
Ġpot ential
ĠC anadian
ĠT it
ĠT ro
ĠSt adium
rov ers
Ġg round
ound s
W ith
Ġm on
Ġh its
ad ed
ĠL os
Ġ2 7
Ġtra vel
un es
Ġdri ve
ic ted
as ters
Ġcom ing
Ġsp eed
ĠRe al
c c
Ġs ize
ent ral
il leg
ĠM adrid
l iam
ĠB owl
. '
ac ing
Ġcom b
ok ia
Ġ ,
Ġw ent
Ġg ains
ob e
Ġwithd raw
h ib
Ġf raud
ic o
liam ent
A fter
in i
ir c
Ġr isk
ĠAr my
ĠX P
H L
l om
p art
ur al
Ġg ener
Ġr ights
Ġtr ack
ank ed
Ġrul ing
ĠIn ter
Ġall ow
undred s
Ġo w
Ġd on
Ġv al
ip ment
he st
id ing
ĠH el
Ġtal k
il t
ec k
ĠPr ices
Ġgo al
Ġlarg e
Ġpolic y
ur ities
ĠM os
Ġdes ktop
Ġd ollars
ĠN iger
Ġget ting
p ost
ver age
Ġch airman
m en
ĠGre en
ĠEar th
O racle
ag ed
Ġch ips
ĠCo ast
Ġins urance
Ġp il
ĠC enter
Ġst ore
N A
as hes
av es
Ġsup ply
opp ing
ĠItal ian
Ġchild ren
ar z
Ġthe n
ent ion
ag ing
por ters
it or
ĠEx change
rows er
D ATE
Ġto wn
om an
th let
Ġsp ot
Ġprot est
t ors
ro ll
ell s
Ġsp am
ĠTh is
Ġben ef
ce pt
ab ly
uc ed
Ġcharg e
m onth
elt a
Ġhol iday
C C
Ġn ame
Ġann ual
Ġne ver
Ġpower ful
R ed
Ġf ears
Ġw ant
ic it
ĠM iami
Ġstr ate
ĠWh ite
E n
u ff
Ġt w
re land
Ġbe g
ĠBl air
I M
Ġwork ing
Ġproble ms
Ġt reat
C A
ĠB razil
ill a
ang er
Ġdisc uss
Ġinvestig ation
ele br
ic ial
ĠP rem
ĠE gypt
op er
all ed
Ġpr ime
Ġprov ide
i ber
Ġ illeg
Ġc anc
Ġp ick
ĠI P
Ġfight ing
ur ning
us ing
ill ing
ĠJ ob
E U
I ran
Ġ ident
m e
it ness
Ġ2 8
Ġfir ed
B y
ri ef
Ġbusiness es
k ra
ĠB el
ul a
Ġv ol
Ġsell ing
ĠAngel es
m aker
y pe
Ġplay off
5 00
E urope
G A
ce ed
os ed
Ġt imes
ail ed
I P
g ame
Ġd riv
Ġsur vey
ar ra
Ġto ur
ĠP ower
z e
Ġhe avy
riz e
Ġattem pt
S un
Ġdis app
ai wan
Ġriv als
ĠP ark
ĠB ro
ri a
ron ic
Ġplan ned
Ġhop e
ĠA T
Ġwe ak
Ġexpect ations
Ġavail able
E D
ĠP ac
Ġar my
AT H
pl oy
C r
Ġc our
Ġch ance
ĠTr ade
; ,
O M
on ald
enn is
m iss
s w
if th
Ġrul es
Ġs om
Ġb aseball
fer ence
uk os
ĠFir st
Ġpriv ate
ct ions
an ish
Ġd ro
om ing
ĠW ins
Ġconsum ers
mer c
Ġdec ided
Ġpoin t
ĠA ut
ord s
eat tle
Ġkn own
ĠP M
ĠB usiness
echnolog ies
r uct
over ed
Ġbl ast
as d
P C
ĠT or
Ġn amed
Ġfl ight
Ġrun s
Ġdevelop ment
asd aq
Ġt erm
Ġh ospital
Ġst ores
ĠF rom
UP DATE
Ġd iffer
Ġim port
ix ed
Ġord er
T S
ĠS oftware
ĠA N
ĠM e
ack ers
Ġwor th
Ġimp rove
Ġmiss ing
um e
ĠV i
aw i
ĠT our
ĠM or
Ġr adio
oy s
ĠPl an
e ver
st it
ag u
ore ign
Ġab ove
Ind ia
Ġapprov ed
Ġunveil ed
Ġconfir med
ĠRy der
m o
an ium
ow ell
Ġapp eal
ĠIslam ic
M ac
ĠM usic
A f
Ġkn ow
merc ial
M ar
act or
Ġask ed
N Y
Ġb ody
ĠC ard
Ġwar ning
ir t
op e
Ġpro b
ĠEx pl
e gr
Ġc row
ĠC ap
Ġle ave
vent ion
Ġregul ators
Ġto urn
Ġm ort
ct ion
Ġh ouse
ash mir
2 0
at ives
Ġb ird
ĠS P
Ġse par
ĠAs ian
ĠEn ter
ĠPalestinian s
ent ly
u it
us hed
ill ions
ĠE c
ĠThe y
ĠT ech
ain ed
Ġsu icide
ter m
Ġcon n
M W
c he
ĠM il
ol ph
Ġr ising
Ġv iew
Ġcont rovers
el ph
us es
Ġ2 6
ĠTh at
ĠEx p
h ic
Ġpro be
Ġare a
rough t
Ġsh ows
ĠShar on
Ġlawsu it
l ight
ĠF ire
Ġsp e
Ġsusp ected
Ġcol or
v ing
Ġg ra
um ents
Ġc ard
ĠS he
Ġis sue
Ġshare hold
Ġfir ms
Ġ200 3
in ation
Ġl ight
ĠN ow
ĠTal ks
M C
b eat
Ġc elebr
ĠIn vest
Ġ4 0
ĠPro t
Ġcap tain
Ġemploy ees
ĠM al
N ASA
Ġth ink
Ġdeb t
ganiz ation
2 00
ĠP ay
all s
Ġacqu is
Ġmer ger
Ġp osition
Ġm ag
ĠP ort
iv ely
if y
se ason
Ġlat er
Ġclaim ed
Ġturn ed
inn es
S T
it ors
Ġv irus
Ġcomp let
Ġincre ased
ĠBu y
. "
H P
Ġs qu
Ġst ay
ĠD rug
ĠL aun
innes ota
ĠT om
Ġoff ers
ĠT op
ĠM in
p an
Ġh app
and al
k es
ock ed
Ġnews p
Ġs ites
Ġb ad
Ġmov ed
Ġclos er
Brit ish
etro it
iron ment
e ase
Ġgroup s
Ġser ver
Ġissu es
Ġl ink
ĠSt ock
Ġeff ect
Ġadd ed
b o
Ġm ission
Ġpro p
ĠK en
Ġapp ro
Ġg iven
ĠL aw
ist ry
Ġad ministration
Ġequ ipment
ĠTe am
ir acy
Ġal ong
Ġro w
Ġloss es
Com p
N E
Ġg iving
ĠK ashmir
ib ility
ition al
ilit ies
Ġdev ices
Austral ia
C BS
P akistan
ĠI reland
ir es
se a
Ġur ged
Ġspokes man
elph ia
an ted
ing er
Ġw ater
ĠSt rip
Ġopen ed
Ġout look
Ġro ad
ip lom
Ġup gr
od d
com ing
ĠS ur
ĠN BA
Ġpro ject
t en
ut ing
Ġapp ar
Ġf ront
eat h
Ġrece ived
IC A
ĠPar is
ĠFalluj ah
ur ies
ward s
n ew
y le
il ty
Ġd est
ĠT ony
ly wood
oc key
ĠY ahoo
Ġsl ight
ĠDec ember
Ġappl ications
ATH ENS
er ic
ĠR ock
ĠD ay
Ġcom es
ĠAn t
ir ing
Ġro le
ĠMon t
Ġl im
Ġst ation
Ġst aff
ĠR ise
eat her
Ġdiv ision
L AN
Ġp urch
ĠD ata
ashington post
Ġcre ate
S ony
b n
c raft
h y
w ashingtonpost
Ġth ough
Ġwin ter
Ġav oid
y c
ĠM ex
Ġpart ners
Ġmilit ant
at ory
Ġc ou
ĠA M
ĠF ield
lect ion
Ġimp rov
hel sea
Ġtourn ament
A K
r ish
Ġb ased
st ron
ĠL a
Ġun c
For mer
Russ ia
Ġd idn
ul ed
orn ey
f ord
Ġb rowser
ĠW ork
ov a
Ġresearch ers
ĠT okyo
ĠP ri
om a
ĠM anchester
Ġaut om
TH E
Ġto t
Ġterror ism
ĠSing h
ĠCong ress
l ish
Ġw id
id s
Ġpro s
enc es
aj af
str ong
Ġdrug s
Ġwound ed
B ER
ene z
ĠDemocr atic
w est
Ġcom mercial
ass ic
Ġjoin t
Ġsing le
ĠJu ly
Ġp ri
Ġst orage
ĠF oreign
Ġcar ry
tain ment
Ġfac es
ĠC an
Ġfor ward
ĠW i
Ġcomp l
ign s
F actor
w a
on to
ill er
pl ay
ĠAd v
ell ing
2 5
Ġf ifth
Ġo vers
re ad
ĠM innesota
ĠB omb
ĠAr senal
ĠMot or
Ġn etworks
Ġdec l
News Factor
ĠJan uary
Ġab le
Ġser ious
Ġest im
n y
un k
pr es
Ġsign s
ĠZ eal
ij ing
arz ai
ICA GO
g age
Ġt on
Ġst reak
Ġexper ts
v et
ac hes
ĠI ts
ĠW oods
ĠF ootball
Ġplay ed
Ġche ck
Ġt ight
ell ig
itt ee
ĠAst ros
ĠS eattle
ig an
th an
k n
p ro
ur b
Ġl osing
ĠH en
ĠH ait
Ġqu ick
ĠCh arg
ĠInd ust
Ġdist rib
Amer ican
P l
p s
Ġs outh
Ġb asketball
ĠR ich
Ġse x
Ġsur v
ĠAc c
Ġw ild
Ġcl in
ĠSte ve
Ġcrit ic
Ġinit ial
ĠZeal and
ĠD etroit
ag er
ĠSh i
ĠGre ece
at form
ent al
ĠM S
Ġbl ood
Ġme as
Ġc am
Ġm ach
ol ina
ĠW al
Ġmin utes
y an
iv al
Ġwom an
Ġpropos ed
m as
Ġs ources
ĠF orm
AL L
ĠJohn son
ĠS ol
ĠItal y
Ġl ooks
ep end
Ġincre asing
Ġve hic
an el
ĠN ajaf
ĠH ew
ĠL abor
Ġal leg
Ġad vert
Ġstart ed
F i
ĠM ike
ri ots
. \
B ay
Ġ q
Ġsh oot
Ġwh ose
oy al
Ġrul ed
Ġacqu ire
Ġpros ecut
Ġa ud
Ġm om
ad elphia
ĠAtlant a
ĠD utch
Ġprot ect
ed a
ack ed
Ġoff ensive
Ġplay ing
Ġrev iew
Ġstat ement
Ġb oss
ist ic
Ġhold ing
ĠBo eing
i ot
u z
Ġt y
Ġfor ced
Ġr en
Ġch o
Ġdeb ate
Ġev idence
or row
Ġn orth
Ġrock et
ĠVirgin ia
Ġs it
Ġin ning
ol es
ew art
ĠV al
Ġar t
Ġoffic er
ĠRe port
Ġbuild ing
Ġa verage
ĠP re
ĠD iv
Ġis land
ond uct
ang ers
Ġaccount ing
ĠU s
Ġgu ard
ĠDis ney
W hen
v ille
ĠD eb
Ġhom es
Ġf ood
S ec
Ġf ri
ĠM ic
ad a
d og
f ox
ass y
eng th
Ġsuccess ful
ĠMark et
Ġo ur
ĠB ang
Ġde ep
Ġle aving
ud y
ĠDe v
Ġdoes n
kra ine
a eda
s ter
Ġs an
Ġw estern
ĠD o
ĠL ong
Ġrem ains
Ġsusp ended
Ġreturn ed
S outh
ir l
ĠKore an
Ġkidnapp ed
; .
ic on
Ġh uge
Ġh undreds
ig hest
ĠB rown
ĠR eb
Ġbec ame
Ġoffer ed
Ġthreat ened
Ġdeb ut
f l
Ġt em
ar i
ĠM obile
ĠG o
ĠSup er
T unes
ĠT im
Ġre form
ĠV er
med i
BA GHDAD
Ġb us
Ġset t
Ġseek ing
Ġacquis ition
F A
Ġw itness
ĠT ime
Ġn on
ud d
Ġcr ash
Ġrej ected
g ent
Ġh aving
ag les
Ġear th
Ġfil m
Ġdro pped
n et
at i
am ing
Ġmed ical
h io
ipp ing
; -
c ome
ĠM asters
Ġre ason
Ġbe ating
Ġcl eric
Th is
Israel i
a ugh
ĠC ount
Ġre ad
ul f
Ġv end
Ġwin ner
Ġdev ice
b ed
s elf
D ollar
k o
ent ure
ĠT aiwan
ĠP it
Ġre pres
Ġg en
Ġag ree
Ġprov ider
ĠS o
Ġ2 9
ĠY ukos
Ġpar liament
r anked
Ġc ode
id ers
ur der
. &
i ar
s erv
ent ed
ĠB er
Ġinter im
Ġhost ages
Ġchall enge
Ġsaf ety
ĠTO KYO
ĠB ob
ans as
Ġsc andal
ĠBl ue
Ġconf l
ĠPart y
Ġcarri er
Ġcrow d
u x
Ġs occer
Ġf ear
Ġret ire
Ġtro ubl
Ġdirect or
Ġsuppl ies
Ġdisput e
ellig ence
i ents
Ġf ly
as tern
ac ec
th ing
pp ing
Ġra ise
ĠWar ner
Ġcour se
N N
a ut
ri el
Ġro b
og raph
Ġver y
olph ins
h ouse
ou d
ĠM ilit
Ġexp ects
ger y
ĠT w
Ġst age
Ġres ult
Ġdec line
Ġcontinu es
Ġcoun ter
Ġtot al
C on
l arg
s ource
ar n
Ġm illions
Ġth ought
ĠCar olina
Ġfut ures
lin ed
ĠTor onto
A B
C o
G EL
m a
Ġp ain
th ough
Ġcont ent
Ġconf idence
Ġintern et
acec raft
C S
y ware
Ġ z
id el
ĠH ealth
Ġsa ve
Ġsh ip
Ġpl ant
Ġcomp le
ĠS AN
Ġd iplom
ur er
Ġl ic
ree k
Ġdo z
ĠPC s
ĠAN GEL
c hen
i est
ĠB eat
end o
Ġdef icit
Ġexplos ion
ĠANGEL ES
, \
Ġs end
Ġw anted
ĠT reas
ĠN ear
P EC
Ġb rought
ter y
ĠT echnology
ĠI D
Ġen c
ĠSer ver
Ġsum mer
Ġb it
Ġpl ed
AT O
Ġrecent ly
ĠCard inals
ĠEc onom
il ing
op ing
Ġ3 5
In tern
Ġgo es
ific ant
ĠNext el
Y ahoo
ĠC ut
ĠF ound
ail and
ĠRec ord
ĠF und
Ġcl imb
Ġend ing
ĠIndones ia
A d
p oint
Ġa stron
Ġo cc
is l
Ġr ain
ver d
Ġpropos al
Ġchang es
C l
T r
ĠM ass
Ġk ept
E I
i od
t r
Ġa ward
ad o
ĠW hen
Ġplan e
Ġclos ed
r ay
ĠS il
ĠA lex
Ġst ates
Ġch ain
rac y
ĠOff ice
y l
ident s
ĠSp anish
Ġi Tunes
l ad
Ġw alk
Ġb order
Ġilleg al
M ore
Ġp ace
Ġn ations
Ġar ch
Ġcons ecutive
Ġdes ign
Ġproble m
aud i
Ġslight ly
, "
b ur
on ed
or ity
al o
Ġserv ers
Ġelect ronics
Ġappl ication
P ro
c el
k y
Ġw a
ĠCon ference
ĠSup reme
N L
Ġ er
Ġs ending
Ġc iting
ĠD ie
ĠH all
ap ore
iz on
Ġair craft
Ġlaw y
ĠPhil adelphia
ĠPri x
enez uel
m akers
n oon
est ic
ra g
ĠO ak
um m
Ġgu ilty
ĠServ ices
Ġissu ed
Ġshar ply
1 3
1 00
Ġs il
Ġf un
Ġm y
Ġde p
ud get
Ġco al
Ġcomm ission
ĠHow ard
Ġ und
on str
ĠA riz
ow ers
Ġfin ance
eb an
ĠPhil ipp
Ġsched uled
ĠS ans
ĠC entral
ĠG row
ĠV o
Ġlong er
Ġsub s
Ġ esc
ig ning
enc ies
Ġcomm it
ĠBe ijing
Ġbel ow
itz er
ĠAgain st
ĠC H
un ch
Ġy oung
Ġconcer n
Ġsettle ment
Russ ian
ar a
Ġk ick
ans ion
Ġim medi
ind s
Ġstri ker
ĠChrist mas
Ġnewsp aper
ĠMex ico
h ing
Ġ .
in ary
ĠT rop
ĠP utin
os es
ĠSt ar
Ġ urg
ar ial
ic onduct
Ġm oon
ou l
Ġr ange
Re port
Ġterror ist
Ġneed s
P ol
h igh
ra in
Ġbuy ing
er er
Ġs ets
Ġb as
ĠA riel
ĠT imes
ĠO S
Ġhim self
ĠAg ency
Ġpo or
ĠSen ate
1 6
in et
ĠH ost
ĠSt ores
Ġdes c
for ce
Ġimport ant
E T
P eopleSoft
he ast
en ced
Ġc ertain
Ġpl atform
ĠY ear
Ġro om
ox x
=" #
=" -
ĠSer if
hel vet
6666 66
verd ana
helvet ica
B R
om in
ĠB en
ĠElect ion
Ġfeat ures
Ġsan ctions
Ġc over
Ġh ighest
Ġth rew
Ġl abor
Ġbl ow
Ġmem ory
ĠTe le
ĠR og
ĠG en
ĠSt ewart
Ġcr im
Ġcop y
Ġton ight
1 7
8 0
A ir
F ed
W e
n ight
ĠA L
ĠCl assic
ĠRed s
i ation
ĠS af
ear ing
ag s
Ġcon c
Ġv ac
Ġfl u
Ġhost ile
M an
id ge
ĠJ ames
ubl ican
Ġbroad band
k l
Ġr ad
ĠU r
Ġsec tor
Ġwin d
ĠSec urities
Ġtool s
Ġinfl ation
Ġs ports
Ġsa w
ik ely
eth ing
Ġvo ters
Ġrequ est
Ġcred it
Ġthe se
ĠT y
ail y
c on
ĠS ant
Ġr an
ĠN ets
Ġafter noon
Ġj ournal
ush arra
ang u
ĠAb u
ĠHigh er
usharra f
W eb
Ġc irc
Ġw el
Ġin vent
OR ON
Ġ6 0
Ġdevelop ed
Ġca used
Ġcandid ate
Ġto ugh
ĠM icros
ĠM ajor
ĠIn t
Th ree
Ġsw eep
Ġneed ed
ĠRep ublic
Ġnegoti ations
Ġreve aled
Ġfig ures
j ects
Ġw at
ĠC ase
ĠH is
land s
sc ri
Ġpil ots
r int
Ġto ll
ĠN HL
ĠD en
Ġse es
av a
ĠMich igan
Ġpubl ished
Ġt ech
Ġa p
ur ers
ĠW ay
Ġsp acecraft
ov ers
Ġ4 00
Ġexpl od
int endo
ORON TO
f ect
Ġs eeks
or ic
an i
Ġb ox
st and
Ġstr uck
Ġmov es
T ER
ing ular
om ber
Ġg ives
ĠR am
Ġde ploy
um er
ĠIn s
Ġfl aw
Ġsign ificant
Ġfund s
I f
le tt
Ġl ab
Ġ3 1
ĠEx t
inis ters
Ġur anium
C ar
Ġm urder
Ġv s
ĠPe ace
ĠMed ia
Ġfav or
r ation
Ġplan ning
Ġtra ining
Ġown ers
ades h
ĠJe an
Pal estinian
M P
M c
O U
u ation
Ġc reat
Ġto get
ĠI f
od gers
Ġexp ress
Ġper iod
Ġbu ilt
Ġtoget her
m ers
Ġw eather
add am
ĠNiger ia
y ard
Ġt ie
or er
ĠI m
ĠO K
ke i
ik kei
Ġred uce
ĠRep ublican
k i
Ġc al
Ġh urt
ĠC amp
Ġits elf
ĠTh ailand
go ing
ĠM P
gr ess
Ġdec ades
Ġinsurg ents
Ġin nings
ĠA v
ĠN or
ĠD ell
ce p
Ġwor st
ff ic
Ġbomb ing
Ġfil es
Ġban ks
mit ted
Ġcontrovers ial
h ere
al v
Ġr ule
ĠH us
ĠO hio
ist ed
Ġgo als
Ġinter view
Ġconfl ict
M o
c ow
Ġs ong
Ġm is
ĠG ets
Ġ8 0
Ġeas y
Ġpull ed
ĠVi oxx
ĠHait i
Ġb ook
all as
Ġup date
Ġlaun ches
Ġmiss ile
Ġmov ie
Ġfre ed
Ġsharehold ers
Ġl ay
ĠL oss
Ġres ol
Ġprogram s
isc al
Ġpract ice
ĠJob s
Ġsubs id
C AR
m art
Ġint egr
Ġhelp ing
Ġoper ator
Ġappear ed
Ġenv ironment
Cr ude
iconduct or
Ġt echn
ĠI N
ĠH ome
Ġsh opping
Ġcl ass
NY SE
larg est
Ġw ide
ĠA re
ĠD ou
ĠY ou
Ġsec ure
ote b
vel and
Ġrel ations
ann ie
Ġintrod uced
Ġm ember
ĠI rish
Ġ( \$
im ir
ĠU t
ĠK ong
Ġbro ker
Ġquest ions
ĠMot ors
Ġresp ons
ĠPat riots
Ġstrate gy
r ig
ĠD ame
if ts
Ġdis miss
OR E
ĠHol lywood
ĠOak land
W A
p ool
r or
ic ult
Ġex c
Ġtouchdown s
Ġt ack
ĠTh ree
Iraq i
Un ited
) :
ĠR adio
ĠL ab
Ġsp ent
mer ce
iz ing
anc ing
Ġprot ection
ific ation
ĠJe ff
O T
oun ts
Ġwor ries
ound ed
Ġins p
ĠTur key
lad imir
re es
re ed
ĠC isco
Ġl ock
ĠK ills
Ġmak ers
Ġprogr ess
urrican es
Ġsat ellite
ĠT iger
ĠM em
ĠB ry
ill ed
Ġcall ing
Ġpar ts
u ke
Ġth ings
ĠR a
ĠSt ri
ĠCh airman
Ġshow ing
iver pool
ĠComp any
Ġrecover y
F l
G l
R A
ĠG et
Ġpro sp
Ġhe l
Ġenter prise
Ġdiffer ent
l adesh
Ġa uction
ar is
ĠFor mer
Ġass ault
Ġpass es
Ġdam age
ĠAriz ona
T ech
w ar
Ġs port
ĠT ake
ĠB onds
ag ement
Ġ200 0
Ġdec ade
ĠRe g
Ġsur gery
Ġph ot
Ġbat t
ĠCar l
E A
Ġf ix
ul ner
ri ed
em ents
ĠIn to
Ġj ail
ĠEn ron
Ġsur f
Ġsur pr
ĠDe ad
bur gh
J o
V ER
in y
ir st
ĠD rop
ĠO f
ens ions
Ġwar ns
az on
ran ch
ĠEng ine
Ġord ered
Ġdownlo ad
Ġprob ably
b acks
i os
ar ry
Ġc le
Ġwh y
ĠK ing
vent h
Ġpass ed
ĠFin ancial
Ġow ner
Ġmom ent
er y
em b
Ġis n
ib r
ĠPro d
Ġtarg ets
ĠFl a
Ġoper ation
Ġproduc er
ĠGeor g
Ġter ms
ĠIP O
ĠDiv ision
r ad
Ġp air
ĠT arg
Ġl ose
Ġg ather
ut ed
ĠK y
uc ks
Ġind epend
Ġarriv ed
z illa
Ġp it
por ation
Ġprocess or
Ġremain ed
w eek
Ġc atch
ph oon
Ġsecond s
ĠFor ce
Ġbro ke
Ġext ended
Ġdom estic
Ġapprov al
ĠDef ense
Ġrepres ent
N okia
ĠP an
ol a
igh b
act ion
Ġpre p
Ġleg isl
Ġbegin ning
Ġbelie ve
ĠS outhern
ĠC ost
ĠF ord
ra ves
qu es
Ġcr icket
enn ess
ĠForm ula
al ity
ĠH it
ĠJ ets
ĠK arzai
Ġren ew
N asdaq
g u
it rust
Ġy en
Ġsur prise
Ġpre vent
Ġext ra
Ġshar p
ĠPol ice
ĠMicros ystems
Ġ \
Ġp ict
ĠS usp
nd er
ĠC y
ĠM iddle
ĠTh ere
ĠPl ans
Ġmass ive
Ġsom ething
Ġcomplet e
f ire
ater ial
Ġadvert ising
Ġw rong
is ions
ack ard
ens pan
Ġ4 9
Ġ6 4
Ġtra in
Ġref ug
ĠSw ed
ams ung
ĠGl obal
ĠCub s
C isco
Ġsh r
ĠV ladimir
a u
b reak
on ents
Ġc rew
ĠS ir
ut ions
im ent
ĠR el
Ġbl ack
pr int
Ġimp act
Ġrel ief
Ġhop ing
Ġrepl ace
C L
re g
ĠT echnologies
ĠP owell
ĠB aseball
ĠN AS
ĠE r
oc racy
Ġbl ue
Ġind ic
Ġbro k
Ġearth qu
A m
b ox
g ency
he im
ĠS addam
ou ra
ĠC uts
Ġr ank
ĠO s
ab inet
Ġdel ay
ĠSe es
o or
ĠM ets
ra ig
ĠH its
ĠL ow
Ġar m
Ġco ast
acks on
Ġkn ee
comp uter
Ġdisapp oin
in h
er em
os hib
ĠTh om
Ġres c
ĠMart in
Ġtroubl ed
D ell
Ġ ide
Ġf iscal
ĠD allas
ts burgh
Ġfl at
Ġ5 00
ĠCl ub
Ġdisc overed
Sh ar
ession al
ar ters
Ġc as
ig ers
ot ion
ĠG overnment
Ġar ms
Ġlawsu its
Pr esident
oshib a
R O
ĠA ust
el ing
ĠK n
Ġco ol
Ġtri p
Ġcomm on
Ġdead line
Ġpos itive
f inals
Ġc ause
ĠE agles
Ġpro mp
Ġout put
Ġam b
Ġsub scri
Ġstand ard
ĠEar nings
rich ment
ĠS ome
ĠC helsea
ĠB A
ĠSte el
ĠHam as
ĠCle veland
H E
b es
Ġa thlet
ar ian
Ġb oy
Ġd one
ĠM illion
ĠF ree
ĠN orthern
Ġ200 2
Ġworld wide
ĠEn ergy
ath on
Ġtri ed
Ġfac ing
ĠAng els
Ġstrugg ling
P ackard
e als
Ġd anger
el ves
ĠB id
ĠR ises
aw ks
Ġsu it
ĠIv ory
En g
ĠFire fox
Ġexplod ed
G E
at ure
Ġc ross
ĠH at
ĠK h
Ġint elligence
Ġmarket ing
Ġfall ing
Ġwound ing
Ġmort gage
2 4
a ur
h t
ĠV ict
od ies
ĠPost s
ĠMa e
Ġve ter
L e
ec ial
ir ac
ĠSt ep
Ġapp ears
ĠSp rint
ating s
ĠEx press
DA Y
ĠPer cent
N BA
Ġt ies
Ġs ession
Ġp ers
le w
ĠL ank
ĠRe le
Ġdem ands
Th ere
Ġcol lege
AM D
kl ah
N et
a o
or ado
Ġp aid
Ġp ension
Ġb ase
igh th
ĠK ansas
ĠEx pos
Ġcomm un
Ġmov ing
Ġbenef its
odd ick
G M
om ic
Ġl ot
ĠU kraine
ust ed
Ġfin ish
Ġad op
Ġsur ge
Ġadd ress
AC E
Ġannounce ment
ĠExpl orer
klah oma
ĠI mp
Ġg reen
ĠW estern
ĠD olphins
Ġv enture
Ġsp ark
iz ation
Ġim age
ĠEx ecutive
ĠSc ott
Ġdet ails
Ġwatch dog
Ġsuff ered
Sc ientists
Ġappro ach
em an
oc ial
Ġsc ore
Ġhigh s
AR IS
Ġdevelop ing
Ġdead ly
imb ab
ĠJust ice
B I
ĠE ver
ĠBo ard
i as
ĠF our
ĠL eban
um s
uc ial
ef ore
imbab we
h alf
ed ed
Ġm iles
ĠA ct
ĠF ood
th a
ĠD elta
ĠH ot
ri ve
ist ance
Ġres ign
Ġ200 1
Ġall owed
Ġne ighb
ert y
Ġfil ing
Ġsold ier
alt im
ĠDis c
Ġcrim inal
P H
in th
er g
at tle
Ġh un
ĠJ une
aw n
sp eed
OS CO
Europe an
altim ore
ro ke
Ġr ap
ĠG ulf
Ġun l
Ġ3 4
Austral ian
ĠDes ktop
Ġpitch er
ĠMS N
I ON
re al
Ġde ter
ĠCor poration
ms elves
ĠGrow th
Ġc able
al y
ĠS am
ĠM usharraf
Ġst em
ĠIraq is
ach er
Ġbomb s
Ġtele phone
Ġrest ruct
Ġalleg ations
OSCO W
ĠSt art
Ġpl ot
ens es
Ġsc r
Ġfl ights
Sh ares
Ġtw ice
S ing
o ke
at ab
ĠP ent
Ġl ack
ĠL ower
av ens
Ġor ig
uct ed
ĠAr gent
Ġvict ims
Ġopt im
enness ee
D ow
Ġthe mselves
Ġg irl
Ġnum bers
Ġgr and
Ġmess age
ĠDie go
e ated
n ot
Ġs oft
ed ia
Ġto m
Ġm inisters
ter oid
el ine
ĠO ld
aw a
Ġins ide
ĠCon n
ĠCol in
Ġord ers
Ġlevel s
comm unications
ĠUt ah
O ff
ĠS n
ĠC am
ĠN etworks
ĠG ar
ĠH as
ĠJ ava
Ġv ulner
Ġbec oming
ĠSm ith
bo ard
Ġpurch ase
A ll
n i
Ġh y
Ġh ous
Ġcr ack
Ġra ising
Ġhist oric
Ġattem p
ĠMos cow
G eneral
f in
ar ies
ĠS audi
am i
Ġcomm unity
Ġthreat s
ĠDe velop
Ġspec ies
we ight
Ġpoll s
ĠCH ICAGO
ĠTrop hy
A ra
ed d
ĠA G
Ġan sw
Ġse venth
Ġreported ly
ĠOut look
L ook
f e
he lp
il ed
Ġn ames
ĠP rize
Ġoff ense
Ġtrad ers
Ġqualif ying
Ġval ue
7 5
b s
Ġb udget
Ġare as
ort el
Ġass ets
ĠEng lish
ter ing
ot ing
ĠD on
ĠJ ose
Ġex change
Ġsix th
Ġdri ver
Ġweb s
Ġestim ates
i us
k eep
n am
an o
Ġch ar
ĠTh reat
urn s
Ġ7 0
new s
ĠAM D
r ate
Ġs ure
Ġm ut
et ary
ĠH om
ĠJ im
Ġup set
Ġsc ient
Ġdis play
Ġadv anced
ĠPakistan i
ĠAssoci ates
3 5
W ill
Ġd raft
ith er
Ġsh ift
Ġprov ince
Ġtest s
Ġpat ent
Fr ench
' re
. -
g ener
ar row
Ġp anel
Ġb rief
ĠM ount
Ġg rew
ĠJ ason
ĠSt ill
istr ict
Ġinst ead
Ġcrit ical
ĠKill ed
ĠPit tsburgh
c at
e er
e as
at ural
Ġp urs
ct ic
Ġhe ating
ick ets
Ġexp ansion
Ġres olution
Ġkill s
Ġme an
Ġbeg ins
ĠPrem ier
Ġt ennis
ĠW eek
Ġhe ar
ĠSt and
ĠV enezuel
ull s
Ġpre m
rupt ion
iff icult
ĠHold ings
ĠMic ro
ĠBang ladesh
ĠM ary
Ġst ory
ĠSt ation
ĠCh all
Ġac cept
Ġsec ret
Ġreg ular
Ġair port
Ġlook ed
ĠQu arter
ĠTreas ury
ĠRog er
Ġm ount
ĠS em
ot ype
ĠO w
op h
ict ion
Ġopen er
Ġsum mit
Ġfast est
oteb ook
ĠBry ant
er o
Ġl ands
ĠI ll
Ġsp l
ĠFall s
Ġfamil iar
Ġvot ing
Ġseem s
Ġupgr ade
Ġcomple ted
Ġb ur
Ġm iddle
ĠT el
ul es
and a
Ġv ar
Ġqu it
Ġrel ated
Ph il
Ġc ars
ic ed
om en
ol is
ĠD odgers
ĠL ad
Ġv irt
Ġex ports
ĠPr ice
ĠAb b
Ġcurr ency
L C
z a
ed ro
Ġf oot
ĠM ag
Ġn inth
Ġl ines
Ġg olf
im in
ĠE y
um ent
iv ity
ord an
og n
az e
ran ge
ĠMar ch
ĠCol orado
ĠNot re
eck ham
ĠMin istry
Ġth ing
Ġr all
qu ir
and ed
ain ing
Ġun expected
Ġstr ength
Ġdef ensive
ĠOff icial
Ġant itrust
Ġcol lect
ĠAssoci ated
S e
v an
er ate
Ġre ally
ĠL ast
ĠJ ackson
ĠFr ank
Ġcr ucial
Ġindust rial
ĠTr ans
Ġstud ents
Ġforec asts
Brit ain
Ġhot el
i ro
ĠS een
ĠF ight
ĠE mb
Ġup d
port unity
az ine
Ġrecord s
Ġhand held
IT Y
ĠFalluj a
Ġpack age
l ong
he ll
ic op
ro ad
Ġof ten
ĠC hen
ĠB altimore
ak s
ell ed
Ġse ed
ĠCo ach
Ġdem onstr
ĠAb out
Ġtreat ment
ĠGeorg ia
r ick
t e
it ig
Ġl ive
Ġst un
Ġcl imate
ĠSat urn
ĠCl aim
ĠComm ittee
ĠSc ot
ĠShi ite
L OS
Ġh urricane
ĠN ob
ĠL ines
ub le
Ġfin ished
iz er
overn or
Ġor ganiz
str uction
Ġchall eng
Ġent ire
Ġsem if
Ġconsider ing
Ġtom orrow
P S
on se
Ġc y
Ġh on
Ġh or
Ġinc ome
Ġend s
Ġhead ed
Ġjoin ed
Ġmat ter
Ġprevious ly
G r
V er
b ury
i que
p re
us ion
ĠR em
ain e
Ġall ows
Ġtest ing
Ġform at
Ġdr am
Ġprepar ed
ĠIndust ry
D elta
r d
u an
in ers
as c
ac ity
ist ing
iv id
se in
Ġar med
app ing
Ġjump ed
SP ACE
H O
T op
en gt
ĠO klahoma
Ġen richment
ĠAir bus
Ġmiss ed
Ġmanufact uring
Ġpartners hip
Ġdecl ared
D es
H ow
S udan
g en
Ġw ays
Ġb ought
ĠC ould
Ġr ing
Ġv ia
Ġcl ash
ĠV ote
Ġlead s
ib an
AL EM
Ġinclud e
ev in
Intern et
W al
Ġre fer
ĠJ ew
ine z
Ġac cep
Ġres ume
Ġres idents
ous ly
Ġind ex
Ġcre ated
Ġvot ed
ĠLead er
Ġsched ule
stit ution
C ons
Ġf aster
Ġh alt
ĠB all
ĠW ales
Ġst ars
Ġj ud
ant age
Ġwar ming
St ar
Ġretail ers
ĠMer ck
Ġden ied
Ġquick ly
H e
R es
h ard
k ish
Ġd ate
ĠR angers
og s
Ġte en
TO KYO
Ġopt ions
Ġm aterial
Ġd ifficult
ĠB ell
ĠD ow
um ble
ĠK eep
ab ilities
Ġcustom er
ĠSudan ese
Ġbring ing
ĠPac ific
1 9
Ġ ill
ĠS EC
Ġnot hing
Ġthan ks
Ġclos ing
Ġhom er
icip ated
Ġey es
beat en
S er
T icker
T ORONTO
h orn
it iz
Ġc ents
Ġc ards
al i
ĠW rap
ĠN okia
ĠSt orm
av al
ass ini
Ġelect ronic
Ġcond itions
field er
Ġdoc uments
Ġwitness es
Ġcopy right
V I
ĠS ay
oc ol
ĠV ol
be an
ĠMan ning
Ġmod el
Wh at
ĠMars h
help s
m l
m ates
ĠT ennessee
ĠG ood
ew ay
ĠH ong
ĠV ik
Ġrec all
Ġdis ease
Ġtra ffic
Ġbank ing
Ġext end
Ġdel ayed
Ġeas tern
itig roup
l ers
ĠP GA
ĠL at
od af
US ATO
Ġdisc l
Ġadd ing
ĠOr ganization
USATO DAY
o om
Ġf igh
ĠB ern
ĠR oman
Ġde als
ry s
ush ing
Ġdec ide
Ġchang ed
Ġdoub t
Ġgener ation
ĠMal ays
odaf one
Ġm ixed
Ġe ighth
ap olis
Ġor gan
US ALEM
Ġset ting
ef ul
ER USALEM
ĠAnn an
atab ase
J ING
ĠH P
Ġcomp uting
Ġj et
Ġsc ience
Ġstr engt
Ġcut ting
EI JING
ht ml
gener ation
4 0
4 00
F irst
ĠS ystem
ent y
ain t
Ġwas n
Ġsm art
Ġreturn s
Ġprepar ing
Ġlink ed
ĠPhilipp ines
ĠHus sein
A U
T o
h i
Ġs on
Ġb odies
ĠT akes
ri ption
amp a
Ġstep s
Ġemer gency
cast le
Ġinfl u
Ġinvol ved
ĠLank a
B usiness
S ch
Ġf r
ol ic
ĠB raves
ĠU nder
Ġ3 00
ĠRob ert
S adr
b l
Ġth r
ĠP ack
ĠB et
por ter
Ġ3 2
ĠFed erer
Ġcandid ates
Ġpri ority
ĠLad en
Z iff
l ins
ĠS im
ot or
ĠG reek
ew is
Ġsc ores
ugh t
Ġadv ance
ĠQ aeda
Ġdoc tors
Ġey e
Ġcanc er
Ġappar ently
ĠRich ard
B ar
u ed
re c
il ar
ĠT igers
ad or
ĠJ ac
Ġup coming
ON G
Ġcr ashed
Ġmov ies
ĠElect ronics
Ġopt ion
Ġbelie ves
V o
ĠC A
ĠP enn
Ġr are
ĠD am
ĠL ook
iz es
err ill
Ġboost ed
Ġsol id
ĠHam id
Ġbelie ved
ĠAtt ack
ym n
ĠTit an
ĠNAS CAR
ĠS chool
ĠN Y
ĠR ally
ub urn
ib ly
ĠAll awi
Ġrece iver
Sp ace
ĠHel p
Ġcoal ition
5 5
T V
on ing
Ġs ought
Ġb and
ĠC elt
ĠAr t
Fr ance
quir y
B ank
e in
in ning
ĠT error
ers ey
ĠH ug
ap se
ang ing
ĠCol lege
Ġactiv ities
Ġbeg un
Ġcarry ing
rys ler
Ġs ens
Ġst re
ĠD onald
Ġal ways
av en
ier ce
Ġinclud es
Ġalleged ly
ĠC ell
ĠG M
Ġan im
ĠL iverpool
Ġhe aring
Ġ3 3
Ġmanag ers
Ġput s
Ġcent ury
Ġinit i
Jo hn
E d
N ov
S ome
a heim
Ġb ott
ace ut
ĠFr ances
In s
rac ts
Ġtri b
ĠAd ministration
Ġaim s
ĠBro ad
P A
Ġ ut
in ter
Ġp un
il s
ĠC raig
ĠN ep
ĠN ikkei
Ġab d
row ing
Ġpart ner
Ġsur ged
arm aceut
Ġest ab
Ġretire ment
4 9
Ġw ife
st ant
ĠM att
ĠP oll
Ġg one
Ġg oods
ĠD S
ĠD eath
um n
Ġsh ock
Ġterror ists
iers hip
Ġsmall er
Ġactiv ity
Ġconn ect
Ġfri end
Ġhel icop
B ig
L O
N ot
T E
g ic
i ary
ĠC ITY
ĠM ov
ir th
Ġun ions
Ġfl ood
Ġconf ident
Ġspec ulation
Ġenter ed
ĠIndian a
Ġbroad cast
Ġindepend ent
2 2
6 5
G old
m illion
m ission
o e
Ġt urning
us ive
Ġad mitted
Ġmajor ity
ĠBig ley
Eng land
) --
ĠA z
ĠT er
ĠL ife
Ġal though
uc ing
Ġun s
ĠAl an
Ġbuy s
Ġput ting
ĠHew itt
F our
Ġt ext
Ġw ait
Ġb ooks
ĠC al
ub ble
Ġdevelop er
Ġshoot ing
U M
Ġ ens
Ġp ushed
Ġh al
Ġv ice
Ġsp end
Ġsp ect
ish er
ber t
Ġregion al
att led
Ġste el
ĠPlay er
R M
S w
Ġa wa
as ion
Ġm ys
os en
ist ons
Ġag e
Ġsc reen
Ġdev ast
ĠCong o
ĠMart inez
Ġimprov ed
fin ance
B O
B o
K erry
er ation
Ġb ol
ĠM ess
Ġl iving
Ġe le
Ġe ase
Ġag ent
Ġres igned
raw l
ty pe
Ġstar ts
ĠChar les
oper ation
ĠLaun ch
Ġmach ines
Ġmut ual
P M
r ast
u ild
he astern
Ġc ities
Ġp atch
ter ror
ĠB ur
ĠB illion
ch ie
ian a
Ġro ok
pl ace
Ġ4 5
Ġdef ending
Ġpart ies
Ġprom ised
Ġremain ing
ĠHam m
ĠAtt orney
ĠSing apore
Ġwithdraw al
h it
h man
er c
es l
es is
Ġm ist
us hes
ĠW atch
Ġst adium
ĠN uclear
ĠR oddick
ĠE v
Ġbe head
Ġover time
Ġoffic ers
ĠSat ellite
ĠCon f
Ġrem ote
Ġresp onse
Ġemb assy
Ġprison ers
Af ghan
ĠAnt i
Ġveter an
A OL
H I
w ait
in it
ĠM y
ĠB ears
ĠW il
ri er
Ġfl ash
Ġstrong er
oth ing
inn ati
TH ENS
ĠTal iban
inc innati
ĠDes pite
ĠMe et
Ġimmedi ately
ro om
Ġn arrow
ĠI I
Ġv ill
ip le
ick y
ĠSh ow
ĠPro be
Ġind ivid
Ġtro uble
Ġ9 0
ys is
Ġstand ards
Ġed ge
Ġsim ilar
Ġdest ro
6 0
c ape
e lection
on ent
ĠC all
ĠJ r
ass i
ĠSp eed
Ġdec lined
Ġass ist
EL S
Ġhand ed
Ġfind ing
Ġvot es
ĠCub a
I E
L S
j an
Ġh um
Ġl og
us ter
ĠCh ris
Ġab use
ĠAnd y
Ġhard ware
ĠLaun ches
yan mar
F O
M AN
Ġc ast
ĠJ ournal
arg o
Ġatt end
Ġadv antage
Ġvo ice
Ġmat ches
Ġwid ely
J ust
c a
h ran
ĠL ib
od ak
Ġatt ention
ph ere
Ġstri kes
ĠGre enspan
ĠMc L
Ġinvestig ating
ĠSy ria
Ġshut tle
ĠPrem iership
Ġincreasing ly
Ġsit uation
Pol ice
K ore
p ed
Ġs ides
Ġf ine
Ġd ual
ĠG reat
ab ul
Ġover night
Ġ3 8
Ġpre lim
ĠCol omb
ott en
Ġenter tainment
Ġter rit
Ġdesc rib
Ġbrok en
M ich
O p
T ime
ar q
Ġw ord
Ġp ur
ĠP rop
Ġre comm
ĠTh an
Ġun beaten
ĠBo ost
ann el
Ġfind s
ĠAtlant ic
ĠTw ins
ĠTarg et
Ġrenew ed
c ons
ĠR aid
ap ova
Ġle aves
Ġk ind
Ġ4 1
Ġplan et
Ġdo ing
ivers ary
min ent
Ġacqu ired
Ġunveil s
Ġmag azine
pro f
Ġvehic le
y ond
Ġt ent
Ġw ave
Ġh ole
ĠR un
ĠH eat
ĠL ewis
Ġbe yond
Ġqu iet
oin ted
opp ed
Ġsem i
Ġsepar ate
Ġspe ech
Comp uter
AB UL
0 5
B UR
a ver
b el
in ch
ou ts
ĠA THENS
ĠM ost
est s
Ġv owed
Ġsp ir
Ġover t
Ġres erv
Ġdis aster
US S
ĠPal m
Ġpar ent
ĠSw iss
iet nam
ĠMo zilla
ĠPac ers
ĠStri ke
Ġdisappoin ting
B omb
P T
S hip
c ks
Ġb in
Ġin n
Ġm ine
st ate
ĠB as
ĠK ey
Ġab and
Ġsc oring
Ġrem ov
ĠPh one
Ġadd s
Ġtele communications
Ġdeath s
bus ter
arq awi
. ;
B razil
N orth
f eld
Ġc at
ĠS k
ĠC ingular
ĠN L
ra v
ant ec
ĠLe g
Ġdef ence
Ġme ans
ĠBl u
Ġfeat ure
Ġsuper computer
F OR
Ġc orn
Ġp rize
ĠT ampa
ĠM akes
ĠR on
ĠD igital
ĠO PEC
op es
ĠCh ile
Ġop ens
Ġim ages
Ġhead ing
Ġlaw s
Ġbr and
Ġfail ure
Ġcontinu ing
Ġdirect ors
Ġmain tain
esc ription
ĠIndones ian
Ġcle an
Ġearthqu ake
ĠJew ish
O C
T C
f ort
i ece
j html
it er
at ist
Ġf ranch
Ġm ic
ĠM id
Ġr ac
ĠR and
ĠH er
ĠE uro
ĠSt an
ĠK evin
art a
Ġcont rib
Ġapp eals
ĠRe v
Ġsu ed
Ġbomb ings
Ġleaders hip
Ġtrad itional
ĠRo oney
ĠMont real
Ġwebs ite
2 1
s ym
Ġw ords
ĠP edro
ig ious
ill y
Ġr ather
ow b
ĠR od
oc a
Ġwor m
se eded
ĠV ideo
ang ed
oot h
ĠFor ec
Ġass ass
Ġpost p
opp ers
ij ay
of i
Ġgra b
Ġrall ied
a ug
c ient
g ian
Ġt iny
Ġb arg
st ar
ĠM ach
ĠP T
ĠH ockey
ĠL iber
ĠJ ordan
ord on
Ġcr imes
Ġ7 00
Quote Look
ĠZ imbabwe
Ġsusp ects
Ġinf otype
Ġkeep ing
Ġnation wide
Ġq cat
Ġq type
finance QuoteLook
financeQuoteLook up
A b
C E
in os
an es
Ġb acks
ic ious
ĠS eeks
Ġd er
Ġd ie
ĠT ax
Ġl ives
ĠB ron
ĠD ollar
Ġpl ays
Ġpl aced
ĠCh art
ab y
app ed
ump ed
Ġincre ases
Ġdisc over
ĠCol umb
Ġcompet e
Ġcapt ured
Ġtack le
f izer
ar ily
Ġf an
Ġc itiz
ic ts
ro b
Ġd ies
id ered
Ġre ject
ĠR iver
ĠR oyal
Ġle ar
ĠV is
Ġall iance
Ġsl am
IN E
Ġkn ock
ump s
Ġreb ounds
Ġclaim ing
Ġsuc ceed
ĠNov ell
Ind ones
Ġinst ant
stit ute
Ġcam era
Ġdoz ens
cel ona
ymn ast
v a
w ell
Ġt en
Ġf air
Ġh am
Ġn atural
ĠF annie
Ġr ises
ap ers
ĠJ on
ber g
row ns
Ġall owing
Ġatt orney
Ġofficial ly
Ġsup porters
Ġext ension
ĠOff er
ĠBar ry
Ġrook ie
C ard
E ar
S up
c ine
Ġb ell
ĠM ove
ĠW alk
est one
Re al
ub s
Ġab s
ang es
ĠJo e
Ġline up
Ġlaunch ing
ĠGu ard
Ġsent enced
Ġca ught
ĠChar l
Ġpred ict
Ġvehic les
c os
m ond
y ad
Ġs un
Ġw est
ĠM et
ig ger
ĠG un
ag on
ain ts
ĠIs land
Ġcap acity
Ġattack ed
Ġeven ing
ĠReds kins
7 0
D ef
i em
Ġt echnologies
he t
Ġs al
ĠA id
ur ton
Ġst ret
ly ing
Ġro ut
Ġper fect
ib urton
ĠAn aheim
Ġkeep s
Ġed ged
Ġsol ution
Ġel imin
LAN D
Ġrestruct uring
G erman
S A
h ad
k le
Ġs y
Ġp ip
ĠM ake
Ġre in
Ġcom eb
ĠY our
Ġover all
uc ation
ĠSh a
Ġdef eated
St udy
Ġdem ocracy
Ġhold s
erve z
ĠTro ops
Ġprosecut ors
ĠCarl os
E l
S m
S ource
T LE
Ġb i
Ġd atabase
ad em
ĠR avens
Ġab ility
Ġprov iders
Ġreport ing
Ġaut o
ĠPlay ers
Ar senal
Ġfe el
ĠMor gan
ĠCap ital
Ġcou p
ĠNob el
H igh
Ġt ell
Ġw ake
ĠI M
ĠB reak
Ġe mail
Ġcom ments
ĠIn f
Ġwh ite
Ġk ing
ven ue
ĠEnter tainment
Ġcho ice
Ġexpress ed
Ġsong s
Ġrap id
ĠScot land
1 8
B oston
J A
Ġw ond
Ġp ra
ĠS ri
ĠM r
ĠP ervez
Ġg iants
Ġe Bay
ĠR ad
Ġch ances
Ġag encies
ie ge
Ġun less
Ġass oci
Ġviol ent
eng ers
Ġtoward s
ĠMil an
Ġap olog
H ol
h ood
Ġa chie
ar ks
ic als
ĠC incinnati
ow led
ak ed
ĠJ ack
Ġv an
end ers
oun ce
ĠCh ip
Ġen j
Ġra ises
Ġthreat ening
Ġob serv
Ġcomeb ack
0 4
2 9
h aps
Ġon to
Ġe ased
th rit
our cing
Ġse ized
ĠUn veil
Ġback ed
In fo
ĠAl i
Ġtele com
Ġadv is
Ġpo ised
Ġtem por
Ġvend or
ĠWay ne
Ġprelim inary
G u
re ens
Ġp en
Ġb omber
ic ing
Ġd rove
ĠC ent
ec ess
ĠW or
ĠD un
ĠG ates
ĠH ass
Ġim m
Ġcomm and
su le
roll ed
CA A
ĠEgypt ian
Ġz one
O lymp
S y
S BC
m et
o ch
Ġ ult
Ġm al
ĠB eckham
ĠIn j
ĠSt ore
AP ORE
Ġbl asts
gr am
ĠLe ads
ĠRe ports
pr il
els on
ING APORE
pos ed
Ġprocess ors
Ġev ents
Ġlift ed
Ġdriv es
udd en
Ġvend ors
Ġwel com
Ship One
A nd
C entral
T okyo
Ġf ees
Ġc erem
al ing
Ġp iracy
Ġd ream
ac hed
ĠH ear
Ġtr uck
raph ics
Ġinvol ving
ĠChall enge
ĠClaim s
thrit is
T ur
a e
b orn
s ters
Ġt ur
Ġs idel
Ġfor t
ĠH ard
ĠL ee
os h
ĠE qu
um ph
Ġannoun ces
Ġfail ing
Ġemer ged
Ġcritic ism
ĠEconom ic
E G
it ude
ĠS um
ĠG h
Ġsp r
Ġwor ks
ĠUn it
Ġgovernment s
ĠMan agement
Ġref used
Ġcond em
ĠSch illing
EM BER
Ġsaf e
Pal m
Ġport able
Ġunl ikely
P R
S EC
Y D
Ġ ice
er as
Ġb ul
ĠA thlet
el and
Ġl ap
ra wn
un ich
Ġal tern
Ġwin ds
Ġar g
ars h
ĠCol ts
Ġdel ays
ĠTe hran
ĠAut o
ĠSteel ers
Ġstre ets
M OSCOW
a ida
a uts
r u
w h
ĠM el
ag ers
Ġsh ipping
ug gle
Ġnew ly
Ġj ury
eb r
Ġplan es
Ġpart ic
Ġsur round
ĠFor ces
ĠSe ason
Ind ian
Ġinst all
Ġdoub led
Ġprop erty
Sec urity
Ġenc oura
Ġwa iting
ĠArgent ina
Ġdram atic
H urricane
P ARIS
S S
p ower
es p
ĠC arter
ĠA OL
et ts
am ous
Ġpl un
Ġoff set
Ġal ive
ĠV ietnam
ĠUS A
Ġres um
Ġann iversary
ĠPl c
Ġpass enger
Ġdead l
ĠWh at
Ġturn s
Ġpeace keep
sh aring
Ġbreak ing
Bl air
Ġmanufact urer
ĠHew lett
h aul
Ġs elf
ĠP helps
ĠB us
ĠN intendo
em en
Ġhe at
Ġcons idered
Ġrev ers
ĠHe ad
Ġban ned
Ġcoll apse
Ġpick ed
NE Y
Ġocc up
Ġer up
angu age
Ġtechn ical
4 7
H ew
Ġc urb
ĠA pril
Ġr is
qu arters
ĠG ra
ĠL ions
ab les
ĠTh ird
Ġtr igger
oy a
Ġ6 5
Ġannoun cing
ital ia
Ġso aring
Ġra id
ino is
ĠAut hor
kn own
ĠThom as
owb oys
Info World
F C
s un
Ġc old
us etts
Ġst reet
ĠL arry
ach usetts
oy ota
Ġfall s
ĠAm azon
umm ary
D e
F I
a ire
t ada
Ġin quiry
Ġh urricanes
le ment
Ġon going
ĠP et
ĠF inal
ĠD irect
ĠJ ersey
Ġqu ite
Ġus er
Ġseason s
Ġhead s
ese ason
Ġpost season
ĠBu ild
ĠQ ue
Ġpat ients
Ġtrad ed
Ġmess ages
Ġpush ing
Ġlawy ers
Ġcreat ing
Ġide a
L A
c ont
s ide
is ter
ĠS A
ir ates
im p
ĠH ave
ĠJ ays
Ġsec urities
ect or
Ġcont racts
ĠĠ ĠĠ
Ġtri es
ĠAc qu
Ġconv icted
ĠJean ne
Ġfranch ise
C he
V al
ĠS ign
Ġe ither
ĠG olf
ap ed
Ġcl ashes
Ġun f
Ġli qu
ĠAnd re
Ġschool s
Ġcivil ians
Ġimprov ing
Ġunc ertain
Ġsurpr ising
I AN
b ar
d ollar
Ġd ial
ĠC D
ĠG ov
Ġinj uring
rel ated
Ġposs ibly
Wh ile
Ġstat us
Ġfav our
Ġdismiss ed
S an
p ass
Ġp act
ay ing
ĠR ap
ĠR oy
ĠG ary
Ġcon vention
ĠY oung
Ġcont est
lect ed
atch er
enn an
Ġpost s
Ġdevelop ers
arm ing
ĠRet ail
Ġmeas ures
Ara fat
" \
D o
I G
M obile
P ac
c ost
Ġs igning
ar et
Ġf it
Ġb irth
ĠP ackers
Ġsh ots
Ġex am
ack ing
Ġun its
ib bean
Ġsl ide
Ġcons erv
air s
Ġins isted
ĠSec ond
Ġexplos ives
ĠSet tle
Ġrad ical
Ġrefug ee
YD NEY
E FA
b urg
g round
Ġm os
Ġl ows
ĠB rian
ak arta
ard en
out heast
her lands
Ġwork er
Ġcomm unications
Ġwe ight
ivers al
sh ot
Ġrece ive
Ġcond ition
On line
Ġpract ices
Ġfig ure
ĠCons umer
Ġmach ine
L ondon
M er
Ġ era
Ġs ound
ĠM iller
ĠD aily
ĠH oll
Ġat omic
ĠK ofi
ĠCom merce
az er
Ġsw itch
ĠOff ers
MS FT
Japan ese
ĠTur kish
Ġmult i
Ġdriv ing
Ġlawy er
Shar on
C D
C anada
N eal
Q aida
is ation
ay er
ĠS ource
Ġh ockey
ĠP ast
ĠP ass
ol m
ĠI d
ĠH D
ĠL o
end um
ĠNew castle
Ġim press
ĠWar ns
Ġgreat er
ĠDel hi
ĠChe chen
Ġgain ed
ĠArab ia
Ġsqu ad
Ġlegisl ation
ĠVenezuel a
C ont
J udge
e z
u ros
es h
Ġb ench
ĠP istons
Ġr acing
ch er
Ġrec ogn
Ġstr uggle
Ġinf ring
ruct ure
stand ing
emb ly
Ġresc ue
ĠLeban on
erg us
ĠMcL ennan
A A
D onald
S il
f inal
it ect
le e
ol ine
em ploy
Ġop portunity
ash ion
Ġhol y
ĠDemocr ats
ĠEnter prise
ĠCount y
ĠBA GHDAD
S print
b an
m ate
ĠS qu
ĠW alt
ĠK enn
Ġsp read
Ġ4 8
Ġrele ases
Ġev ac
ĠIndian apolis
Ġvirus es
ĠReb els
ĠDen ver
ĠJac ques
USS ELS
3 00
C alif
R et
Ġ )
es ters
ar r
Ġc ur
Ġn otebook
Ġl ibr
ĠD EL
ĠL im
ĠJ agu
Ġhe ard
ĠK obe
ĠK abul
art ner
Ġatt ract
Ġprov ided
Ġpass engers
AM A
Ġdri ven
ĠNiger ian
ĠField s
Ġdoz en
Ġconc lud
W ashington
m its
Ġs hel
re tt
ĠS old
ĠS ix
Ġd i
st ra
ĠT re
ĠT urn
ĠP le
ĠN e
Ġpro ve
iam ond
Ġprom ises
Ġsol ar
Ġevery thing
Ġsem iconductor
Ġplayoff s
9 0
O P
ĠW on
ĠO pt
Ġcon struction
ĠSt ud
ĠSt udy
ĠK im
Ġsp ring
Ġen h
Ġor ganization
ĠAn ton
Ġ7 6
Ġthrough out
ĠWh ile
Ġfell ow
Ġtax es
Mac Central
ĠInvest ors
Ġfri ends
Ġspl it
4 5
V irgin
Y ou
m ens
Ġb al
ĠB efore
Ġst opped
ĠN eed
Ġde leg
ĠK ar
ave z
ort heast
ures mo
ĠMar iners
Ġadd itional
Ġsell s
arm ony
iol ence
ĠCar ibbean
Ġbet a
Ġconn ection
ĠBob by
Ġbit ter
ĠKy oto
Ġbott om
ergus on
in ters
re ll
ĠA uburn
ĠT rial
ĠT oshiba
ĠM ah
Ġg ear
Ġag gress
ip e
ash ing
Ġar en
Ġbeat s
ĠMc C
ĠSun ni
Ġbreak s
Ġste ady
Ġmess aging
Ġpres ent
Ġcomb at
Ġclimb ed
Ġresol ve
Ġenvironment al
Gl obal
B erry
C an
T R
l ike
Ġb re
Ġh our
ĠC os
ĠP en
ce an
ĠO v
oc al
ock et
Ġcomm ittee
Ġrel ie
ĠSe ven
Ġjoin ing
Ġident ity
Ġpled ged
ĠVo IP
Ġsemif inals
Ġcorn er
2 8
B e
N ortel
o en
u a
z y
Ġf rust
al yst
Ġm aster
ĠW ild
ov o
ĠSp am
Ġph ys
ĠBl ock
Ġair lines
Ġmanag ed
Ġinj uries
Ġfound er
aza a
Ġpred icted
Ġsubscri bers
Res earch
Ġfigh ters
4 6
Ġt able
Ġt ied
Ġs udden
ic ated
le ans
om er
ĠT ri
el ed
ĠR ay
ĠG as
ĠJ am
Ġde put
end a
if ying
Ġsp yware
oss ible
Ġsusp ension
red it
Ġpolit ic
Ġmod els
Co Mo
ĠMass achusetts
Ġresign ation
rast ructure
iem ens
Z arqawi
b or
e ter
Ġc ease
ĠA head
ĠP ad
ĠG e
ĠL yn
oc used
Ġde part
ens ing
Ġreg ard
Ġmilit ia
St ation
AT ION
ink ing
Ġany thing
Ġsk y
ĠSch w
ĠNet herlands
Ġclin ch
Ġjournal ists
Ġprep are
Ġdanger ous
awa ited
Ġenj oy
q tada
Ġs teroid
ĠS alv
om es
om ers
am o
ĠB BC
oun ces
Ġal ert
ant as
Ġback ing
Ġfl ags
ĠAr rest
Ġbig ger
ath an
Ġkn ew
Ġext rem
ene g
Ġfac ed
enal ty
Ġcarri ed
Ġple aded
Ġseem ed
Ġbenef it
Ġappar ent
Ġdeter min
ĠConn ect
Ġhous ing
l or
o il
w ich
z z
ĠPh oto
ĠEd ition
Ġste pped
Ġmar athon
Ġresp ond
Ġintrod uce
Des pite
Ġstrengt hen
B OS
F ire
Q aeda
Ġf ather
ĠC assini
ow a
Ġan kle
Ġv ide
OR TS
Ġacc ident
Ġacc ounts
ĠSp itzer
US TON
Ġlaw makers
Ġshow down
Ġser ve
Ġmin ute
ĠOr leans
ĠEd wards
Ġclear ed
Ġexpand ing
Ġdomin ated
Ġpotential ly
Mich ael
Ġcerem ony
C ourt
D S
r ated
ĠS eek
ĠS ports
ĠF oods
ĠG ordon
ia b
Ġsh aring
The y
Ġhigh ly
ĠAn other
Ġmed als
ĠAir port
Ġclos ely
Ġopp onents
iff e
mo han
ĠDev ices
ĠLong horn
Ġwat ched
ĠRa ises
Ġdestro y
ĠLib ya
A g
L IN
M on
N FL
S u
c an
k ing
Ġs ust
ar ound
Ġp ion
Ġp aper
Ġm ind
ĠS adr
ut y
ap ter
ans on
urn ed
Ġinvest or
ER S
Ġstrong hold
uts che
C or
p iracy
w ork
ĠS ite
ĠD r
Ġas ide
Ġear n
Ġsl ipped
Ġdef end
In vest
Ġant icipated
cl iffe
Ġvis iting
ĠQu est
TA WA
ugg ish
Ġreach ing
amb od
Ġland mark
Ġqualif ier
ĠHass an
B r
F ID
V IL
Z A
Ġf arm
Ġc ore
Ġp orn
om et
ol id
ĠR oll
Ġcomp ens
Ġoff ices
uc es
Ġar thritis
Ġcan not
Ġhead quarters
Ġcor ruption
Ġred uced
Ġhol es
ĠFir m
Ġsuff ering
Ġrej ects
Ġpict ure
ĠEmb assy
Ver izon
5 4
A G
B rief
H am
S U
T T
W all
Ġ ir
Ġf at
il i
ĠW omen
Ġag ents
Ġwor ry
Qu arter
az z
In ter
Ġprod uce
Ġlarg ely
Ġ19 8
ump ing
Ġhit ting
Ġche m
Ġrequ ire
Ġpres ence
Ġsuggest s
D is
D av
F ederal
O K
Y ankees
d ef
ar ant
it tle
Ġb rawl
Ġm us
le vel
ac co
ĠB attle
Ġg ran
Ġpro jects
land o
Ġcould n
ah awks
Ġpart icip
Ġbid s
amil ton
Ġsuccess or
Col a
ĠRock ets
ĠCharg es
Ġassist ant
ĠColumb ia
I V
M anchester
S H
m es
t ops
Ġc art
ĠC anc
ul ate
ĠSt rong
uc cess
ond a
Ġ5 5
Ġtri umph
ĠFl at
ĠSer b
Ġpay ing
ĠBu ff
Ġmod est
Ġeas ier
Ġcrit ics
ĠEl s
ĠHel ens
Ġcam eras
Ġpit ched
ĠGar c
aze era
ĠAnton io
d en
g iving
ĠS ub
Ġd ig
st one
ĠM our
ĠW enger
ĠF err
ĠH y
ĠJ akarta
um acher
oun ced
ĠThe ft
ark et
Ġexp ert
iz ards
Ġad s
gr ade
urr ed
ĠCl in
Ġam ount
Ġexpl o
Ġproduc ed
Ġany one
ĠIran ian
ĠMot ion
Ġcond uct
ĠPe ter
ĠLead ers
Ġmanufact urers
Ġwrit es
ĠTit ans
ĠMos ul
Ġurg es
ĠGen esis
Ġrank ing
ĠAust ria
Kore a
ĠForec ast
. \\
C I
O G
f all
l ife
r one
Ġ ign
Ġh ur
le et
Ġd oping
id end
ĠC urt
ĠR ules
th rough
Ġsa v
ĠK mart
ine a
ĠTh anks
ĠAr ctic
Ġimp lement
Ġsusp ect
ĠApp rov
BA D
Ġca using
Ġkidnapp ers
Ġmeas ure
ĠVer izon
Ġinvent ories
Ġrespons ible
ĠLab our
Ġdescrib ed
sun ami
F ord
L D
i en
s s
w oman
at eway
ĠC alls
ĠM ut
ĠO T
Ġpro ceed
ach ing
Ġim pl
Ġor bit
Ġprov iding
ik es
Ġjoin s
uck y
For bes
Ġposs ibility
ĠMuslim s
Ġsuccessful ly
Ġchalleng es
G B
L aw
S earch
T y
d ney
n el
t ech
Ġc ases
al em
ĠC oll
ĠT HE
Ġl inks
Ġg ro
ĠF ace
ĠD an
Ġse at
ick en
olog ists
Ġagre es
ĠApp l
Ġcent re
Ġnetwork ing
ĠEd ge
ĠShar apova
Ġsubsid iary
ĠOs ama
Ġhelicop ter
M ilit
O ct
P at
h ill
m on
or al
at ively
Ġo usted
Ġb ull
Ġm arg
Ġh ike
Ġd aily
ac he
ĠP eople
Ġg am
ĠF ar
Ġr at
um ber
ab led
ect ive
Ġear ned
Ġworld s
ĠEn v
ĠPh ill
ĠAd d
min ute
ĠSe a
ĠBr ad
Ġexper im
Ġob tain
Ġent ry
Ġinsurg ent
Ġsuggest ed
Ġilleg ally
miss ions
ĠWork ers
ĠSol aris
ĠHost age
Ġansw er
Ġvirt ual
Ġcitiz ens
ĠDEL HI
D on
l n
re ck
is ner
as er
ĠT ool
ac ement
Ġn orm
ĠB an
Ġg raphics
th ony
ĠH and
Ġsec retary
ens on
act ive
aw ay
Ġbl amed
Ġwe aker
ĠFor est
ĠMar lins
rem lin
ES T
Ġexpand ed
Ġdeliver ed
Ġtalk ing
yc os
Ġcou ple
Ġreform s
Nov ell
U T
l on
Ġ /
Ġt re
it ches
Ġf ate
al ks
ĠC owboys
Ġe m
Ġe uros
ĠW ants
ast e
Ġover haul
Ġint ens
amp le
Ġ200 8
Ġdis rupt
ĠSh are
Ġ4 2
Ġstr ing
Ġwar nings
Ġrecord ing
Ġhelp s
Ġinf rastructure
Ġvers ions
Ġdemand ing
ĠTo day
ĠPlay Station
etro le
CH ICAGO
Ġaff ect
ĠTit le
Ġovers eas
ĠMilit ants
ums feld
ĠUnveil s
A cc
D P
M T
N etworks
N intendo
b urn
c ott
z ech
Ġp owers
Ġb reat
Ġin aug
Ġm il
ĠS ocial
ol ves
ĠB rowns
Ġe p
ĠF ox
ĠR w
ĠO b
ob b
Ġj ailed
Ġ200 7
Ġ6 6
Ġ6 00
ĠRe uters
Ġplan ts
ĠAb d
SP N
ĠChar ley
Ġestim ated
Ġfear ed
Ġfavor ite
Ġlock out
inh o
ĠStand ard
ĠMalays ia
employ ment
VIL LE
9 9
E gypt
G re
b est
c le
t ion
Ġt im
ĠS ears
ĠS amsung
ĠM arg
ec urity
Ġl ove
ĠG ains
ĠL ine
ri f
Ġ1 50
ĠK odak
ff ord
Ġsc reens
ĠInd ians
Ġret urning
Ġcap sule
St e
AT TLE
ĠCl ose
Ġtarget ing
Ġevery one
Ġemer ging
Ġpos itions
Ġdownlo ads
Ġhapp y
Ġfly ing
ecial ly
C NN
H ouse
S amsung
d em
Ġ esp
ĠM ad
ĠP il
ĠF ind
ĠE SPN
ĠJ oin
ord in
ick ing
Ġper haps
Ġ3 6
Ġfin ed
Ġdis pl
ort ium
Ġlarg er
Ġreb ound
Ġprogram me
ĠAg assi
ĠX box
Ġtit les
Ġlow est
ĠPart ners
ĠEnd s
Ġroll ed
ĠEconom y
Ġsil ver
ymnast ics
etrole um
B EIJING
C helsea
P er
b illion
h our
n a
n ya
r ace
w estern
ĠS tern
Ġh ired
st roke
st ein
ĠF al
ĠF ut
ch nya
ast ic
ĠSt aff
ĠThe ir
ip se
ĠY ears
ĠPro v
ĠCon vention
Ġrem ember
Ġmeet ings
ĠOr d
ĠChampionship s
Ġcoll abor
ĠUs ers
Ġdep artment
Ġens ure
5 3
o ard
v ic
Ġc yc
ol en
ĠD C
ĠD ick
Ġcomp lex
Ġcomp ared
ĠV s
Ġun pre
Ġmonth ly
ĠSc ience
Ġfoll ow
Ġfoll owed
ĠGu inea
eg as
Ġheavy weight
ĠProt ocol
ograph y
Ġcommission er
aval iers
Ġterrit ory
J ERUSALEM
W est
e et
n o
Ġ et
Ġd ark
ĠB asketball
Ġst ands
ĠF av
ĠF erguson
ĠU EFA
ĠL OS
ĠIn stitute
Ġac kn
ced ented
Ġelect ric
ĠIt anium
Ġoffer ings
Ġbro ther
ĠBar celona
Ġinst it
umb led
Ġspam mers
Ġdiplom ats
Ġastron auts
Ġrefer endum
4 8
c ard
m aking
n ie
Ġp ole
Ġb ron
Ġh unt
ĠC ross
ĠP ublic
ĠB R
ĠB uc
Ġas ks
ĠSt ra
Ġex ec
Ġex act
Ġpr eseason
Ġwill ing
Ġse a
oin ts
Ġshould er
Ġform ally
Ġinv asion
Ġouts ourcing
esc ope
ĠBlack Berry
Ġdistrib ution
Ġaccep ted
Ġpartic ular
Ġdeput y
M B
d om
g a
s ized
v ard
Ġs iege
Ġc abinet
Ġp an
ay ers
Ġr ich
ĠE ri
Ġpr im
ab e
Ġwor ried
ĠV ijay
AN A
Ġmark ed
Ġdes ert
Ġprof essional
Ġdo or
ĠAd rian
urg ents
ĠSup ply
IT ED
Ġsent iment
Ġdriv ers
Ġarch itect
ĠMary land
Ġackn owled
' ve
2 3
4 3
C ong
it as
ĠS ell
ter ies
ĠT ay
ĠW ater
ĠF ive
ĠF OR
Ġr ushed
ab il
Ġcl ient
port ation
AN G
Ġmost ly
ink ed
EN NA
off s
Ġcompet itive
Ġcompet itors
ask a
ĠElect ric
Ġwatch ing
Ġcapt ure
Ġsuppl ier
Ġstrugg led
ĠBrazil ian
ĠHen man
Ġsurf ace
ĠNep al
Ġmos que
G roup
R ec
S YDNEY
W OR
f ol
g s
in oc
at tered
ĠS BC
ou ble
ĠD istrict
ĠH ills
ĠO NL
ri end
Ġv ast
ust s
ĠCh ase
ĠCh avez
Ġapp rove
Ġapp ointed
Ġacc using
ĠSh ort
Ġelect ed
Ġpar ents
Ġpolit ics
Ġengine ers
ĠSm art
Ġgun men
Ġvac cine
ĠUr ges
Ġrelations hip
Ġprosp ects
Ġshr ine
van ia
L AMA
b ig
c ore
d ro
f oot
w orth
y ch
Ġt rop
he w
it arian
Ġb rain
ĠS E
im ming
em ale
Ġad j
Ġcr u
ĠBl ast
Ch inese
ipp i
ĠSc ientists
Ġi Mac
ĠMan mohan
Ġexper ience
Bl ack
Pr ime
Ġfact ory
ĠWe igh
ĠTra fford
mark et
Ġbus y
Ġupd ates
Ġbron ze
LAMA BAD
C BC
G ermany
S hell
c ut
k a
Ġ 39
Ġt ells
in ner
Ġa part
re ct
ĠC at
el ess
ĠM oon
ĠM eg
ĠP ict
ot es
ot ed
ĠF ile
ak en
ĠE st
ug by
ĠV a
ĠRe f
Ġfl o
ins on
Ġprov ides
Ġinclud ed
ĠOff ic
EO UL
Ġtrans fer
ĠCr icket
ĠSP ORTS
Ġsharehold er
LAN TA
ĠFound ation
Ġaward ed
ĠIll inois
ĠONL INE
' ll
8 5
G en
W eek
Ġt ap
on ics
at ically
Ġf elt
Ġc ult
ĠW ood
ĠR ace
ĠD et
ĠL and
ĠJ P
ĠJ er
um ers
ĠV egas
ep s
ach i
Ġfin ancing
AN N
Ġbl ame
ok ing
ph is
ĠFl ight
Ġoper ators
Ġtarget ed
ipp er
Ġpay ments
ĠPar liament
ĠCont rol
Ġcurrent ly
Ġlim it
Ġreason s
Sing apore
Ġattemp ts
Ġindivid ual
F CC
M al
P utin
s l
Ġf amous
ad er
ĠP ct
ve ment
ĠR est
ra h
ĠL akers
os n
ul ly
em s
Ġle ts
Ġco operation
ĠPl us
ĠComm un
ĠZ one
Ġintern al
Ġsub ject
ĠOr lando
alt ies
Ġpat ents
Ġmult iple
Ġeffect ive
ĠNets cape
ĠCamp aign
ĠSwed en
Ġunpre cedented
O PEC
an gh
Ġp et
Ġto ug
is hes
ic ut
Ġh ackers
ĠB ol
ut h
Ġan g
ĠE astern
ĠO pp
Ġhas n
ĠUn iversal
Ġ3 7
Ġus es
Ġacc el
ĠAn thony
Ġsup posed
Ġpre c
Ġsent ence
Ġconv oy
Ġrob ot
ĠVict ory
ĠRele ase
ĠPent ium
F in
L inux
d ing
in ition
Ġp ounds
ĠM yanmar
ĠD NA
ĠH u
ĠE ff
Ġbe ef
ĠO l
Ġhe av
if ies
Ġwho le
ĠPro gram
ĠRe ady
Ġserv ing
Ġ7 8
Ġ8 00
Ġass ess
Ġkn ows
ator ial
Ġfree ze
ĠSup port
Ġhom ered
ann y
ĠPe ters
Ġmembers hip
Ġland ing
Ġcop ies
Ġsepar atist
Ġcontrovers y
ux ury
Ġship ments
L ife
Ġf ocused
Ġp enalty
Ġb lew
ĠS ets
ig a
ĠN CAA
un ar
ul ated
Ġ4 3
Ġph oto
ĠCon cer
Ġbo om
ĠMar tha
Ġbr ight
ern and
aps ter
Ġpriv ately
ĠAtt acks
Ġ199 0
urd och
ĠHar r
ĠCle mens
Ġstrate gic
Ġimmedi ate
armaceut ical
angh ai
2 7
K en
W ar
a head
f ace
Ġf ish
Ġm eth
ĠC rit
ĠT ops
ĠM atch
Ġde term
ĠPr ince
Ġres erve
Ġcr ime
Ġprom ise
Ġemb attled
Ġgreat est
AD EL
ĠRet urn
ĠRy an
ĠVal ley
N iger
m outh
s The
in ts
Ġw ides
Ġw ickets
ĠS T
ĠM en
ĠB ills
Ġg aming
ĠD ani
ce ption
oc ide
Ġcon gr
end i
Ġsh own
Ġex hib
Ġun iversity
Ġman age
Ġwe igh
Ġbr ings
ley ton
ĠMc N
Ġregul atory
Ġreven ues
oint ment
Ġappear ance
Ġty p
ĠDo CoMo
Ġrespons ibility
Ġphot os
Ġgather ed
Ġscient ific
D T
D utch
F ive
h as
s aid
w ag
Ġm other
Ġd iss
Ġg overnor
ĠF aces
ĠD iamond
ĠH amilton
Ġsp ons
Ġcl othing
ant an
Ġall ies
Ġback up
Ġsl uggish
Ġme ters
Ġcomm ander
ĠMar ia
Ġpay ment
Ġproduc ers
Ġfac ility
Ġfamil ies
ĠDef eat
Ġfe et
Ġden ies
ĠTra vel
Ġprotest s
Ġlim ited
Ġcrack down
ĠVik ings
Ġflags hip
Y ear
ar med
Ġf ought
Ġo d
is f
ĠC abinet
ĠC RM
ĠF il
Ġcon ver
ĠIn v
Ġex cl
ab ad
Ġab oard
rop er
oss il
Ġfl oods
Ġgr id
ĠChe chnya
Ġcommit ted
Ġsweep ing
Ġbroker age
Ġlands l
ĠRap tors
6 00
g ate
p read
w hel
ar io
Ġm ig
ĠP a
ĠN ic
ĠN asdaq
im ately
ĠO F
ag ues
Ġcon cess
Ġex erc
Ġfir ing
amp ed
pl anes
AN D
Ġrel igious
Ġform al
Ġed ucation
Ġemploy ee
ĠSy dney
Ġpolic ies
ĠWin ter
ĠHar ry
me ter
Ġpict ures
ĠAbb ey
Cons umer
Ġiniti ative
oen ix
Ġesp ecially
M O
M oney
U JA
r am
t ies
Ġh at
ĠP rom
Ġl oyal
Ġre porters
ĠN ick
ks son
Ġsh oppers
ack er
ĠK remlin
ĠCh irac
act ions
Ġret ired
ĠEx pected
Ġcap abilities
cess or
vent us
ful ly
Ġthreat ens
An g
Ġstud ios
Ġpop ulation
ĠDep ot
Ġequ ity
ĠPer u
Ġdrop s
Ġreal ity
Ġslow down
ĠAdv anced
ebr uary
u wait
Ġt ank
on o
Ġf ierce
Ġm ob
ĠC zech
Ġr aces
ĠH uman
ĠH ospital
Ġan cient
ĠE ll
oun ter
Ġbl og
ĠRe venue
az ard
Ġset back
pr ises
Ġ7 5
Ch rysler
ĠMar ines
EN T
erson al
ĠAnd rew
Ġconcer ned
Ġlower ed
ĠDemocr at
ĠChief s
IR O
Ġow ned
Ġcal m
Ġorig in
ĠDevelop ment
Ġbol ster
Ġaltern ative
ĠHoll inger
ĠMarg aret
N O
S ix
S oftware
V P
g ins
w here
ic le
Ġm ail
st op
ĠN avy
un ction
ĠLe ast
Ġteam mates
Ġsl owing
Ġme ets
ĠIsrael is
ik h
back ed
Ġrest ore
Ġrev olution
ĠBu ys
ĠDem and
isc ons
ĠMer c
Ġspark ed
Ġoptim istic
Off icial
Ġdeterm ine
c ap
g ling
y ers
ac om
Ġl if
ĠB rew
Ġg ap
Ġst ations
ĠR oss
th ird
ĠL en
ri e
ry st
ĠV ice
Ġim ports
ĠSp urs
aim ler
Ġmod ern
Ġgas oline
Ġcarri ers
Amer ica
Bo eing
ĠColomb ia
Sil icon
ĠKenn eth
inoc het
Ġwides pread
iscons in
8 00
B aseball
T reas
i Vo
p o
u ate
Ġc rown
Ġp al
ĠS igns
om s
ĠM u
ĠM at
ĠI S
ĠR ose
ĠD omin
ĠU se
ch anged
Ġqu ality
og ue
Ġen force
Ġtr end
anc y
Ġad ap
Ġdis m
ĠSh ows
olog y
Ġsw ing
str ing
ĠHold s
ĠSem iconductor
esl an
Ġpip eline
N HL
or en
ing ham
re y
Ġh urd
Ġd rag
ĠM ult
ig hed
ew here
Ġsh ake
ose vic
AS E
olog ical
Ġvict im
use um
Ġmed ic
Ġtri als
Ġeff ects
Ġsusp end
Ġcoach ing
Ġpe er
ĠSe ahawks
Ġfund ing
Ġdisput ed
Ġmag n
chen ko
Ġmoment um
ĠKn icks
Ġorganiz ations
Ġfriend ly
Ġris ks
Ġcompens ation
Dav id
E ver
N ational
R ob
Ġf emale
Ġw reck
ro c
ĠT D
ĠB CS
ĠN ATION
ĠR af
ĠR FID
ĠG ain
em e
ĠK l
Ġal ly
oll owing
Ġtr ue
ang ered
ĠRe view
Th ousands
Ġpass ing
back er
ĠAll iance
Ġopp onent
ett e
Bl ue
Ġexplos ions
Ġdeliver y
Ġhands ets
ĠMilit ary
ĠRepublic ans
Ġstret ch
Mer ck
ĠOffic er
antan amo
3 8
C ingular
T e
T aiwan
l us
p rom
u i
ĠS ummary
ĠM ust
ch arg
ĠH alf
oc o
iv ors
ell or
Ġcl ients
ort heastern
ĠPro ject
Ġkn ocked
ĠAnd reas
pe er
Ġ199 9
Ġpubl isher
Ġcivil ian
Ġcoll aps
Ġlo ans
Ġgun s
Mar tha
ĠHen ry
Ġgen et
break ing
ĠPent agon
Ġscient ist
Will iams
Ġlear ned
Ġliqu id
Ġinfring ement
ĠThanks giving
WOR LD
4 4
M otor
m ore
m atch
Ġs ue
Ġthe ft
Ġb owl
ĠS oon
ĠA B
ad ow
Ġn ecess
ĠB ull
ĠF ebruary
ĠE m
Ġpl enty
ĠK e
oun ted
ros ecut
Ġfl ed
Ġco aches
Ġdes per
Ġ7 7
Ġvict ories
Ġprov ed
Ġdisc ount
ĠAll en
Ġeas ily
Ġrep air
Ġhands et
irc uit
ĠLaw su
Ġlic ense
Fl orida
Ġhum ans
D ay
W N
r ict
w orld
Ġt ape
Ġs ense
Ġf ashion
Ġb ills
Ġl oses
ĠI E
ĠG ives
up s
ĠL as
ĠL inks
ul s
ĠO ri
ĠJ ama
ia ble
Ġch a
ey er
Ġcons ole
enc ing
Ġec l
ĠBrit on
Th ursday
Ġext ending
Ġtele ph
Ġsub mar
str uments
An other
Ġleg end
Ġbar ely
ĠCont ract
Ġconfir m
Ġdomin ant
Ġsett led
ĠTele com
Am azon
ĠStep hen
ĠChen ey
Ġinflu ence
ĠRaid ers
Ġtent ative
Ġwelcom ed
ĠAthlet ics
ĠConnect icut
2 50
D ar
S ur
T ro
l ights
Ġp age
le ts
ĠC a
ĠC lear
ĠC avaliers
Ġl anguage
ĠG oes
ĠE mp
ĠE isner
Ġcom fort
Ġex isting
iv endi
ĠK o
Ġover whel
Ġun us
iss ippi
tt y
ĠRes ults
Ġjust ice
ĠSer ena
Ġrest aur
sc ar
Ġdiv idend
Ġreac hes
amb ling
Ġsim ple
Af r
AK AR
ĠBeat s
yl vania
Ġprep ares
Ġcas ual
Ġunexpected ly
Ġinn ov
G et
H alo
T oshiba
r uction
in ion
he m
Ġp ound
ĠS and
ac ter
ĠP y
ĠF en
ĠH ill
ĠL uc
Ġag enda
ĠCh amp
ab b
ĠTh atcher
Ġwork ed
Ġmove ment
Ġcol umn
sp am
Ġgr ad
lo ad
Ġstra ined
ĠEar ly
riz z
Ġprom ising
Ġmar ch
ĠGl azer
ĠAm id
Ġstorm s
ĠSu it
Ġarriv es
Ġcomb ined
Ġvol unt
ĠMotor ola
ĠSil ver
ĠMem phis
Ġbatt les
ĠSwed ish
Ġut ility
Ġgran ted
ĠClin ton
C ub
P owell
S en
p ur
it ical
ĠS ep
le ading
ĠT oyota
Ġe ast
Ġr um
im edia
ra ge
ĠG artner
se y
ĠV I
ĠV odafone
ĠInd ies
ĠLe hman
Ġcons olid
Ġ5 1
Ġhop eful
Ġrev ised
Ġround s
Ġeng ines
Ġboost ing
Ġdet ained
Ġprom ote
Ġcre ation
ĠSy m
ĠSch umacher
Ġlet ter
Ġple a
Ġfre qu
Ġcrowd ed
itzer land
Ġwat ers
ĠAuthor ity
ĠBuff alo
K ABUL
M L
d ie
m os
s ene
Ġs and
Ġb ug
ĠS al
ĠS occer
ĠS outheast
ĠC ast
ĠP S
ĠB eslan
ĠW isconsin
Ġr ail
ĠN EC
ĠH orn
amp ton
ĠPh oenix
uk i
ĠGold en
fl ix
ĠBus ch
A st
E c
F annie
G iants
K arzai
Y ukos
b ro
f ont
n an
s ylvania
Ġt ask
or ious
Ġf ixed
ĠC NN
ut ious
ra pped
ak a
ag n
Ġv ows
Ġex ceed
Ġun employment
Ġro ugh
Ġro ads
ĠMon etary
ass ador
ĠSh anghai
Ġbec omes
Ġrem ove
Ġ20 12
Ġmin istry
It aly
Ġca utious
Ġregul ator
Ġest ate
Ġdoc ument
ĠAcc ording
ĠBer lin
Ġpers u
Ġpeacekeep ers
Ret ail
Brief ly
ĠGarc ia
ĠNATION S
C itigroup
M I
b i
b ank
e lect
p y
z en
Ġt ail
Ġf al
ĠC itigroup
ig ation
ĠD ies
ĠJ ul
Ġex port
Ġpl aces
ĠK ent
ell ow
Ġdis arm
Ġ6 2
Ġ6 9
AS T
Ġsl owed
Ġ5 6
Ġimp roper
Ġher o
Ġtest ed
EL L
ott e
Ġdemand ed
ĠMay or
Ġbill ions
Ġwrit e
Ġident ified
Ġblood y
ĠOfficial s
Ġestab l
Val ley
fol io
AKAR TA
ĠFen way
A H
A ut
D em
L ast
S at
c are
j ected
p rod
v in
or an
en ters
Ġf ully
Ġth rown
ĠB ul
ĠW ell
ĠG ene
Ġan ger
ĠCh ild
over ning
ĠPr ison
Ġsc ene
iz z
ank ee
Ġcons ortium
ĠBl n
ned y
Ġso ared
ĠOp er
ĠComp anies
An t
Ġinvestig ators
hold ers
Ġcell s
Ġenv oy
augh ter
ĠSir ius
Ġmount ain
B ron
K S
R AM
g ium
m ad
p ing
w ith
ed er
re ts
Ġp ath
Ġp iece
Ġh iring
ĠT en
ĠP fizer
Ġl uxury
ĠI owa
ir a
ĠF inds
ĠR ays
ĠL ittle
ĠK azaa
ĠCh ange
Ġwor se
Ġout l
over ty
ĠSp e
Ġhigh light
Ġme ant
Ġcap able
Ġsome one
ĠAl so
Ġhop ed
eng als
Ġmer ge
ĠFin ance
Ġpitch ing
Ġpil ot
kra inian
Ġty phoon
Ġcommit ment
ĠDou b
Ġrefug ees
PH IA
Ġpostp oned
4 1
N ow
b on
Ġt icket
Ġs le
ic y
Ġn eck
ĠB ec
ĠW ake
ĠF iles
ĠR acing
ĠL CD
ĠL leyton
Ġy ield
ĠV en
ĠV iew
Ġper man
Ġrec ru
Ġdis k
Ġdef ended
Ġpre view
ĠNEW S
Ġsearch ing
EL D
uk ee
ĠGu id
IL ADEL
Ġsim ply
ĠLa ur
Ġserious ly
Ġsex ual
ĠRam ad
ĠOK s
ĠOw en
ĠCelt ics
init ely
Ġreserv es
ĠBron cos
Calif ornia
arr ass
Ġheav ily
ILADEL PHIA
D ec
N ext
S o
a ith
l ies
r atings
in ated
Ġw ider
ĠA mb
et ed
ac re
Ġr ide
ĠH urt
ĠH opes
ĠL P
Ġcon stitution
Ġsp in
own ed
hen t
ĠInc re
Ġco ordin
ĠCl imb
ĠOp ens
ipp ers
Ġsusp ic
mb ol
amil y
Sp am
ĠAnn ounces
Ġweak ness
Ġcelebr ate
Ġpri or
Ġesc al
Ġwel come
Ġprosp ect
Ġpromp ting
Ġrecomm end
aimler Chrysler
O H
O r
U A
V ideo
V odafone
c ats
ic ate
ĠS ach
Ġd re
ĠC ath
Ġre ading
ĠW rit
ĠD i
ĠG ro
ĠL u
Ġcom ment
ĠSt ake
Ġac adem
air n
ĠPal ace
IS LAMABAD
Ġfail s
Ġgr en
Ġaim ing
Sp ain
Ġel se
Ġstorm ed
ograph ic
Ġdiscover y
Ġsurround ing
Hew lett
ĠSqu are
Ġaggress ive
Ġexact ly
J ob
T w
U AL
it able
Ġf eed
Ġf inger
Ġb ow
ĠS INGAPORE
Ġh ar
id ays
ĠA ff
ĠW izards
Ġr ushing
ĠN ames
ĠH al
ak h
ag le
ĠJ ay
lt on
Ġint ended
anc ellor
Ġ6 7
Ġfl ag
ĠAr m
ĠDe utsche
ĠWill iam
Ġbeat en
Ġref lect
IC E
Ġdet ain
Ġold er
Ġlo an
Ġstrugg les
OM E
Ġsom et
Ġdest ruction
Ġprosecut or
ĠHall iburton
con i
Ġhor se
ĠDani el
ĠOri oles
8 2
H all
L ong
U kraine
W ednesday
w all
Ġto ss
ĠS oy
Ġg overn
ut t
Ġst yle
Ġr ape
ĠN ight
ĠH un
ĠH armony
Re g
ĠTh ai
Ġup beat
Ġsc he
Ġcons piracy
Ġreg ime
AR L
Ġsu es
ĠAd obe
Ġadv oc
Ġbreak through
Ġpropos als
Ġrock ed
ĠMa uresmo
AD R
Ph ill
ĠJust in
wa ukee
Ġbas eman
Ġcommun ist
ĠQuarter ly
ĠHug o
Ġdeadl iest
Cong ress
8 6
A V
F DA
M ass
or ation
Ġc os
Ġw age
Ġb ond
ĠB i
ĠB elt
ir ming
Ġe ve
ĠW TA
Ġst ood
Ġr ig
ĠG il
os ter
ul ing
Ġex it
ĠK az
Ġro y
Ġfin als
ĠAs k
ĠPh ones
ĠMus ab
Ġpo ison
ĠKen ya
Ġaud io
uz z
Ġkick ed
ĠNor way
Ġathlet es
ĠEy es
ĠLyn ch
d ouble
i ences
Ġ err
Ġb er
ĠS ale
Ġd ed
Ġd istrict
ac ts
Ġth in
ĠP LC
ir k
Ġg overning
Ġst ir
est yle
ch ip
Ġhe ight
ĠV ill
Ġwin ners
Ġar gu
Ġdes k
Ġrecord ed
ran ts
Ġsign al
Ġjob less
lin ing
It al
ĠSw itzerland
Ġste am
iet y
Ġdoub ts
Ġreve al
200 4
ĠKen nedy
new ratings
ĠDeb ate
Ġjournal ist
Ġpromp ted
ĠBall mer
ĠCelt ic
Ġabd ucted
ĠRod rig
Ġassass ination
ĠEnv ironment
ryst al
B ALL
Q L
c r
t a
t iz
y on
Ġa er
en port
ar on
Ġp ool
Ġb rew
ĠA C
ĠA ward
ĠB est
ut tle
Ġst eal
Ġst roke
Ġr anks
ĠR ams
ĠL ist
Ġle arn
ĠK han
ial ly
ĠUS C
Ġdis p
ort gage
ĠInd ex
ĠRe ach
Ġtop s
Ġ8 4
ĠMar c
oci ety
ĠDav enport
Ġfact ories
Ġgain ing
Comp any
Ġdiplom atic
Intern ational
Ġrepresent ing
Ġregard ing
ambod ia
ĠTay lor
Silicon Valley
5 1
G reek
S l
T or
U TER
f it
f riend
i ec
y ang
Ġa ide
Ġp ark
Ġm our
ĠC our
st yle
Ġon es
Ġfor cing
Ġn omin
ĠP ut
Ġl a
Ġl ifts
ĠB ox
Ġr ush
ĠD oc
ĠE ric
igh ter
all ing
Ġsh rug
Ġcomp rom
ĠCh ips
ĠY ankee
ue z
Ġexp ensive
Ġtr ust
OR CL
ĠRe jects
Ġimp ose
Ġact ually
ivers e
Ġstud ent
Ġprocess ing
per ts
Ġca ution
ugg ets
Ġball ot
Ġmid fielder
Ġrepl aced
Ġinsurg ency
Ġsurv ived
ĠSaf ety
OU IS
Ġmaterial s
BOS TON
big gest
H AR
M A
M arsh
g ment
k ar
or ial
Ġp ushes
Ġin form
Ġh ij
ĠC oca
ĠP inochet
ri age
Ġpr icing
ĠCh ad
ob by
Ġexp ands
ish i
OR T
Ġsl ip
Ġ5 4
Ġpre tty
Ġbat tered
ĠAg rees
Ġcompet ing
ĠGu antanamo
ĠCr ude
ĠEl iot
Ġask ing
Ġball ots
Ġhuman itarian
oles ale
Ġorig inal
ĠAbb as
Ġcy ber
Ġquiet ly
ĠMach ines
Ġdetermin ed
Ġdestroy ed
ĠPhill ies
ĠDiamond backs
H ome
T uesday
h a
u als
Ġt elling
Ġt sunami
ar us
at ile
at ched
ing ly
Ġp m
ĠS av
ĠS ues
ou m
st an
ĠM od
Ġst arter
Ġr amp
ch iro
ks wag
Ġv ision
Ġcomp at
Ġfir es
Ġreg is
Ġsw ept
OS E
Ġline backer
ĠBar b
Ġcond ucted
Ġresp ect
OL IS
ĠRo ad
14 6
Ġrep eat
Ġroll ing
ĠProt ection
Ġflaw s
Tech Web
Ġoptim ism
Ġconnect ions
ĠAz iz
Op en
ĠEqu atorial
kswag en
M R
S ol
S ept
T iger
f r
m ind
r ant
u able
at eral
ic ient
Ġm ap
ĠT own
Ġn ative
ĠB ird
ĠB reed
ĠF air
iv irus
ĠK idnapp
ry ing
Ġres ources
ook ie
ĠFl u
Ġimp osed
AR K
Ġrel atives
Ġext ends
Ġcol le
Ġmin or
Ġmin ing
ĠElect ronic
Ġrecover ed
Ġport folio
UK OS
ĠBel gium
Ġthink ing
Ġhapp ened
Ġlic ensing
Fed erer
Ġdeploy ment
ĠDou g
PS FT
ĠEri ksson
rizz lies
M usic
S occer
g ets
u ing
x y
er ies
ĠC ro
om ed
ĠT rip
ot ive
ĠB or
ir ty
Ġre put
Ġg ad
us alem
Ġst alled
ĠF uel
ĠF raud
ra ib
ĠG ive
ĠJ udge
our ed
Ġch annel
ell o
Ġj unk
ub bed
ub ishi
ĠV iolence
Ġad ministr
Ġinc ent
its ubishi
Ġ4 4
Ġmark ing
ĠCon way
Ġ19 7
Ġbuy ers
Ġ8 6
Ġdisc ip
BA I
Ġche cks
Ġforeign ers
Ġob ject
osp ace
Ġrepl acement
ĠSm all
ĠChrist ian
Ġbird s
Ġnewsp apers
ĠAdv ance
ĠHost ages
Ġsubsid ies
ĠPan thers
ĠSn ow
ĠHug hes
ĠWalk er
Ġtempor ary
ĠGh raib
Ġenforce ment
lus coni
Ġber th
J azeera
S ym
T ele
e an
Ġs ocial
Ġs oph
ĠS ince
Ġh ailed
Ġd ict
ĠM unich
ĠB a
ĠF ocus
and an
Ġhe ll
AP OLIS
ab s
ong yang
av i
hn ic
ĠSh r
uct ions
ĠLe ft
Ġwar n
Ġbu zz
riv es
Ġbr ands
Ġgu arant
Ġrest rict
Ġmin ers
Ġsupport ing
Ġboost s
ĠQ B
Ġsever e
ĠElect ions
Ġeas ing
Ġhealth y
Ġsn ap
Ġsat isf
ĠCharg ers
Palestinian s
ĠCost s
ĠOw ens
Ġdiscl osed
errill as
Research ers
F rom
G un
M ed
M ark
M ajor
P oint
R I
S k
W MT
b ody
c alled
s ize
t own
an im
it oring
is se
ĠS uccess
ĠC as
ĠA h
ĠM any
ĠM ln
Ġth rowing
ĠB oy
ĠR ates
ĠR umsfeld
os ure
ĠO cean
Ġpro minent
Ġex porters
Ġal one
ĠV an
uc ts
Ġres ort
Ġweek ly
ĠSp ec
Ġdef ender
rac use
Ġins urer
Ġins urers
Ġtra il
Ġthreat en
ĠSe an
Ġemb arrass
Ġvisit ors
Ġwithd rew
Ġdoub les
ĠSu z
ĠLouis iana
Ġdro pping
Ġcritic ized
ĠReb el
Ġcover age
Ġstun ning
Ġestab lish
Ġremov ed
ĠWor ries
Fire fox
Motor ola
H RAN
I rish
p ond
w ire
Ġa iling
Ġs alv
ar ch
Ġp ounded
ter ious
Ġd ust
st art
ĠM urdoch
Ġth row
ĠP ush
Ġl unar
ĠI CC
Ġg ymnastics
ut ton
Ġst uff
un al
ĠG ib
ĠH aw
ĠH ung
ĠH ubble
Ġat op
ul ting
ess ed
ĠIn st
ine on
Ġres istance
aw are
Ġ6 3
Ġsl ug
Ġ5 2
ĠBe gins
cl aim
Ġvis its
Ġinvestig ate
MS N
umb ling
ĠPat rick
ĠCont in
Ġhot els
ĠMo ham
ĠMiss issippi
Ġspokes woman
ĠMil waukee
Ġgen ocide
Ad obe
Ġfun ction
BR USSELS
ĠIns urance
ĠDrop s
ĠPenn sylvania
ĠSpeed way
Ġmal icious
ĠJagu ar
ĠFerr ari
Ġexhib ition
iec es
E P
M ont
N ikkei
r ising
Ġt end
Ġs ight
Ġf ro
ĠS aid
ion al
el ie
ĠP irates
ĠB ad
ĠB osn
Ġj un
ĠV ers
Ġout fielder
Ġro ute
Ġ4 7
ĠAd ds
Ġprot esters
DA M
ĠMan ager
Ġviol ations
Ġev olution
ocr atic
Ġpull out
Ġfew er
ĠMed ical
ĠSpace ShipOne
ĠDev il
ĠSaf in
ĠCy ber
Ġboy cott
ĠLeban ese
Ġbehead ed
prof ile
Ġlap top
Ġimpress ive
ĠOv itz
2 6
B ill
B OR
I m
N ovember
R P
it a
Ġw ine
is ers
Ġm otor
ĠS ven
Ġh aven
ĠA lt
ĠA uss
Ġl aid
ot al
ĠN C
ĠL OUIS
Ġ2 50
ĠK uwait
oun ess
Ġro t
Ġsc an
IN TC
Ġco ff
Ġph ase
Ġ9 9
ĠTr ading
ĠSc ient
cl ick
Ġdirect ly
Ġbuild ings
per form
ĠAc cess
Ġsol utions
As ian
Ġemploy ment
Ġevent ually
Ġsuggest ing
ĠHel ps
Ġimprove ment
Ġurg ing
ĠScott ish
ĠEver ton
hard t
uild ing
Ġwond er
Ġplun ged
ĠOrd ers
Ġang ry
Ġsubmar ine
ĠSym antec
C ap
E V
b ing
w in
w ill
Ġb ra
ou ri
ĠA p
ĠT alk
ĠM ick
ĠM VP
us band
Ġr ental
em pt
ist ent
Ġnew est
ĠMon th
Ġfin ishing
Ġnot ice
ĠAn im
ĠIs su
az i
Ġquarter finals
riv ate
ĠMar ion
Ġtra pped
Ġsw eet
Ġext rad
Ġexpl ain
Ġmin ority
Ġref in
Ġvers us
Ġdirect ion
ĠCommission er
ĠCr ash
ĠMa o
Ġinvol vement
Ġtour ists
ĠPort able
Ġty co
ĠFund s
Ġwalk ed
Air bus
ĠCharl otte
Ġrapid ly
Hol lywood
omer ie
Ġecl ipse
mos phere
Ast ros
ADR ID
Sym antec
D rug
D VD
E lect
g omerie
i qu
p erson
w art
w rit
Ġt ickets
Ġp overty
is ive
ĠS lam
Ġh arm
ĠA P
ĠA TA
ĠT rib
ĠP op
ĠI r
ĠB ert
Ġe missions
ĠW as
ĠR oma
Ġsh ook
Ġover come
Ġcl oud
Ġint ense
port ing
Ġen em
ĠCl ar
Ġbuy out
AR T
ĠProf its
Ġadd ition
Ġra ids
CO MP
ĠBe ach
idd en
IL L
Ġpoll ution
GO OG
Ġsing les
Ġcapt ors
urd ue
ĠPre view
Con n
Ġindic ated
Ġamb itions
ĠMov es
Ġgrab bed
Ġimm ig
ĠTre o
ĠPy ongyang
5 2
H en
J AF
c ts
e ers
e qu
h ind
h ander
v y
w ords
Ġ ;
Ġt el
Ġa x
or gan
Ġw oes
ĠS ett
ĠS ender
ee ves
Ġpl ug
ist ics
ab it
Ġse ats
Ġquot ed
Ġint el
Ġwould n
az ers
enc ia
Ġprof ession
round up
ony m
AL I
Ch icago
ĠAd am
Ġmin i
ĠWh o
Ġstand ing
sh ore
Ġarrest s
Ġsettle ments
ĠFin land
Ġsee ing
Ġconfir ms
Ġactiv ists
Ġland ed
Ġmon itor
Ġhouse hold
Ġautom aker
Ġparliament ary
Ġrob ust
HO USTON
Ġdevast ating
Ġvill age
otten ham
ĠRad cliffe
FI ELD
ĠOT TAWA
Ġnorm al
Ġconcess ions
Ital ian
c airn
l inked
Ġc rop
Ġc raft
al ore
al comm
ĠS ent
ĠS ee
Ġh ang
ur able
ĠM aster
Ġl ocked
ĠB at
Ġg all
Ġg rip
ĠN ortel
ĠD om
qu el
ĠJ en
um i
ĠSt op
ĠSt orage
Ġab road
com pl
Ġteam mate
ph ones
ĠEx ec
Ġph ishing
Ch ar
ĠBr and
sc reen
ĠEl i
ĠHol iday
Ġreve als
Ġquestion ed
Ġvol ume
Cr icket
Af ee
Ġview s
ĠVer itas
Ġcomple ting
Ġneighb or
Ġbur ied
Ġvar ious
Ġmys tery
Ġerup ted
ĠSold iers
Ġpolitic ians
Ġparticular ly
Ġintel lect
3 3
D E
D escription
P ort
R ock
g un
r ical
Ġt un
Ġb iot
as y
id ency
ĠC op
st ore
ĠT em
ĠP uts
ĠB E
Ġre pe
Ġst ayed
ĠR ain
ĠG A
ĠH ere
ĠL SU
ĠE ven
ĠO wn
our ing
ord ers
Ġover c
Ġout come
Ġsc are
Ġacc us
ĠSp ot
Ġret reat
Ġsup erm
Ġsur r
St ate
ĠAl italia
mb ian
ĠOn t
Ġche ap
Ġstand ings
Ġrece iving
Ġbroad c
Ġchall enger
Ġrepl acing
Ġel ite
Pr ince
Amer icans
ĠInvest ment
Ġhapp en
Ġund is
Ġcas ino
rec ord
ĠArt est
ĠRand y
Dis ney
Ġelectric ity
Ġunus ual
COMP UTER
C al
M ax
T om
U E
V enezuel
c olm
p son
r um
Ġt or
Ġf ill
Ġw ealth
re ement
Ġm and
ĠS ab
Ġh ire
ĠP A
ĠP DA
Ġl ure
ĠI yad
ĠB h
Ġe ager
ĠF ish
ĠF ort
ĠD ream
ĠG overnor
Ġat mosphere
Ġcon ced
pp er
Ġpr inc
ire z
Ġres igns
ect ing
Ġinc ident
its ch
eral d
Ġret ain
Ġsl ump
ics son
Ġind icted
Ġsur ging
Ġcount ing
ĠAr ch
err ed
Ġins ists
ĠAl bert
Ġ8 8
ĠPh ot
Ġrel ay
Ġstri pped
Ġed ition
Ġed itor
ele b
ufact uring
Ġchang ing
ĠJu ventus
irt ual
Ġmort ar
Ġjoint ly
ĠIndust ries
ĠPhilipp ine
Ġprem ier
Ġspect ac
Ġham string
Mon day
Ġet hnic
Ġacknowled ged
P aul
Ġt ens
Ġt rees
Ġf lex
Ġf ossil
Ġp icks
ĠS AP
Ġh usband
ou ch
id ia
ĠC rew
ĠM errill
ĠP o
ĠF ool
ĠR ound
ĠG az
ĠL et
ĠL ock
Ġv ital
od s
ish ers
ount ing
uss els
ĠPro ble
ok ed
Ġwork force
Ġmed ium
Ġeconom ists
Ġwe ighed
Ġlong est
Ġsu ite
Ġext in
Ġproduc ing
ĠAg ree
ĠBank rupt
ĠBr anson
Ġhand le
Ġpublic ly
opp er
Ġshort age
ĠTest s
IA A
Fr iday
Ġemer ge
ris py
Ġavail ability
Col omb
Ġchampionship s
Ġlim its
Ġclin ched
Ġcho ose
Ġteen ager
ĠPad res
Su icide
Invest ors
Oct ober
ĠFut ure
ĠGuid ant
COMPUTER WORLD
B ook
E X
T error
c est
d e
t ure
t orn
Ġt act
Ġs hed
Ġf lew
Ġw rap
ĠP ers
Ġl on
ol t
ĠB ow
ĠW he
Ġr ating
ĠR icky
ĠL ikely
ak y
Ġcon g
ĠIn struments
Ġsh ape
ĠK reme
ud h
ĠCh rysler
ĠCh annel
Ġsp re
Ġun h
Ġun rest
Ġro ster
Ġsc am
AN S
ind er
onom y
ath am
ĠRes ources
Ġrev ive
ĠOr tiz
Ġche aper
Ġenter ing
ĠBar rel
br idge
Ġdet on
iff s
Ġengine er
ĠPol and
Ġsuff er
Ġcour ts
Ġappeal ed
Ġcompl aint
Ġsett lers
ĠNear ly
Ġastron omers
ĠTy phoon
ĠTarg ets
ĠEver y
ĠMag ic
ĠFight ing
VI EW
Tur key
ĠPil ots
ĠBrew ers
Dar fur
irming ham
A ug
A tt
B efore
D U
D eal
N AS
T exas
d raw
j o
m and
s ets
al ysis
Ġw all
Ġto pp
Ġb aby
is cher
ĠS a
ĠS ky
ĠS iemens
st am
ĠT oll
ĠM ission
Ġn erv
Ġg ift
ri pp
ate g
ĠY ug
ĠTh rough
ie bel
uc r
Ġint r
oy ono
Ġwar m
Ġsl ash
Ġsl ower
Ġplan ets
Ġph armaceutical
Ġdeal ers
Ġsign als
Ġass ists
Ġ9 6
Ġadv ances
IC H
br id
ĠTV s
run ning
ĠCub an
roll ing
ĠRock ies
Ġdistrib ut
ĠMic hel
Ġintegr ation
ĠEy e
Indones ia
Ġelimin ate
Ġtrigger ed
ĠMut u
Treas uries
ĠJama ica
itsch ko
udh oyono
9 5
C ell
H ealth
d o
r and
w olves
z one
Ġa f
Ġa w
Ġs ear
Ġp unch
ro g
il ateral
ĠS ER
ou p
ĠC re
et her
ĠM ixed
Ġfor med
ir ts
Ġg reet
Ġr ipped
ĠR ut
ĠD oes
ĠO range
ag ging
end ul
if orm
ĠCh anges
Ġj ets
Ġup on
ke pt
ĠUn ix
Ġrec alled
Ġen ters
ĠSp ending
Ġ6 8
AT LANTA
ĠFl aw
Ġbid ding
enn a
ĠZ ook
Ġaut hent
Ġpe ak
Ġsub stant
Ġstud io
mit ting
ĠPhil ips
Ġneg ative
Ġcontrol s
ena ult
Ġdisapp ear
agu ered
Ġcelebr ated
ĠPre p
ĠID C
Ġcertain ly
Ġinvent ory
Ġbox ing
Ġfreed om
Sing h
ĠBroad band
Ġawa ited
Ġconserv ative
alyst s
Ġsudden ly
Ġsteroid s
ĠApprov es
Ġem otion
oren stam
Ġnecess ary
ĠRodrig uez
3 1
G eor
H it
I X
K ee
W E
b ec
b ucks
s ych
on z
ed ge
Ġf u
ĠC redit
ĠT ennis
ĠT ORONTO
ĠM ig
Ġfor g
ĠR ate
ĠL ight
ĠL uk
ĠL anger
ĠJ OSE
um es
ust ody
Ġch ase
ĠK ONG
ell er
gt ime
Ġun le
Ġper mission
Ġad mits
Ġus ual
ey ton
Ġman ned
ĠIs lands
ĠAr sene
ult ane
Ġrem ark
ĠFor um
Ġmanag ing
ĠMar ine
Ġpost ing
ĠUp date
CO L
Ġrival ry
Ġanal ysis
ĠMark ets
Wh y
Ġbarrel s
part y
ĠPort ug
Ġovers had
omber g
Ġsignificant ly
John son
FOR D
Indones ian
ĠHear t
Ġcondem ned
Ġconclud ed
Ġbal ance
Ġvide ot
Mal ays
Ġreput ation
Ġtyco on
Ġrepe ated
M ex
f ax
p en
t ax
Ġt ensions
he ed
it ation
Ġb rac
Ġb ases
ur rier
ol y
ĠF ans
Ġit ems
ĠG rizzlies
ĠH alo
end ar
ard y
Ġk idn
ab ama
Ġsp y
Ġun able
Ġcont act
Ġen able
Ġend ors
ĠAr ist
ĠCo oper
Ġbillion aire
Ġunder stand
Ġfinal e
Ġrel atively
Ġmiss iles
ĠComp et
Ġcontract or
Ġengine ering
Ġauthor ity
Ġsim pl
At lant
Ġfe eling
ĠLouis ville
Ġdam aged
Ġtem per
Mo zilla
Ġhy dro
To day
Ġanim als
Ġspir it
Olymp ic
Ġenh ance
Milit ants
Ġinaug ural
ĠFal cons
Ġcollaps ed
ĠBreed ers
W orks
a us
f ood
t aking
Ġs en
Ġp ages
Ġb on
ĠC ash
ĠC able
ĠT erry
ĠP anel
ĠP oor
ĠW TO
ĠF DA
ĠN ation
ĠR ight
ver al
ra ined
ĠH onda
Ġsh op
Ġqu arters
art oum
Ġexp enses
Ġbl oc
Ġbl ade
Ġwar s
Ġdef ends
Ġelect oral
ier re
Ġ8 9
Ġact ions
ĠAt omic
ĠBe gin
Is lam
Ġstand off
Ġinterest s
att an
sc ale
Ġmar ks
Ġpull s
Ġpull ing
Ex pl
Wh ite
Ġver ge
Ġlift ing
ĠTro jan
Ġspot light
Ġsett les
Ġpled ges
ĠAlex ander
ĠProd uct
Ġrank ings
Ġadop ted
ĠSam arra
ĠLat in
BO UR
Ġmic rop
Ġsust ained
ĠCath olic
endul kar
D igital
G o
M ail
R og
b our
f ree
o ons
Ġt orn
al at
re x
is p
ro kes
ĠS us
Ġd og
ĠA aron
ĠF ast
ĠR ice
ri ors
ĠJ ERUSALEM
ĠIn formation
end ant
arg h
Ġint ention
ber wolves
ĠAn war
ĠAr ena
app y
ĠOp ter
Ġclos est
Ġfall en
Ġbel ong
ĠSl ip
ĠFir ms
ĠMil osevic
Ġsurv ivors
Ġinsp ect
Ġsurpr ised
Ġearthqu akes
Ġhun ting
Ġhous es
Phil ipp
Ġjud ges
Ġobserv ers
Ġpen alties
Ġfarm ers
double click
B el
D O
E ven
L os
L ycos
O B
O ver
R el
S ir
T el
h o
n ets
in ate
Ġf ract
al a
Ġw aves
Ġd rew
ĠC are
ĠP ARIS
Ġl ying
am y
ĠB amb
ĠF A
Ġr ic
Ġr anked
Ġch osen
out heastern
Ġdis rup
Ġacc ord
Ġwar planes
ĠAs h
AT I
Ġam bit
AR D
AM I
Ġcell ular
ID S
Ġrequ ired
ĠWe ak
ĠMer ger
Ġdomin ate
Red s
ED S
Ġaud ience
ĠDeb t
Ġagree ing
Ġvulner able
Ġpurs ue
Ġoccup ied
Ġexcl usive
Ġcha os
Ġsuspic ion
ĠArist ide
' d
H alf
L et
R o
T ennis
W atch
i ate
k in
n ation
v o
v is
in ting
Ġw rest
Ġb ag
ĠC O
ĠC ode
ad ers
Ġl ived
ĠB acks
ĠF er
ĠN ATO
ĠE mer
ian o
ĠJ eeves
our ney
Ġsh adow
Ġwor ms
Ġsc ale
Ġend angered
Ġsl id
Ġsl ashed
Ġli ber
Ġrele asing
Ġ19 80
Ġass et
Ġhost s
ĠGu ill
sh ire
imb led
Ġapprov es
Ġequ al
ĠSy mbian
ĠCont inu
Ġnegoti ating
ĠHar vard
ĠDeb ut
yl um
Ġbas is
Ġamb assador
Ġvulner abilities
Gr and
ĠJon athan
Sm ith
Ty phoon
ĠFav re
Ġambit ious
E uro
E agles
P P
U s
b ird
e ff
j et
r ent
on age
Ġp ays
Ġb rows
Ġm ot
Ġd ress
ĠC ards
st ri
ĠT iVo
ĠM OSCOW
ol s
ĠB EIJING
ir ms
Ġst eep
Ġst olen
ĠG OP
ĠH a
ĠL og
ag a
ate ur
ight ing
ĠK el
Ġpr escription
Ġk ids
ĠCh apter
ĠY et
ere k
Ġcl ues
Ġun w
od es
Ġres ident
amp les
Ġfin es
Ġar rive
ĠSp ecial
In vestor
Ġreg ions
oot s
els ewhere
af e
ĠEar n
we gian
yn am
bit ration
agu ed
mo il
Ġgather ing
ĠRele ases
Ġpurs uit
Ġupd ated
ĠStan ley
Ġham mer
Ear th
Ġuncertain ty
Pac ific
Ġsomet imes
ĠSoy uz
Ġsche me
ĠIssu es
Ġintellect ual
Ġoverc ame
imbled on
C T
P e
P ay
V ICE
n es
Ġs ort
it als
Ġw ire
ĠS i
et ooth
Ġl ing
Ġl ength
ĠB aker
ĠB engals
im ony
ĠG P
ĠH op
ĠL ake
ĠSt r
ning ton
iz umi
ull ah
Ġ4 6
Ġsw ap
af i
Ġfil ms
ĠAss embly
Ġemploy ers
Ġdiv ided
ĠMed ic
Ġfuel ed
ĠRob inson
ĠHold ing
ĠTra il
Ġaff ord
Ġdomin ance
ĠAT P
ALL AH
ĠBer lusconi
ĠRam irez
erem y
Ġadop t
Ġvulner ability
fe it
ĠHom eland
Ġmean ing
ĠLat est
armaceut icals
Ġmys terious
terror ism
PT EMBER
Ġmic ro
Ġfavour ite
Ġlibr ary
Ġgam ers
Ġmil estone
rah im
ĠLen ovo
Ġperman ent
Ġprofession als
Ġcong lom
B ag
C hip
S ox
S audi
b ell
b rahim
c or
m n
Ġt anks
Ġc enters
Ġto w
is man
Ġm ix
Ġd amp
ĠM ill
Ġn ortheast
ĠI R
ot ic
ĠR u
ith uan
ĠH urricanes
os a
ĠO N
ĠK ABUL
ĠThe n
Ġsp oke
ĠFr edd
Ġup rising
ĠV irus
Ġint ent
Ġtr ucks
Ġar r
Ġor b
Ġstr uct
In f
Ġind ef
RE AL
Ch ief
Ġcharg ing
ĠApp eal
Ġadv ice
ĠAnd erson
Ġacqu iring
Ġfac ilities
Ġhow ever
umb les
Ġlist ed
ID G
ĠHol mes
ĠChe ck
Ġslow ly
Ġwrit er
ĠMiss ile
ĠDVD s
Ġsqu ee
Ġart icle
Ġesc ape
inds ay
ĠExt ends
Ġbatt ling
ĠTel escope
asc us
ĠVik tor
Acc ording
ucr ative
ĠSER VICE
B T
B ur
B rown
O D
f ound
g eneral
h attan
i at
s elling
u ers
v ision
z ens
Ġ elsewhere
Ġt ender
Ġt ype
Ġs ights
ro ck
ĠA ims
Ġn ote
ĠP av
Ġre ign
Ġre ass
ĠF ears
ĠN at
ĠR ights
ĠD ave
ĠG er
ĠG iant
up ert
ĠH amp
ĠL LC
ul ations
ri be
Ġus ually
pl us
ĠLe aves
Ġfl ow
Ġfl oor
Ġ7 2
Ġmay be
Ġbat teries
arm alat
Ġviol ating
Ġdom ain
Ġreven ge
SE ATTLE
Ġpriv acy
ĠMa ver
Ġmon itoring
IM F
Ġtreat y
ĠHis pan
Ġgirl s
Ġassoci ation
ĠSum mer
Ġdeleg ation
Ġpion eer
ĠMour inho
Ġexperim ental
Gre enspan
Ġteleph ony
ĠOpter on
; \
D ream
E ight
L iverpool
P ower
S M
T W
g n
Ġt all
Ġt ort
Ġf illed
Ġc ustody
re f
Ġin k
Ġh ip
ĠB C
ĠB anks
Ġre ward
Ġst ream
ĠF ur
ĠF leet
im um
ĠR ub
ĠG ri
ew ell
os er
ul ating
ap on
ĠK ings
Ġun ique
Ġun anim
erv ed
ĠSh ould
Ġsur pass
ĠPl ace
Ġagre ements
Ġconf ront
ĠAl abama
Ġprov ision
Ġass embly
bers ecurity
ĠWith out
per cent
Ġpat ches
ĠSy racuse
ĠCont ent
Ġdoc tor
Ġmass acre
ĠRet urns
Al italia
Ġwrit ten
ĠMal colm
ĠCharg e
Ġsit ting
Sec ond
Tr ans
inh ua
Ġabs ence
Ġachie ve
Ġresum ed
Ġdepart ure
ĠJP EG
ĠJer usalem
ĠHorn ets
Ġestabl ished
6 7
C R
C elt
E E
K E
S ri
T rust
b acco
g ar
m ine
m are
r ino
Ġ icon
an ing
Ġf ault
Ġf aith
Ġw ear
Ġp ir
Ġto uc
Ġto bacco
Ġb es
Ġb ail
is an
Ġh undred
le aguered
ĠC BS
ĠA CC
ĠT ow
Ġth inks
Ġth wart
ec a
ĠP orts
Ġl ucrative
ol as
ĠF ischer
Ġr atings
ra vel
ĠG al
ĠG DP
Ġcon ven
Ġex porter
Ġk il
ĠV ows
over y
port un
Ġsc rap
Ġcar ries
ĠMar athon
Ġbr idge
Ġgu errillas
uk at
ĠOr gan
Ġmar riage
Ġsk ipper
ĠDel aware
ĠRet ire
Ġrep ublic
uff le
Ġvol atile
ĠTom my
Ġclin ical
Ġdiplom at
Ġpled ge
16 0
ET RO
Ġrepresent atives
reg on
Space ShipOne
LO OM
Ġdisrupt ions
ĠOpp osition
Ġsle ep
Ġgren ade
ĠMao ist
Ġmicrop ro
M ost
c ano
h and
n old
w inning
er ated
at ers
ĠS r
ĠS ug
st ream
ac r
ĠP act
ĠP ersonal
ig ar
ĠB ali
Ġre op
ĠF un
ĠR isk
ĠR enault
ĠG am
ear ly
ĠL arg
ĠL ooks
ess ing
ĠY udhoyono
ĠTh ink
se qu
Ġint ends
ov iet
Ġtr acks
ush chenko
US TR
Ġ5 7
Ġ7 1
Ġcomm od
Ġbat ting
Ġgu y
Ġstrong est
Ġ' '
ĠAb ove
ĠQ antas
Ġmatch up
ĠSl ow
ĠSl ov
Ġest imate
Ġtelev isions
Ġclear ing
Ġdr ama
ĠFed eration
At hens
ĠBlack burn
Ġblock ed
Ġarriv al
Ġcanc eled
Pakistan i
Ġupgr ades
Ġfilm maker
Ġenc ounter
Ġsil icon
Ġbatt led
ĠEr nie
Ġpun ish
Ġtempor arily
Ġdial ogue
ĠRoy als
ĠLim ited
best os
ĠMad ison
Phill ips
ĠSuz uki
Ġsuperm arket
Ġconglom erate
ETRO IT
B ang
C le
D I
D AL
F E
H S
M ay
P fizer
S ant
p ect
re pr
Ġb ound
ĠM oss
ĠB rett
Ġst ick
ĠN uggets
ĠR overs
ĠD h
qu ille
ĠH awks
ĠE MC
ĠO uts
ag ger
ĠJ os
Ġle ap
Ġqu ake
Ġch air
ide ast
gh ans
ĠLe ave
az ing
Ġsup ported
ĠRes igns
Ġ9 2
Ġreb ounded
Ġpay roll
Ġgu ide
Ġant ivirus
ĠOn ly
cl ass
Ġcor rect
ĠMc G
As ia
Ġemb ry
ĠSy rian
Ġdist ance
Ġsim ultane
Ġrecover ing
Ġdraw s
Ġdam ages
ĠTro y
ĠTim berwolves
ĠTreas uries
Ġastron aut
ĠSil icon
angu ly
ĠAv iation
Ġintegr ated
hell o
Ġsemif inal
Ġsens itive
Ġaband oned
ĠDirect or
Hall iburton
ĠKaz akh
Ġroy al
Ġspectac ular
Kee fe
ĠMaver icks
B road
F all
F ree
G P
H ar
K ey
O ut
W ireless
d am
g rowing
k om
l av
w ater
Ġs yn
it an
at ures
Ġc ouncil
Ġb orn
Ġb orrow
Ġm ad
ĠS om
Ġd rawn
ĠC ur
ĠA U
ĠM ir
ĠM ys
ĠP H
ĠP SP
ĠI brahim
ĠW ant
Ġst akes
ĠN V
ĠE sc
oc aine
ĠJ ump
ard ier
ĠY en
ĠTh ousands
od ge
ĠIs sue
Ġelect rical
Ġ5 3
Ġdeal t
ĠSer ge
Ġtro op
off icial
put ing
ĠMan hattan
res ent
ĠBr idge
Ġred ucing
ric hello
ĠDef ence
Ġclub s
Ġpopular ity
Ġ199 6
Ġnegoti ators
Ġblock buster
Ġcelebr ation
ĠPay Pal
Ġeffect ively
ĠSur v
Ġcounter part
ĠVo ters
Ġbur st
ĠRoman ia
Ġmist ake
Ġslam med
Ġphys ical
ĠPict ure
ĠCrit ic
Ġcasual ties
B ut
B onds
C all
F ootball
G oran
J AKARTA
M any
b ut
s ec
s chool
z ed
on ic
Ġs ends
Ġthe ory
Ġf ol
Ġf est
ac le
ĠM aine
Ġl ov
ĠF el
ĠN ortheast
im ates
ĠR ival
AP L
Ġcomp ound
ĠK urd
Ġun changed
ĠPr es
Ġcr ashes
ang le
Ġbl ocks
ĠAr k
St ock
iam bi
Ġact ive
Th at
Ġgu ards
str uct
Ġant icip
ĠBr uce
Ġcompet itor
Ġown s
umb ent
Ġemb argo
Ġrock ets
ament o
ĠMo qtada
Ġkidnapp ing
Ġpack ed
arz eneg
ĠProt est
ĠMont gomerie
ĠBomb s
Ġmom ents
uz nets
Ġcal endar
Ġansw ers
Ġill ness
Ġtrib unal
BUR G
ĠRev olution
Ġtelecom s
Ġlibr aries
Ġcart el
ĠMu qtada
Ġpersu ade
Ġlon gtime
Ġdeton ated
Bag hdad
acr amento
arzeneg ger
P ass
T im
Z en
c ane
or se
Ġw earing
Ġb oys
Ġh ikes
id ance
ĠC ustom
ur i
ĠM eyer
Ġth rows
ĠI an
ĠB irmingham
Ġst able
im ination
ĠR B
ĠD rive
ĠD aimlerChrysler
ĠG arden
Ġhe d
ĠSt rug
ĠSt raw
oo f
Ġj ourney
Ġse lect
Ġse lected
Ġout break
Ġres h
amp s
ank ing
Ġcr unch
pl es
ina i
Ġim minent
its u
Ġcons ult
In t
oot ing
St rong
Ġsu ing
Ġbat tery
Ġcost ly
cl estone
lin ers
mail s
Ġinterest ed
ĠRep resent
AD S
Ġpres ented
Ġpres idency
Al though
Ġroll s
ĠExp ands
ĠSur vey
augh t
Ġbas ic
Ġathlet ic
Ġvirt ually
ĠJackson ville
ĠDam ascus
ĠStan ford
Ġsal ary
ĠSha ukat
wh ile
cont rolled
ĠMah m
Ġexerc ise
ĠMerc ury
Official s
po ena
ĠBankrupt cy
6 9
D C
I v
N T
R ad
R IM
S K
S he
S ign
S eattle
b ot
b ase
h ist
Ġb onds
ic its
il o
ĠS ells
ĠC ore
ĠT urns
el ro
ĠB oth
ĠW ars
ĠF ame
Ġr ugby
ĠD rew
ĠU krainian
ĠH O
oc co
ap es
Ġsp ots
Ġcl ock
ĠV otes
Ġcont ain
ous and
ĠSh awn
Ġ6 50
Ġpercent age
Ġsur ve
ĠCo le
ĠBl og
Ġdeal ing
ert ies
Ġunder go
ĠBr ussels
ĠGu ilty
idd les
Ġprom otion
Ġhol idays
Ġtrans form
UN ITED
\\ "
ĠIslam ist
Ġfe els
Ġfresh man
Ġtown s
ĠBel gian
Ġalleg ing
Ġesc aped
ĠMalays ian
Ġmist akes
Ġaband on
ĠOpt im
Ġsav ings
Ġtoug her
ĠRaf ael
Ġoverwhel ming
ĠGA ZA
mand u
repr ene
uznets ova
B ack
C y
C assini
G ood
K idnapp
M em
Y A
d es
d el
g ies
Ġt umbled
Ġto y
Ġb und
ĠT oo
ac c
ĠP urdue
ĠB AR
Ġg ri
Ġst ops
Ġst rokes
ĠN FC
ĠR ac
ĠD w
Ġpro of
um mer
Ġoff shore
ff ield
Ġ6 1
Ġserv ed
ĠRes c
Ġoper ate
head er
ĠAd s
Ġsub urb
Ġgu idance
Ġclos es
let e
TO BER
Ġpat ient
Ġtrad ition
ĠDel ays
Ġwithd rawn
ONT REAL
UR T
eg oti
ĠJu an
Ġpubl ishing
Ġcoun ted
ĠBel arus
ĠExpl os
ĠMex ican
Ġchalleng ing
rav aged
ĠCharl ie
ĠPle ads
ĠSalv ation
def inition
Ġcongr essional
ĠEmp loy
Ġdetain ees
ĠShr ine
4 50
7 00
F K
G ame
J ets
R ay
R angers
b ound
c ar
w ing
Ġs acked
Ġc ow
Ġw r
ĠS aints
ĠC ond
ĠP etroleum
ĠR ick
ĠG round
ĠH il
Ġbe aut
Ġbe leaguered
Ġy oun
ĠSt rate
Ġwh ales
ust ry
ĠK idd
Ġab uses
ure au
Ġkill er
Ġdec lines
ĠCo al
err ard
Ġbr u
Ġstri king
idn ight
cl osed
ĠPhil ip
IL LS
ĠPol icy
ĠNet flix
Ġdr ink
Ġshut out
ĠInter ior
Ġident ify
Ġimport ance
ĠPort land
ĠHait ian
ĠPit cairn
serv ice
ĠEr icsson
ĠKh artoum
ĠThreat ens
Ġprem ium
ĠKeep s
Ġrelie ver
Ġcorner back
ĠBlock buster
ĠCanc er
Ġdesper ate
ĠVen us
ĠVers ion
P O
S ever
W indows
Z imbabwe
b al
g overnment
j a
k iller
l ow
s en
t wo
Ġt ree
in id
Ġs ick
Ġc argo
Ġb ear
Ġb old
Ġm ph
ĠP eyton
ĠB ah
Ġre iter
Ġr aw
ĠN J
ĠN ist
ĠN ev
est y
ĠR ising
ĠD anny
ĠL A
ĠL ift
ĠE RP
Ġbe er
Ġbe ach
ul ator
ast y
Ġsh ips
Ġpl us
iv als
Ġac compl
Ġun known
Ġun iform
Ġop inion
ged y
eep er
eep ing
enn y
raw ford
ĠTr ack
sp yware
ĠWith draw
Ġred uction
Ġgr ant
uj itsu
AC H
Ġfeat uring
Ġtw in
Ġdiscuss ions
ĠAut om
BER LIN
ĠCount ry
Ġplatform s
Ġowners hip
ĠAv iv
Ġdisappoin ted
ĠHot el
Ġattend ants
Palm One
Ġmarg in
ĠRw anda
Ġorigin ally
Ġdesk tops
Ġcomprom ise
Ġcolle agues
ĠHamp shire
ĠNist elro
/ &
C K
C enter
F P
M il
M onth
S EOUL
V ol
d ict
h olm
l if
Ġa ce
Ġc e
al om
Ġto pped
Ġm ud
ĠS ouness
ĠS inai
Ġd ot
Ġd ubbed
ĠA ction
ĠT ottenham
ĠM GM
Ġfor th
Ġn ortheastern
ĠI RA
ĠB ook
ĠW right
Ġst ages
ĠR E
th at
ĠD u
ĠH ist
ul ham
ĠO mar
ri ot
Ġpro ced
Ġun p
ĠMon ey
Ġsc en
olog ist
Ġbusiness man
ĠPl ane
Ġnear by
ling ton
Ġsm ooth
Ġsw imming
Ġdel iber
Ġstra in
Ġopp osed
Ġdet ailed
Ġmod erate
Ġregul ations
Ġexper iment
wan ted
ĠShe ll
NE T
Ġsurv ival
Ġgreen house
Ġhun ger
Ġbrief ly
Ġflood ing
Def ense
ĠSettle ment
Ġcyc ling
ĠEarn hardt
LOOM FIELD
cane ers
ĠNistelro oy
' m
8 7
G reen
G ateway
M yanmar
S onics
V i
a is
b oy
h ot
h ire
i enced
n amed
v idia
Ġa ides
ar c
Ġc ert
ĠS ar
ĠC ars
ĠA wards
ac o
ĠB T
ĠB urn
ĠB rowser
Ġre action
ew ork
ĠL ess
Ġas ylum
ĠK ath
ĠY UKOS
ĠV enture
out i
Ġab rupt
og ts
Ġop portun
ach ers
ov an
ite z
oy ed
Ġim ag
ĠRe aches
Ġsup ports
hip s
Ġcap ped
err illa
ĠCon rad
iam en
Ġtri ple
Ġwe apon
Th ai
Ġsub st
Ġche er
ĠDis put
Ġste pping
ĠAm elie
Ġnegoti ate
ĠSu isse
Ġconv iction
Ġcomb ination
Ġval ued
Ġblast ed
ĠAnt ar
AK E
Ġcompl aints
Ad v
ĠTrop ical
Ġcirc uit
ĠNor wegian
ĠDou ble
Ġhon or
Ġdevast ated
Olymp ics
Ġunf air
Ham as
Ġchem ical
Ġtre ated
Ġwreck age
ĠLP GA
Ġadvoc ates
Ġaccus ations
eleb rex
3 7
6 4
B U
B ry
C EO
D EN
H ong
I O
L ead
W TO
y er
Ġ error
Ġa wards
Ġp sych
ĠS ites
Ġh ide
Ġh aul
ĠF CC
ĠF reed
ĠN ag
ĠN ears
ĠN TT
ĠR at
ĠR ow
ĠD raw
ĠD erek
ĠG all
ĠH im
ĠL ive
ĠO regon
ess or
ĠJ et
Ġwh om
ĠY ushchenko
av ior
ĠSp ring
IN D
ĠAs ks
Ġco oper
air y
ĠPresident ial
Ġtal ent
co a
ains bury
Ġgl ory
Ġstrong ly
Ġcamp s
Ġspec ific
Ġhand ling
ĠWar ning
ĠHe isman
Ġgold en
Ġvis ited
Ġav iation
oney well
ĠEd die
ĠSl ips
Ġpolic emen
ĠMa ur
Ġent h
ĠMiss ing
Ġaff ected
Ġmon itors
Ġdisapp ointment
Ġfun eral
ĠInt rod
Ġlock er
ĠLeg al
Ġpra ise
Ġtur moil
bor o
Ste el
ĠStra ight
cut ting
ĠFredd ie
Zen eca
1 50
3 2
B ell
D eath
G overnment
S INGAPORE
a fter
b rough
h ol
Ġ eld
in ted
or ia
re hens
Ġb ranch
ĠS end
st ed
el a
ĠP iracy
ĠB ulls
Ġg e
ĠW olf
ĠW NBA
ĠW arming
Ġst aged
ĠF BI
ĠN apster
est ed
ĠR ome
ĠL ose
ĠL indsay
os is
ĠE ight
Ġsa ving
ian g
Ġde g
um ar
ĠSt ay
Ġqu its
Ġcomp onents
ĠK urt
Ġk icks
Ġcl assic
Ġcl oning
ail ing
com puting
Ġtr im
ĠSh ot
Ġdec lining
Ġ7 4
enter is
Ġspec if
Ġ16 0
ij sters
Ġsol ve
As k
Ġchip maker
Ġstat ements
Ġprison er
Ġblock ade
Ġdraw ing
Ġdiffer ences
Ġacquis itions
ĠPort o
Ġwild life
ALL UJA
Ġprotect ing
ĠIns urgents
Ġdemonstr ated
Ġhal ted
ĠBas que
Ġknock out
power ed
Pat riots
ĠBuc caneers
ĠPeters on
ĠHarr ington
Afr ican
Ġregis tered
Ġdistribut or
ĠPorts mouth
ĠKazakh stan
8 9
A ct
B ert
C hen
E Bay
G olf
M ortgage
T ony
h ost
o os
u ly
Ġt ore
Ġf ake
as a
Ġm un
ĠS ue
ĠS acramento
Ġh ook
st ad
ĠA S
ĠA BC
ĠM ax
ĠM etro
ĠP ension
ĠB rom
ĠW id
Ġst ays
ĠF M
Ġr ains
ĠN uke
ul ted
Ġas p
Ġcon vers
ĠJ eremy
Ġex ample
ĠK an
ome ter
Ġacc uses
ĠSp urrier
ĠCom cast
ok en
ales e
pr esident
AT A
rac ted
RE S
ĠAl aska
Ġgrow s
Ġbomb ed
Ġdel ight
Ġdel ivers
Ġprogram ming
be ki
ĠWill ingham
Ġfoll ows
res pond
Ġviol ated
ĠSan ctions
Ġshort ly
Ġpat rol
Ġshar ed
Ġdr inks
ĠHow ever
utin y
Ġdefeat ing
Col lege
ĠMiss ouri
Ġcomplet ely
ĠSil v
ĠStar ts
Ġlab els
Ġindepend ence
ĠPan ama
ĠLow e
Ġlack l
Ġchar acter
How ard
Ser ver
Ġsy mbol
ĠGra eme
Ġevac u
Ġcease fire
Niger ian
Ġlandsl ides
Ġmagn itude
ĠKl itschko
Ġgenet ic
Ġcomfort able
Sen ate
ĠVI ENNA
UA IR
ĠLu is
Ġerr ors
Ġaer ospace
ĠGaz prom
Ġvideot ape
Expl os
A I
A stron
B E
B ANG
E nd
H AM
I reland
P K
P ad
b ow
f are
j ans
k ina
n ow
p ot
Ġt ip
in f
Ġc ocaine
al ph
Ġp ill
Ġb ears
ro yo
ĠS U
ĠM useum
am m
ĠB anc
ĠB udd
ir med
Ġg ang
us er
ĠF arm
ĠF amily
Ġr ib
ĠN Z
ĠR O
ĠR uling
ĠH undreds
ast ed
Ġcomp onent
ell ation
av s
ock ing
ĠAn s
ĠLe on
ĠPro gress
ĠEx ecut
ĠBl asts
ĠPl ant
ĠCl ippers
Ġunder way
ĠSer ie
Ġbank ers
Ġexecut ion
ĠSe oul
Ġhom ers
ĠMc Donald
sh are
Ġtrad em
Wh o
ĠPat ent
ĠAm ong
ĠMed al
Ġactiv ist
ĠCons umers
ĠLos es
Ġtravel ers
Ġident ification
Ġsurv ive
yl an
ĠSant a
ĠInt egr
Mc Donald
ĠLab s
ĠStri kes
ĠProd ucts
Ġsubscri ption
Ġattemp ted
edd ing
olic ited
ĠLiber ty
Sup er
ĠPen nington
ĠJam al
ĠAbd ullah
Ġprim ary
eps i
Ang els
ĠRoss i
Ġadap ters
UAL A
ĠCour se
Ġslug ger
;\ &
B oss
H D
H undreds
M iami
S usp
V E
W oods
f light
r ating
Ġt ons
Ġs ac
Ġs ank
it on
it ted
Ġf ights
Ġo ust
Ġp ieces
ĠS ex
Ġd u
Ġd aughter
ĠC ome
ĠC IA
ĠA ud
ĠA verage
ĠA yad
ĠT ob
ur ation
ĠM ideast
ir it
Ġg ambling
Ġst iff
ĠF I
ĠD ig
ĠH end
ĠL ike
ĠL iving
em ic
op oly
ess ential
rom edia
Ġsh ipped
Ġpr iced
Ġal b
ĠV ivendi
Ġro vers
og g
av ier
Ġ200 9
Ġcont rolled
aw ati
Ġad ults
Ġinc umbent
ind ing
US T
IN S
Ġinvest ments
Ġ8 5
ik a
ik i
Ġ9 4
Ġsw orn
Ġprofit able
Ġgl ass
ĠTr ump
ator ies
ĠDec line
Ġinterest ing
ĠSun s
Ġshort stop
Ġshe ll
GH z
Bl ast
ĠPol ish
ĠDel ay
Ġmet res
ĠHar ris
Ġquestion able
En ter
ĠDrug s
Ġpurch ased
Ġocc urred
Ġurg ent
ĠExt end
Ġphot ograph
ĠBlu etooth
Ġsidel ined
ĠArrest ed
ĠRw andan
ernand ez
ĠScient ific
iddles brough
B L
H ONG
M os
O w
P N
S AP
S iemens
T AN
W S
g l
k ies
o op
r uit
Ġ x
in er
he ning
en ged
Ġf ee
Ġc ripp
Ġp ending
Ġb ounce
is er
ay a
ĠS oft
Ġd awn
ĠA IDS
ur ich
Ġfor ms
ĠP rosecut
ir i
ut ies
ĠW el
Ġst ability
Ġr iot
ĠR onald
ver y
ĠL yon
and als
ess ions
ĠJ int
ĠJ azz
um in
ĠFr ed
ĠFr ont
ens us
Ġcont aining
eb uck
pl ed
Ġreg ain
Ġmay or
Ġcar maker
Ġrem arks
Ġpower ed
Ġinf ected
ĠX inhua
Ġinst alled
ĠFir es
Ġjump s
ĠBay ern
Ġsaf ely
ĠRo ebuck
mir ates
ĠAst ron
Ġtrack ing
ĠBel ow
Ġspe ak
ĠUs ing
ĠBang alore
Ġund ers
ĠProd uction
ĠHot els
Ġdeter ior
Ġplot ting
ĠArgent ine
Ġfigh ter
Ġhelicop ters
init i
Ġindivid uals
PT I
Card inals
ĠGun ners
Ġbirth day
ĠRoll s
Ġmus cle
ĠEst imates
Ġcoff ee
ĠMick elson
ĠAnim ation
Ġric hest
3 50
4 2
8 8
C OR
H ait
J et
P aris
b ian
c ase
l aim
p oin
x imately
Ġ iron
Ġp ond
Ġp ensions
Ġb le
ou ds
ĠC FO
ĠT ies
ĠT ough
ĠM ain
ĠP itch
ol i
ĠW imbledon
ĠF re
ĠF ew
ĠE th
ul ent
ul ous
Ġcon cl
Ġex cess
Ġch urch
ab r
ĠV ac
ĠV ince
Ġsec ured
od ox
rop ri
Ġinc or
Ġteam ed
Ġpre v
ĠAl though
Ġeconom ies
ient ed
Ġimp ossible
ĠMan uel
ĠHe ads
Ġstock p
Ġcampaign s
Sp anish
Ġcell phone
Ġple ads
ĠCons ider
ĠPlan et
unk ett
Ġdistrib uted
ĠHealth Day
Ġbrok ers
ĠVenezuel an
Se ven
Ġtrib al
Ġtext ile
ĠMeet ing
Ġinn oc
Ab out
Sm all
ĠBreak s
Ġporn ography
Ġod ds
Ġmedic ine
Ġcos m
fr ame
Ġincent ives
ĠGib bs
Ġremark able
ĠContinu es
D R
H ere
H ouston
L ike
M a
M iss
P ar
b a
d is
g ie
g io
o a
s ol
Ġ eth
Ġt ear
ing ing
Ġw er
Ġw rapped
re k
Ġb ed
Ġm urd
ĠS orenstam
Ġh ung
ĠC andid
ad os
Ġfor est
ĠP ull
ol fer
ĠB ureau
Ġg ar
ĠW ould
ĠF act
ĠD a
ĠD ip
ĠU lt
ts on
ĠH ILLS
Ġan onym
ĠL ove
os lav
ĠE TA
ag ged
em a
ĠK a
Ġsc or
Ġwar l
pr us
ĠAr ms
ĠCl imate
Ġnear s
Ġdem ocratic
Ġprot ocol
ĠBe hind
arm a
ĠSouth ampton
par ts
ĠNorth west
ĠBr ands
Ġref using
osp itals
Ġexpect ing
Ġsk ills
Ġexplos ive
ĠHol y
Ar t
aced on
ĠBill iton
Ġ199 8
Ġfact or
ĠPaul a
Ġple ad
GA ZA
ĠShe ffield
ĠVal encia
Pro t
ĠSant ander
ĠInt elligence
Ġintegr ate
Ġmount ing
Ġvar iety
ĠVol kswagen
ĠMess enger
Ġrac ist
Ġpan els
oco Phillips
ĠKo izumi
ĠIncre ase
Ġhell ip
ĠInst ead
Ġfro zen
ĠOnt ario
ĠOrgan isation
5 7
6 3
L Y
N e
S af
T echnology
d istance
h anded
k en
l iest
m ical
x ious
Ġs kept
it ting
Ġc ement
Ġc ateg
Ġp in
ro te
Ġm idnight
ay an
Ġh amp
ĠC old
ĠP ath
ĠB und
ĠN A
ĠR ivers
ĠG iambi
ĠH ope
Ġan cest
ĠL ind
ters h
oc ation
ĠIn sp
Ġch ose
Ġag ing
ĠCh urch
ĠY anks
ub ai
Ġun ity
ant a
eop les
ĠInd y
Ġim pr
ĠRe form
ĠRe ported
ĠBl azers
Ġrun ner
lud ing
ĠOp portunity
Ġtra gedy
Ġsw itches
Ġgu errilla
An nan
Ġ12 0
Ġstud ies
Ġmain ly
Ġbroad er
Ġste ad
ĠCr isis
Ġlist en
Ġmer ch
ĠPol itical
Ġmet eor
ĠSu ite
Ġmult imedia
iven ess
Ġspecial ist
Ġcred itors
Ġval uable
En ron
Ġvol cano
ĠBro thers
Ġdeep er
fl ation
Ġresol ving
ĠKy i
ĠRel ief
aly mp
Off ice
Ġhy brid
ĠBet ter
ĠWil son
rob at
ĠCent rino
Ġspr inters
Hew itt
Ġbench mark
ĠJagu ars
Ġdeleg ates
Be ijing
Ġmaster mind
Ġbull pen
Ġdispl ays
ĠBR USSELS
Ġarchitect ure
Ġcult ure
Ġrough ly
ĠChild ren
Ġdre ams
Malays ia
ĠBamb ang
Ġstruct ure
Ġsimultane ously
Ġhed ge
Sever al
ĠJint ao
. )
L ay
M ets
N ep
R ich
R oddick
R OME
S ears
f und
o iled
p net
Ġa ver
Ġf rag
Ġp etroleum
ro eder
Ġm ice
Ġm otion
ĠS ave
ĠS CO
ĠS utton
Ġh ub
Ġd uty
ĠC elebrex
ĠA im
ĠM and
ĠM ob
Ġn ov
ĠP ip
ĠP ubl
ĠP ossible
ĠB ash
ĠB argh
Ġg ay
ĠF idel
ĠR ule
ĠR SS
ĠD uring
ch ing
ĠL ocal
ap ing
ĠJ ud
ĠSt ars
Ġsh aky
Ġch at
ĠK os
ĠK yle
ab ies
ĠTh under
ere z
com es
Ġtr uce
ous ing
ĠSh uttle
Ġdef icits
tt awa
Ġ7 9
ĠPl ot
Ġtri o
Ġchief s
Ġgu ys
ĠDe an
Ġcamp us
ĠAg reement
Ġcol lection
Ġmem or
Ġeng aged
Ġban ning
Ġpress ed
att rone
Ġsuccess ive
Ġur ge
ĠEl ena
Un ion
Ar gent
Ġdownlo ading
Ġimprove ments
ĠExp o
ĠSur ge
ĠVo ice
Ġpit ches
CL A
ĠAust in
Ġstun ned
Ġanim al
Ins urgents
ĠTer rell
ĠBoost s
ĠIM F
Ġadvis er
ĠInj ured
Ġarg uments
ĠCD s
ĠSchw ab
ĠQuest ions
Ġfat al
Ġexec s
Ġtrop ical
Ġrestaur ant
ĠKent ucky
Ġjun ior
ĠSilv io
F orm
X BOR
f ast
f rom
u y
v irus
Ġt rem
in z
it ational
Ġc igar
il a
Ġd rought
ĠT ed
ĠT endulkar
ĠM ills
Ġl ie
ĠW ired
ĠW ells
ĠF an
ĠF at
ĠD U
ĠL ay
ĠL ik
ĠE le
ĠO R
ĠO ther
ag ain
Ġpro per
ĠJ un
ĠJ erry
ast ing
ĠK umar
ie va
ep loy
Ġ3 50
ĠSh ip
enc er
Ġpart ial
ement ieva
Ġbo oming
riv ing
Ġsw ift
ley ball
Ġtest imony
Ġstri p
ĠTr ust
Ġresearch er
ĠBut ton
Ġprocess es
ann on
Ġfind ings
Ġca uses
Ġtrans port
ĠRep l
Ġbeh avior
Ex perts
Ġent reprene
Ġport al
Ġqualif y
Ġdisput es
icip al
ĠInter est
Ġconn ected
Ġunc on
Ġread ies
Ġwalk ing
Ġresol ved
ĠMem ory
irac le
Phil ips
Ġteen age
VI ENNA
ĠBern ie
TE HRAN
Ġuns olicited
Ġbehead ing
prof it
Real Networks
ĠSha quille
Ġwelcom es
Ġencoura ge
Ġencoura ged
ĠQue en
Ġenjoy ed
Ġgro cer
Ġexperim ents
Ġscreens aver
dem and
ĠLawsu it
Ġfal se
Ġshrug ged
xy gen
Ġgad gets
ĠSett les
Ġemotion al
Ġreiter ated
B lo
B eckham
C ost
F resh
H uman
L at
M or
P an
T en
e ering
g ages
l ift
m or
p ts
s m
s up
s ign
w ise
Ġt um
Ġs amples
or ry
Ġf old
Ġp ig
Ġto x
ĠS ong
Ġd ug
ĠT ex
ur a
ĠM ol
ĠM aking
Ġn av
ĠB att
ĠB ett
Ġst abil
ĠF e
ĠN i
ĠN BC
ĠU F
ĠG ap
ĠL atham
ĠE mirates
ist le
ĠK at
Ġpr inters
ĠCh ancellor
ob od
ĠV irtual
ĠV onage
Ġout standing
Ġro cks
com merce
ov en
ĠSp yware
ilit ary
ef eated
Ġ8 2
Ch ile
Ġbr ink
Ġsm oke
Ġ20 10
Ġdeb uts
ĠGre g
Ġhalf way
uj a
ĠMot ley
Ġcre ates
Ġlik es
AC K
ĠWe is
ĠSu u
Ġdouble header
Ġtw ist
Ġtour ism
Ġpurch ases
ĠIndust rial
ĠRich ards
Ġprosecut ion
Ġlic enses
Ġrad ar
Ġcirc ulation
rig ley
Ġcle ars
Ġlegisl ative
HE IM
ĠDisc uss
Ġstem ming
ĠRiver a
Ġproceed ings
Ġadj ust
ĠConcer ns
ĠSilver stone
ĠWrit er
ĠEnvironment al
ĠBarb ados
Gun men
Ġrot ation
Ġundis closed
ĠProble ms
Ġspre ading
ĠGri ff
ĠRepresent atives
Ġenth us
Ġwer en
B B
E ast
M ars
M MC
M usharraf
S I
U nder
W enger
c ell
f old
i w
w aves
in cess
in ental
er i
Ġs ch
at ement
at lin
Ġw ish
ĠS EOUL
ĠA k
ĠA er
Ġn om
Ġl ights
ir m
Ġg est
ĠW oes
Ġr ub
ĠR atings
ĠL ifts
ri pt
Ġis ol
Ġy outh
Ġsa ved
all ah
Ġv ig
ĠK uznetsova
ĠK enteris
ard o
Ġoff season
ell ites
ĠCh o
ab i
ĠV oting
tern al
ile ver
Ġen ables
man n
man ned
az ir
Ġdown town
Ġquarter backs
Ġnight mare
ĠAr ts
Ġdo ors
Ġ8 1
ai ro
Ġattack er
Ġpeace ful
Ġev al
ĠDep uty
TH ER
ĠAc robat
ĠSte ven
SE PTEMBER
Ġintrod ucing
Ġmet al
Ġaff ili
Ġspeed s
ĠReal Networks
ĠEc clestone
Ġappro ximately
ĠMS FT
ĠSol utions
ĠTy ler
ĠSant ana
ĠDen ies
Ġdeploy ed
Ġsecret ly
Ġcy bersecurity
Ġrefer ee
Ġawa its
Ġpur ported
ĠDun hill
ĠSum mit
Ġoccup ation
ĠSalv ador
ĠQuest ion
Ġexplo it
ĠInv itational
rie ve
Ġdism ant
ĠCompet ition
bour ne
ĠSus ilo
ĠTow ard
Ġopportun ities
Ġtradem ark
obod an
: -
B us
D olphins
E r
G ates
K n
N apster
O ld
R oman
S ales
V a
W ork
b els
l is
m ath
n ell
p et
s ession
it ure
Ġp riz
ĠS D
ĠS pl
Ġd inos
ĠC OL
ĠT amil
et own
ĠM aker
ĠI A
ĠB uck
ĠB rief
ĠW at
ĠW ord
ĠR alph
un ning
ĠG ateway
ĠL ed
ĠL ic
ĠL uke
Ġas bestos
ĠY ao
Ġse ize
Ġse lection
ie ves
Ġexp ense
ep h
ort ion
Ġ5 9
ough lin
Ġbuy er
AR A
Ġsw im
Ġexpl oration
Ġattack ing
Ġattack ers
Ġleg acy
ĠUN ITED
ĠMc Gr
Ġform ats
Ġemp ire
ĠGr en
Ġdet ention
Ġob st
IA EA
ourn ament
Ġaff airs
Ġspot ted
Ġtour ist
ĠMor ris
ĠVal ent
Ġwa ited
ĠCase y
Ġ80 2
Ġcatch er
ĠCy prus
ĠBet a
Ġele ph
El s
Ġtur f
Ġconserv ation
Ġpolitic ian
ML B
ĠSach s
Ġindef initely
Ġpir ated
ĠSlov ak
ĠMahm oud
rehens ive
ĠLik ud
5 9
F oreign
F ollowing
G C
H ost
H OL
K F
L ow
L ink
T IA
c ite
m ember
n asdaq
Ġt ears
Ġf ed
Ġf ier
Ġw ing
Ġp ose
Ġm ention
Ġh ers
ter dam
ĠA uction
ĠT s
ĠT ry
ĠT reat
ĠT erm
Ġfor get
Ġn one
ĠP ierce
ĠI chiro
Ġg ross
ĠF lex
ĠR os
ver ed
ĠG E
ĠG ators
ĠG anguly
ĠL ibr
ul ators
Ġcon cent
Ġv en
ĠIn n
por ations
Ġsp urred
Ġj oy
ond avi
og rap
Ġtr ick
Ġinc idents
Ġdec isions
In j
app ers
led ge
Ġso le
Ġcar bon
ĠFl ash
Ġhead lines
Ġpoin ted
Ġindust ries
Ġrest art
ĠMan ufacturing
ĠBr ady
AM P
Ġhom eland
Ġinvestig ations
Ġregul ation
Ġclear ly
Ġold est
ĠMo ore
Ph oto
ĠInvest ig
Ġunc overed
ĠCharg ed
Ġread ers
Ġconc ert
Ġsport ing
Sch illing
Ġiniti atives
Not re
ĠWil kins
Ġbarg ain
Ġpra ised
Ġbul let
Pac ers
ĠJoin s
Ġcyc le
ĠCast ro
Ġrecru its
Ġacadem ic
ĠArm strong
ĠKath mandu
Ġeld er
3 4
? "
H ung
K O
L eg
N or
S W
a igning
d ec
i op
p ers
Ġ rom
Ġs ne
at ists
Ġf lee
Ġf leet
Ġb urn
Ġm ild
Ġm inds
Ġd ip
Ġd iver
et o
Ġl aser
Ġg olfer
Ġe g
ĠW ash
ĠF ix
Ġr ings
Ġr anging
ĠR out
ĠH on
ĠH art
ĠH oya
ĠL U
ĠL ycos
ĠL ithuan
ĠO thers
ters on
ĠJ unich
ft ime
Ġex cept
ĠK irk
Ġpr ide
Ġj ack
Ġup held
Ġout fit
ĠPr im
ount y
ood y
ĠSh opping
pl ant
Ġdef in
Ġdown gr
atch ing
Ġwork st
Ġinvest ing
Ġ10 1
Ġ10 3
ath lon
Ġass um
Ġhost ed
Ġ9 5
Ġbomb ers
IS H
Ġtest ified
ĠOff ensive
ĠSe veral
Ġturn around
eng es
ĠGr id
ĠOut put
Ġprom oting
itt al
Ġsk ies
Ġopt ical
Ġball istic
ĠEast man
Ġconv inc
14 7
Ġgener ic
Ġpick ing
Ġdiffer ence
ĠVi enna
ĠStock holm
Ġupgr ading
Pl ay
Ġreview s
Ġisland s
ĠBen itez
Ġbox es
Ġlab el
ĠJeff rey
Ġfix es
Ġide as
Ġstrengt hening
Sw iss
Ġsidel ine
Ġsurprising ly
Ġmarg ins
Ġobtain ed
ĠWeigh s
Ġhurd les
ĠKe ith
Next el
ĠBelt ran
Ġdict ator
Ġextrad ition
Ġconced ed
Ġtact ics
Iv ory
ĠHO USTON
tersh ocks
KF URT
C ambodia
H onda
K odak
M ADRID
O hio
P it
S CO
V EMBER
b at
c ourt
h ans
h ole
l as
t z
Ġ essential
it o
ĠC ircuit
st eps
ĠA y
et ing
Ġl ists
Ġg al
ill es
Ġst uck
ĠF ear
ĠR ober
ĠR upert
ĠU td
ĠL ate
ĠL loy
and y
ĠO vers
ĠSt em
Ġsh ield
Ġsh ocked
Ġsh attered
Ġwh olesale
Ġex ist
Ġpl astic
ug ly
ug ged
Ġwor s
ĠV illa
Ġro of
ant icipated
ex mark
od om
ĠPr ed
Ġres ulted
Ġsc ams
Ġrec alls
ict ing
Ġus eful
US C
Ġdec isive
ĠEurope ans
err ero
Ġunder w
riv al
ĠRed mond
AR S
ech an
ĠJohn ny
ĠAd ams
Ġmin er
cl ays
Ġgr im
ĠPress ure
Ġhard er
Ġhard ly
Ġemb race
Ġloc ation
ĠShar p
Ġintrod uces
ĠDes ign
Ġfre estyle
comp any
Ġgun fire
ĠCons erv
ĠExp and
ĠInvest ments
Ġsqu are
tr ick
OU GH
Ġwebs ites
Ġorganiz ers
Cons umers
Ġinflu ential
ĠMov ie
FO XBOR
Ġrecomm ended
BUR GH
ĠGun men
Ġfort unes
Ġpeacekeep ing
ĠRay mond
Ġtrop hy
ĠFil m
ĠEll ison
MR K
Ġextin ction
Ġnerv ous
Ġorb iting
Ġunanim ously
ĠPH ILADELPHIA
Ġfol ks
A re
A uburn
D oc
F D
I van
K mart
M y
N Z
N etwork
P ress
P IT
T oyota
e uro
h op
l ig
m ont
n esty
t urn
u ous
Ġ ing
on i
ar ation
ar ely
Ġb ump
Ġin str
ĠS oviet
Ġd airy
ĠC rawford
ĠT odd
el i
ac ted
ĠP aper
ĠP oint
ol ved
ĠB it
Ġe at
ĠF ulham
ĠN azi
ĠR over
ĠH ague
ĠL ord
ĠL ah
ĠO scar
rom e
ident ified
Ġab using
av ed
ĠInd epend
ĠSp irit
Ġbl ind
US A
Ġdec iding
Ġsl ain
Ġsl ams
ons ored
Ġgo alk
aun ch
St ud
Ġmed i
ert o
Ġinter vention
Ġair ports
Ġsign aled
ĠAustral ians
ĠPh armaceuticals
Ġeff icient
Ġsub poena
Ġany where
An alysis
lin er
Ġmain stream
ĠGr ace
Ġ13 0
Ġremain der
ĠCr im
Ġdiv isions
Ġloc ations
ĠAugust o
Ġchall enged
Ġel ig
Ġver dict
Ġdeliver ing
Ġpred icts
itness es
sw apping
Ġknow ledge
Ġprob es
Ġstay ing
Ġalong side
Ġwid ened
ĠLabor atories
Ġaud it
Ġrepres ents
ĠUr ban
Ġwind ow
ĠTy rone
ĠCamp bell
oteb ooks
Ġexc ited
OT TAWA
Ġfix ing
ĠSusp ected
stitution al
Ser ena
ĠMatt hew
Sw ed
Ġawa iting
Ġvill agers
Ġmaintain ed
Ab b
ĠBuild ing
ĠAcqu ire
Ġinstit ution
Ġlandsl ide
Ġhurd le
MI AMI
Ant i
Ġcoordin ator
Ġreflect ing
Ġauthent ication
ĠMig uel
Ġdisrup ted
Reds kins
ĠJunich iro
A Y
B US
F S
M us
M ag
N M
P eople
S mart
T I
b sp
d a
f erred
l aw
v ens
Ġt ar
Ġa vert
Ġa wait
or iented
al ia
Ġw rist
Ġw rote
Ġb ounced
ĠS MB
Ġh anging
Ġd uties
ĠC it
ĠA th
ĠM oya
Ġth umb
Ġn bsp
am ents
ĠB ase
ĠB OS
ut u
ĠW ind
ĠR ic
th odox
ĠD er
ĠD ism
ra pping
ĠG mail
ĠH ok
ri ends
ast rop
Ġcomp rehensive
ĠThe o
Ġup per
Ġcl ar
Ġun iverse
Ġun wanted
ens ed
Ġrec onstr
Ġar ray
ĠSp ani
ĠSp encer
Ġsl im
Ġsl iding
IN CE
Ġcons iders
ĠAr royo
Ġso ar
AL CO
Ġformer ly
ĠProf essional
Ġsm ugg
Ġgl oom
Ġra ided
ĠCol o
Ġinf ilt
Ġrest ive
ĠMan ny
ott est
ĠDec ision
ĠResearch ers
Ġform ula
Ġemp ty
ann els
Ġdet ect
Ġanal y
ĠPar ad
Ġtrans action
ĠIslam abad
yn ix
ĠWe apons
Ġwrit ers
Ġtalk ed
NA JAF
ĠMe an
ĠVi acom
ĠEnter prises
Ġview ing
ĠAdv ances
ĠRa ise
reg ular
Ġveter ans
Ġrestruct ure
Ġspect rum
esl iga
Ġovert urn
OC TOBER
ĠInj ury
Tur kish
ĠStud ios
Ġfrust rated
ĠColl ins
Ġinstit utions
ĠLawsu its
ĠRamad an
ĠMarc us
ĠCas ino
ĠContin ue
ĠTrib une
ĠYug oslav
Hit achi
Ġfu els
Ġovershad owed
ĠGuill en
ĠMaur ice
Bert rand
Ġlackl uster
ĠGren ada
0 6
7 9
A c
C redit
F ans
G I
J agu
M ike
R oyal
a ipe
k ara
l ana
z ing
Ġs ample
Ġo cean
Ġw al
Ġw aste
Ġm ood
ĠS MS
Ġh ints
ĠC airo
ĠA FC
ĠT H
ac iers
ĠM d
ĠM ing
Ġn ic
ĠP ra
ĠP ak
ĠP ope
ĠP armalat
Ġl ending
Ġl oud
ĠF ail
Ġr u
ĠN ad
ĠR ou
th ard
ĠG ard
ĠL i
Ġsa bot
ĠJ umps
ĠK ost
if ul
ab lo
Ġse aled
ie v
ĠV ogts
oll ah
ov t
iss an
Ġnot es
Ġdis gr
Ġacc ur
Ġman ip
Ġsl ows
ins ula
Ġmilit iamen
ms terdam
Ġunder going
Ġass ured
ĠMar at
Ġexpl ore
Ġsub mitted
Ġleg it
ES TER
Ġmain land
ĠBar richello
Ġfund ament
ĠHigh bury
ĠPar alymp
Ġcurr encies
ĠSl obodan
ĠDef ends
ona ut
Ġent r
EM C
Ġsn ow
Ġwrit ing
Ġfocus ing
ĠBob cats
oul thard
Ġap artment
ĠLoss es
Ġtechn ique
ĠAre a
Ġinsp ired
ĠStep s
ĠStand ards
ĠRoman ian
Ins urance
ĠNep alese
IE V
ca hn
ĠChile an
ĠHard ie
ĠNeed s
Rec ord
ĠSE ATTLE
ĠMeg awati
ĠCommun ist
Niger ia
Ġspons ors
ĠChamp ion
Dec ember
Ġrestrict ions
EV A
Ġenem y
ĠCop y
Ġhydro gen
Ġliber al
ĠAns ari
Ġhers elf
hans son
aipe i
F ox
H arden
M ic
M IN
Q west
U t
V irus
V ijay
c i
c op
d ated
g les
m ile
p ound
w orks
Ġ _
er ous
on ly
Ġs ociety
is ure
Ġm aj
Ġm ouse
Ġh azard
Ġh ospitals
le cts
ĠC P
et ter
ĠM un
Ġn or
Ġl obby
ill ance
Ġr id
ĠN elson
ĠR en
ĠR ookie
ĠU g
ĠL ands
ak ar
ĠE ases
ks ter
ast ro
ĠSt reak
Ġsh ops
The Deal
Ġse al
ke ley
Ġsec rets
ign ment
Ġar ena
Ġcr ushed
eb ast
Ġhigh way
Ġmilit ias
ĠAl ban
ĠSec ret
Ġrel uct
EL BOUR
Ġfoll owers
Ġhand ing
ĠWar riors
Ġbar red
ĠWh y
opp y
Ġperson nel
ĠRec e
UN D
Ġfire wall
ĠFed Ex
ĠGold man
Ġsing er
Ġconv ince
14 8
Ġquestion ing
Ġsuper computing
Ġcanc el
ĠSur gery
ny se
vet lana
Ġsex ually
ĠMarket ing
Ġtroubl es
ĠBen ef
OU TH
rig ging
ĠImp act
Ġattemp ting
Ġdram atically
Ġrecall ing
Ed itor
Ġlear ning
ĠOv al
Ġextrem ists
Ġsust ain
Ġparticip ate
Ġcru ise
ĠPict ures
ĠBol ton
Ġassess ment
ĠMcN air
Ġgovern ance
Sept ember
ĠHaw ai
ĠLuk oil
Mex ico
Atlant ic
ĠDisput e
Ġconvinc ing
Harden ne
ELBOUR NE
9 2
B en
B ri
C am
C oca
D el
E lection
P re
W O
b itz
i y
i Sign
Ġ ugly
Ġc ited
Ġc af
Ġb urning
as se
ĠS ends
ĠC reat
ĠT oys
ĠM I
ĠM O
ĠM ining
ĠM itsubishi
ĠM ondavi
ĠP ot
Ġl unch
ĠW is
ĠW inn
ĠF ollowing
Ġr ural
est ine
ĠR ing
ĠR ole
ĠR ivals
un a
ĠL ows
ri ati
ian ces
Ġhe ated
end ants
ust y
Ġch icken
Ġcomp ly
und i
ĠK ell
Ġsp are
Ġsp ike
ob ody
ick ed
ke ys
Ġsec tion
ber y
ov ich
Ġcr acked
ey ond
Ġteam ing
Ġsl ipping
ier i
St orm
St ewart
istan i
rac ks
ĠCon v
Ġinter face
Ġdem ol
Ch irac
Ġhost ing
Ġrel ax
Ġ9 00
EN G
EN EVA
ĠWeb S
Ġbat s
ĠApp eals
ret e
Ġcol on
Ġref und
Ġvis a
Ġinvestig ated
ĠQu ick
Ġdet ected
Ġtrans ition
umb ai
Ġob vious
ĠDef icit
Ġclub house
Ġproduct ivity
Iran ian
TS BURGH
Ġappro ached
Ġthough ts
Ġpain killer
Ġdep end
Ġund efeated
Ġlabor atory
Ġrequest ed
ĠAct iv
ĠLook ing
ĠDeath s
ĠPalm One
ĠInf ineon
Ġapolog y
Gu ard
Ġplun ge
Ġshel ves
Ġextrem ely
Ġcollabor ation
ernand o
Sur vey
Ġrestaur ants
ĠRamad i
Ġded icated
ĠCro at
ĠAh med
Elect ronic
ĠMaster Card
ĠThunder bird
5 8
A Z
C ircuit
H z
I ll
J P
K OK
L uc
M in
P oll
P rod
S ummary
b usiness
e u
f ive
i ots
k m
m ode
w ind
z ie
Ġt umble
or ian
or ough
Ġf oul
Ġc oin
Ġp ump
Ġp ocket
Ġto ys
Ġb one
Ġin ev
ĠS enior
ion e
Ġd im
Ġd ipped
ĠA way
ĠT ries
ĠT ournament
ĠM all
ig o
ĠB ud
Ġre porter
ĠW R
Ġst ance
ĠD ementieva
ĠL ink
os ite
Ġcon sequ
ĠJ oy
ia h
Ġex ch
ug abe
ab a
Ġj eop
Ġup s
Ġout going
Ġun manned
ish op
Ġcont ention
Ġkill ings
ĠAn y
Ġfl ies
Ġmed all
Ġair ed
Ġcountry s
Ġrel ent
Ġsm oking
Ġdisc r
Ġclos ure
For ce
Ġenter prises
Ġmar ines
Ġunveil ing
look ing
inc ial
Ġintrod uction
Ġsuff ers
Ġple ase
unt a
ĠRob b
Ġreve aling
Ġcanc elled
Ġvol leyball
Ġweak ened
Ġsepar atists
ten ance
Ġsett ling
augh an
ĠCount ries
ĠRog ers
Ġwind ows
ĠHus kies
ĠSusp ects
ĠOs set
PH ILADELPHIA
Ġhal ftime
ĠConf idence
Sup reme
ĠCent re
Ġarg ument
Ġrevers e
Ġbre ast
Ġfrust ration
Ġrespond ed
iab ility
Ag assi
Ġcongr at
Ġsand wich
ĠBox ing
ĠExec s
Colomb ia
ĠRu ud
ĠIntrod uces
stad t
Ma uresmo
Blo omberg
ĠAth lon
7 2
9 6
B er
B all
B ird
F red
P ORT
b ook
d ig
i had
s earch
Ġ id
Ġa ware
Ġw ages
Ġw edding
as ks
Ġh arsh
Ġd il
ĠM ail
ad ies
ĠP RO
ig gs
am in
am ework
Ġre vel
Ġst amp
Ġst ories
ĠD R
ĠD uke
ĠG errard
Ġpro jected
Ġy uan
Re bels
ment ary
ell ar
ord inary
Ġafter math
Ġcl ashed
ber ger
act ice
Ġcont rolling
ound up
ib illion
Ġhigh lights
Ġsl umped
ier ry
ĠAr g
ĠAr nold
Ġprof ile
ĠAl b
Ġact ing
erm o
IS S
Ġreb uild
ivers ities
ĠZ urich
rem en
ĠDe als
Ġmiss es
ison ed
ific ial
ĠGre y
ES S
Ġhom etown
Ġgr ass
Ġpress ing
Ġbet ting
key es
Sp yware
Ġtrans l
Ġexper ienced
Ġperform ances
Ġjump ing
ĠBay er
ĠFranc o
Ġcontin ent
Ġfact ors
Ġcoun ts
Ġmort gages
ĠExp ects
Ġspe aking
Ġgra bs
Ġautom otive
ĠWi Max
Ġrob ots
Ġdesign er
Ġlab our
ĠMP s
ĠDead line
Ġcoast al
ĠThom son
Shar apova
Ara b
Ġcollect ive
ĠFrank lin
ĠDam on
ĠTerror ism
Ġtrib ute
ĠBroad cast
Ġcommand ers
Sy ria
Ġult imately
Ġsidel ines
PR INCE
ĠMel bourne
Do zens
Ġbreat h
Ġep ic
ĠNic olas
Ever y
ĠClar ke
Ġtun nel
ĠKel ly
ĠHop kins
inid ad
Ġforth coming
Ġmun icipal
ĠUF J
A thlet
D oom
H y
L I
L iber
L eban
N ets
N EC
N CAA
N early
S enior
T X
i ac
l ikely
n orth
o ops
p ace
p ublic
Ġt une
in as
on ting
Ġs ter
Ġs oy
Ġf urn
Ġp apers
Ġp irates
Ġb ot
Ġb ust
Ġb ilateral
Ġm el
ĠS iebel
ĠS ebast
Ġh iding
Ġh idden
Ġd iving
Ġd ogs
Ġd umped
ĠC ivil
ĠC oughlin
om o
ĠT aj
el o
ĠM beki
ers e
ĠW eather
Ġst opping
ĠF ee
Ġr iding
ĠN ine
ĠN amed
ĠR U
ĠG aming
ĠH ay
Ġat roc
ĠO d
ag ne
ri ven
em in
Ġpl agued
Ġch annels
Ġpr est
ab o
Ġsp aces
Ġse quel
Ġout lined
Ġsc andals
Ġdis abled
ĠSh in
ĠSh ui
Ġstr ange
ĠAn kara
ĠLe Bron
Ġsl um
ĠCo ol
onom ic
ĠBl o
ĠBl ade
Ġcap ping
err ing
ĠPl atform
Ġother wise
Ġgrow n
Ġair stri
New castle
Ġ9 3
Ġleft ist
Ġcamp aigning
ĠX M
Ġhand ful
Ġturn overs
aul ts
ĠDec l
mit t
Ġfield s
Ġvo ter
Ġ199 5
Ġprepar ation
Ġprepar ations
Ġarriv ing
Ġpack ages
Ġmon etary
Ġbird ie
ĠExp ect
Ġinitial ly
ALL AS
ĠBer keley
Ġcounter feit
Ġcover ing
Le hman
Ġcommun ities
Ġchar ity
ĠTel stra
ĠTrans portation
Bar celona
ĠRun ning
Brazil ian
Ġbarg aining
Ġconvention al
ĠPass es
Ġevac uate
Ġenh anced
Ġstrengthen ed
Ġneighbor hood
Venezuel a
Ġtemper atures
ĠDh aka
Ġbru ised
Ġmurd ered
ĠBund esliga
Ġnov el
Ġtox ic
Ġgoalk eeper
Bri en
A APL
B ro
B raves
C ubs
E AST
H ot
J im
P ope
P helps
R N
T alks
W H
l ist
m ons
u ve
w ord
Ġ *
Ġt echnolog
es co
Ġs ounds
or ganization
it age
Ġf ulf
Ġw alls
Ġb oot
Ġb urd
Ġm ound
Ġm oons
ĠS C
ĠS M
ĠS ociety
Ġh ref
le v
Ġd iet
id g
ĠA ce
ĠA msterdam
ĠT E
ĠT ight
et ime
ĠM LS
Ġfor um
ĠP rivate
ut rit
ĠW ade
ĠN O
ĠN T
ĠN ord
qu est
ĠG ut
ear t
ĠL ie
ĠL iga
op t
Ġsa fer
ap ix
ĠJ up
um bers
Re ports
Ġcomp ar
iv an
ĠK raft
ab bed
ans om
Ġcl ouds
Ġquot as
rit ical
Ġwin less
Ġcompany s
iss ions
Ġapp ointment
Ġear ns
az en
Ġdef iant
In c
ows ki
Ġdes ire
Ġdes igns
Ġ5 8
Ġreg ister
Ġne ither
ms on
Ġconf ig
ĠCl ash
ĠCl ijsters
Ġunder mine
ĠPal mer
ĠSec ure
Ch rist
Ġbr anches
Ġbank er
ĠAd vert
Ġgl obe
Ġmiss ions
ĠGroup s
sp aper
sp onsored
cl k
Ġbar rier
ĠOr thodox
Ġacqu ires
Ġcor porations
ĠGu ide
inn ish
ĠQu ake
ĠEd ucation
ĠPar c
ĠPol it
Fr ank
ĠSen ator
Ġpubl ishers
Ġseem ingly
Ġden y
Ġblock ing
Ġdam aging
ĠTro jans
Ġground s
Ġmon opoly
Ġcelebr ating
AK LAND
Ġovers ight
Ġcheck point
Ġclimb ing
Ġsil ence
Mc Afee
ĠIm am
Ġcal c
ĠNor odom
ĠTake over
ĠSusp ended
Ġcool ing
Ġcross ing
Ġcommun ication
Ġneighb oring
ĠCam initi
ĠMount ain
Ġthr one
ĠColomb ian
Ġder ail
rob i
Ġadvis ers
Ġadvis ory
Ġbre ach
Ġtim ing
Ġtail back
ĠAff airs
Ġbiot echnology
Ġmand ate
Rog er
Ġbrows ers
Lead ers
respond ent
Ġconcl usion
Ġunderw ent
Mus lim
L AS
M M
M ov
T est
V ivendi
c ount
f ts
m ade
p in
Ġt ips
er ts
Ġf ren
Ġc ov
Ġp od
is a
as ma
Ġm outh
Ġm ax
ĠS H
ĠS QL
Ġh air
Ġh ype
Ġd urable
ou k
st en
ĠA x
ĠA gr
ĠA FP
ur ry
ĠM CI
Ġn ights
Ġn ature
Ġn otebooks
Ġl ig
ĠB Y
ĠB ond
ĠB MW
ĠB remen
th reat
ĠG a
ew are
ĠH ad
ĠH av
ĠH eld
ĠL ear
ĠL ane
ĠL illy
ĠE ase
ag ra
ri ers
Ġhe els
Ġby pass
Ġpl umm
Ġpr int
ud son
Ġsp ur
Ġsp ate
ros o
own ers
esident s
erv es
Ġtr illion
Ġtr uth
Ġapp ly
Ġcr ush
ĠInd o
hes s
Ġsl ips
Ġbu oyed
IN N
tt e
Ġnight cl
Ġreg istr
Ġ10 4
RE D
Ġso il
ĠComm unity
Ġ19 70
Ġbuy back
Ġ8 3
Ġass istance
AR C
AR Y
AR AC
Ġpass ion
Ġcourt room
Ġfound ers
Ġant isp
Ġ11 0
Ġpar am
sp ot
leg es
ĠWest wood
Ġord ering
Ġmain frame
Ġinv ited
eth lis
Ġtrans ist
Ġbattle ground
Ġequ ival
ĠRec all
Ġfur ious
ĠChar lton
Ġlet ting
Mart in
Ġconv in
Ġden ial
Ġben eath
Ġlo oming
Ġaff air
ĠAst ra
Ġdiscuss ed
oper ability
ĠPower Book
ĠMusic match
Ġcrow ds
NE APOLIS
ĠAcc ounting
Ġshoot out
istic ated
Ġart ists
Tr ade
Ġtrain er
Ġresc ued
ĠRele ased
Ġhun ters
ĠJim enez
Ġentire ly
Ġcy cl
Ġdiscl ose
ĠBern ard
Ġcontrib uted
Ġreject ing
Ġbell w
Ġdi agn
ĠConcer n
Ken zie
third s
Ġescal ating
Ġfinger print
Ġsteal ing
ĠBosn ia
Ġtel escope
ĠJen kins
ĠTem ple
Ġsurr ender
Ġsear ched
Ġsubstant ial
ĠPortug al
ĠMedic are
ĠJos eph
Ġborrow ing
del ayed
ĠHist ory
Bry ant
umin um
ĠGriff in
A IG
C ity
E Y
H K
P il
P ackers
S C
c al
s er
u erto
in ations
es ars
or o
en ko
Ġf ishing
Ġp oured
Ġin ex
Ġin coming
Ġm useum
ĠS ame
ĠC ay
ĠC aps
ĠA ung
et a
Ġn ice
Ġl ender
Ġl augh
am as
ĠB U
Ġre aff
ut ri
Ġe Server
ill on
ĠW eeks
Ġst ole
ĠF ujitsu
Ġr aced
im an
ĠR io
ĠD ur
ĠD ays
ĠD eep
qu er
ĠG ener
ĠL ara
Ġsa il
Ġpl ate
ĠK al
if er
Ġj ur
Ġj aw
ĠV in
ĠV ie
Ġun identified
Ġres orts
ĠUn ions
Ġsc ar
Ġsc aled
iz ar
Ġnot orious
Ġdis ag
Ġapp et
Ġcr ater
Ġann ually
Ġret ains
cent ury
ĠLe ading
ĠRe ve
Ġcap ability
Ġ10 2
Ġconf usion
ĠWorld wide
Ġso ars
ĠRes ume
ax y
Ġsu its
Ġexecut ed
eed s
Ġdeb ts
ĠOn ce
Ġhold er
Ġbar rage
ĠWall ace
Ġmod ified
Ġsmall est
Ġpat tern
by e
alk ing
Ġtrans actions
Ġouts k
ĠPart ner
set ting
Ġactiv ated
Ġcapt ive
Ġmult ibillion
Ġsn apped
Ġcoll ision
Ġdiscuss ion
Ġspe aks
Ġbad ly
ĠRock et
yc ling
ĠWork ing
ĠBomb ardier
Ġdistrib ute
ĠSuper computer
ĠMilit ant
cel and
ĠStar bucks
ĠTele kom
TER DAM
ĠAv oid
ĠIN D
ĠIN Q
Ġinsp ector
Ġcas inos
Ġadop tion
ĠDon ovan
ĠJim my
Ġrall ies
Sch w
Ġnarrow ly
Ġelimin ated
Ġdi ox
Ġrelie ved
ĠSchw arzenegger
Ġir regular
Ġchem icals
Ġrequire ments
Ġhur ting
Ġconsolid ation
Job less
Ġguarant ee
ĠAuss ie
Ġresident ial
Ġling ering
ĠCore y
Adv anced
ĠFI FA
Hait i
ĠVac cine
ĠTex ans
Bus ch
HOL M
Ġelder ly
Ġdefin itive
ĠParc ells
0 1
8 1
A uss
B ob
F RAN
H oll
I mp
J ones
J ordan
L ock
M IL
M illions
M edia
S ky
c ol
e on
f ers
i ago
m i
m un
m ans
p ose
w id
Ġt ying
Ġo xygen
Ġc od
Ġw oo
Ġb reed
as ia
ĠS O
ĠS asser
ĠS vetlana
Ġh all
ĠC ape
ĠA MS
ĠT ar
ĠM ur
ĠM iddlesbrough
Ġn ick
Ġn ose
ĠP ace
ĠB order
ĠB HP
ĠW er
ĠW rigley
Ġst ats
ĠF L
ĠF le
ĠN ame
ĠR ey
th ree
ĠD E
ĠD al
ĠD ennis
ĠG rows
ĠIn it
end ment
ĠSt age
iv o
ĠThe se
Ġk it
ach ov
ov ic
Ġtr ades
Ġcr ushing
enc hed
Ġph arm
ult ure
ne ft
ĠCl ass
ĠAl coa
Ġprov incial
enn ifer
ĠOpen ing
Ġdeb ates
be k
ĠMan agers
Ġrev amp
Ġspec ification
ĠBr ent
ĠBr ight
Ġred eploy
ann a
ĠSw eep
ĠServ ers
IC K
ĠRec ords
Ġissu ing
Ġperform ed
Bl og
Ġstat istics
Ġmid st
Ġdefeat s
Col ts
Ġsat ellites
Mac romedia
Ġview ers
ĠExp ansion
Ġappro aches
Ġfront ier
yc le
ĠGo ing
ĠSuper Sonics
Ġconfl icts
Ġfun ctions
Ġvac ation
Ġcollect ed
Ġdies el
ĠVis it
Ġknock ing
Cont inental
ĠStud io
Ġobtain ing
Te am
charg e
Ġoutl aw
ARL OT
Ġargu ing
Ġembarrass ing
ĠAuss ies
ĠBE ACH
Ġkidn ey
Ġmicropro cessor
Ġanticip ation
ĠSU V
ĠTob acco
Ġalb um
Mos cow
Argent ina
Ġsch ol
dig it
ethlis berger
Ġoutsk irts
B EA
D odgers
I F
J eff
L B
L ate
M D
M itsubishi
O pp
P anel
P rosecut
R w
R ain
T aking
V ID
X M
e i
k ers
k ok
p ark
r ence
v on
Ġs outheastern
or i
or ter
ar o
it ched
at ar
Ġw ary
Ġp hen
Ġm echan
ay ev
ĠS on
ĠS osa
Ġh ails
Ġh ottest
Ġd ivers
ĠC rown
ĠC ambodia
ĠT enn
ĠT ung
el ig
el ines
ĠB P
ĠB udget
ĠW orm
ĠW orks
ĠR AM
ĠU CLA
ĠG B
ch ild
ĠH ur
ĠO t
ag ent
ap les
ee f
Ġsh y
ĠK rispy
Ġsp ree
Ġsp rint
Ġover he
Ġcl us
Ġsec uring
Ġro utes
ĠSh er
ĠCor porate
Ġatt ended
pl ane
ix ar
ital i
Ġdown ward
Ġpart ly
aun ted
ĠBl ues
St art
ath ai
Ġbro thers
Ġtra v
Ġsm ashed
Ġsusp icious
Ġsub mit
ĠKore ans
Ġrest ate
sp ec
ĠBr un
TO CK
ĠBut t
ĠOr bitz
Ġdirect ories
ĠMc D
Ġrece ives
ĠQu alcomm
ĠQu attrone
ĠDis app
ĠAc ross
Ġmar ched
ĠSl ide
Ġlist ing
Ġreac ted
Ġfield er
Ġnegoti ator
Ġple as
Ġmat ched
On ce
Ġrej oin
comp et
Ġtravel ing
ĠMos que
NY S
Ġmag ic
Ġsouth western
aut hor
Fed s
Car l
ĠKing dom
Ġcatch ing
Ġextra ordinary
ĠRel iance
ĠAust rian
Ġamb ush
Ġathlet ics
ĠVict ims
Ġaccep ts
Ġaccep ting
ĠMarsh all
ĠConf irms
ĠRand olph
Ġachie ved
Ġlap tops
ĠRetail ers
ĠSerb ia
Ġmodest ly
ĠDet ails
Ġgenet ically
Ġroads ide
Tor onto
ĠKidnapp ed
Ġsoph isticated
Ġprinc ip
ĠAlbert a
Ġgreet ed
Ġtouc hed
Bang ladesh
Ġsurve illance
ĠCoal ition
Ġce iling
Ġsubst ance
Steel ers
Ġdu o
Ġunders c
Ġatroc ities
Ġequival ent
Ġconvin ced
ĠAMS TERDAM
0 2
D isc
L M
R ocket
V iolence
W R
c ash
d in
d ep
e ast
f ix
f irst
g ia
g reen
m ajor
m eg
on ium
Ġc overed
Ġc rystal
Ġw icket
re ated
Ġb urned
Ġm all
Ġh acker
om y
ur u
ur ches
Ġth ick
Ġn an
ĠP age
ĠP ier
ĠP ushes
Ġl uck
Ġl ashed
ol ly
ĠB ids
ĠB eyond
ĠW orth
Ġst om
ĠF ro
ĠN egoti
ĠD ual
ĠU ran
ĠL am
ĠO ttawa
ri k
ess el
Ġsa ves
ft y
Ġag g
ip er
Ġj u
ĠFr esh
ĠV ander
uc ci
ide press
ant on
ant ly
ĠUn c
ĠIraq BAGHDAD
row th
Ġad vent
Ġapp s
pl an
Qu alcomm
Ġdes er
Ġcount y
ĠCo operation
ĠBl unkett
Ġprof essor
Ġunder lying
Ġrem inder
AL T
Ġbr ut
Ġdevelop s
Ġprot ected
Ġcent uries
Ġ... \\
Ġnum erous
Ġviol ation
Ġmain tenance
uj ols
Ġmer c
Ġob sc
Ġpriv at
ĠMa athai
ĠKill ing
Ġlo oms
Ġbird ies
ĠShe ikh
ĠPay ton
Ġovers ee
ĠDeb uts
ĠDev ils
Ġread er
Ġconc rete
Ġindic ating
Ġspark ing
ĠChall enges
Ġindex es
Ġjud gment
Ser ies
ĠBern hard
ĠSim on
Ed wards
ĠDS L
ĠLiber ation
Ġreject ion
Ġattorney s
Ear ly
ĠSold ier
ĠOpt ions
Ġaggress ively
ĠMour ning
Ġdispl aced
Ġcru ised
Ġrobot ic
ĠMcN abb
Ġdrag ged
Afr ica
Ġinnov ation
ĠDoub les
ĠSach in
ĠWhe at
Philipp ine
ynam ic
ĠGer hard
USTR AL
ĠArk ansas
ĠNev ada
ĠExecut ives
ĠHend rick
Ġgest ure
ĠSlovak ia
ĠBOS TON
Ġinev itable
achov ia
TOCK HOLM
6 2
B ern
B HP
C amp
J ames
K azaa
M ount
M ys
P ost
P art
R avens
S erv
S unday
T D
V ik
h at
n ote
w yn
Ġt ipped
er ating
ar ms
Ġf ares
Ġm eat
Ġd angers
ou ver
ĠC R
ĠC hel
ĠC oulthard
st ellation
ĠT all
ĠT ext
ĠT ask
et ic
ĠM akers
ĠM add
ĠM ylan
Ġfor ge
am med
Ġre organization
ĠW ang
ĠW MC
Ġst if
Ġst ated
ĠF oster
ĠN ash
ĠR ash
ĠR BI
ĠR osen
ĠU P
Ġcom merce
Ġy ellow
ĠJ osh
Ġv eto
ast on
Ġsh ower
Ġex ception
Ġch apter
Ġpr ayers
Ġj unta
are a
Ġup ro
Ġro uters
ĠPr incess
ber ry
Ġdis e
ush ita
ĠSh ift
Ġbl ows
Ġwar rant
az io
Ġsl alom
ph y
Ġbu ff
Ġme g
St and
St orage
ĠAf ghans
ĠCl oser
Ġbr ill
Ġ9 7
CO U
Ġpar ade
urg ent
uck ed
ene uve
ĠHe avy
ĠWh ere
Ġche ese
ats ushita
lo ads
Ġemp has
ĠQu in
Ġdri ft
ĠSl ight
Ġengine ered
Ġsk in
ĠGl obe
EM ENT
Ġel bow
Ġrequ iring
Ġcapt ivity
Ġgeneral ly
CH ESTER
Ġsuper b
Ġeuro zone
Ġwithdraw ing
Ġchips et
ĠMal one
Ġcomplet es
Ġautom atic
Ġautom atically
Ġdecl aration
Ġadvert is
Co ach
Tr ump
Ġroom s
MP AA
ĠIm ages
OT BALL
ĠMem bers
Ġpers istent
ĠFour th
Ġscr utiny
Ġhear ings
Ġvar iant
Phil adelphia
Sudan ese
Ġorgan isation
Ġcast ing
ĠJordan ian
ĠVis a
ĠId ent
ĠTurn er
Ġimpl ant
Ġintens ified
dem ocracy
Per u
Ġpet ition
Ġmeth od
Ġtyp es
ASE BALL
ĠSoon ers
uls ion
ĠOper ating
Ġtoss ed
friend ly
Ġmour ning
ĠSpec ies
perform ance
Ġax e
ĠDoes n
Ġunle ashed
ĠHispan o
Dream Works
ĠMys kina
sec ond
Ġdeg ree
Chen ey
Ġevacu ated
Ġsabot age
Ġrelent less
0 3
9 00
A ust
A BC
B est
D IS
F il
G as
J ason
M our
M ELBOURNE
S B
S chool
W omen
b u
f ew
g art
g ens
h ab
l a
l i
m is
p ol
t es
u ese
Ġt ired
in art
Ġs ister
Ġf illing
Ġw et
Ġb ans
Ġb ars
Ġm isc
Ġm amm
ĠS ainsbury
Ġh abit
id ges
ĠC ink
ĠA wa
ent ry
ĠM uch
ĠM ini
ĠP os
ĠI Pod
ĠI SP
ĠB O
ĠB in
ĠB ra
Ġre un
Ġg ig
Ġe ating
ĠW ol
ĠF ails
ĠF ifth
ĠN otebook
im a
ĠD ubai
ly n
Ġan xious
op her
Ġcon cept
ap han
ell ini
ab out
ĠTh ierry
old s
ail able
og h
ich ick
Ġcont ender
Ġrec ruit
Ġfin ances
Ġtr ends
anc ouver
ĠSh oot
ĠCom ing
Ġstr essed
Ġbl own
Ġbl itz
Ġbl aming
gr ams
Ġcons ulting
ĠEn t
Ġpre fer
ĠPl ays
rac es
ĠCl eric
ĠAl most
co hol
ool worth
Ġbr anded
Ġdevelop ments
Ġreb ell
Ġext reme
Ġprot otype
ĠSc iences
uk es
Ġpar ach
Ġhold ers
ES BURG
Ġkey board
lin ary
Ġacqu itted
Ġref us
Ġref uses
ĠTe ams
Ġhist or
ĠGr ant
ĠMay be
ĠEd ges
cy cle
ĠRec alls
ĠHam za
ĠSch roeder
ĠCont e
Ġfeat ured
que z
ĠJe ter
urch ase
Ġ199 7
Ġfact ions
Ġfe ud
Sc ot
Ġ22 5
Ġgener ated
ĠEarth qu
ĠCap riati
Ġgra ve
ĠLaw yers
Ġautom akers
Ġtight en
kn app
ĠHen in
Pl us
Pl ayers
Sec ure
Pro f
Ġdep th
Man ning
Ġexc iting
ĠHot mail
aks in
te am
ĠMy er
ĠThan ou
Ġcitiz en
Ġassoci ated
Ġult ra
Ġspr inter
Ġdeadl ock
Ġrevers ing
Ġris en
ĠGra ham
ĠPet e
IAN APOLIS
ĠAppl ications
Ġep id
Ġaccel erate
Ġpal m
Ġinnov ative
Cub a
Cub e
Ġyield s
ĠPA UL
Ġbrac ed
Ġenhance ments
Ġmot iv
Inf ineon
Chief s
Ġconfront ation
Ġcommod ity
Ġinnoc ent
ĠUlt ra
ograp her
Ġtar iffs
MIN NEAPOLIS
Ġmedall ist
apix el
Ġcov eted
7 4
B arry
D en
D isk
H ard
K rispy
M G
M arket
R yan
S old
S QL
e lected
h r
h ow
h ave
m ap
o ided
p age
r ington
t il
t ake
z am
Ġt ense
Ġt aste
Ġs ounded
Ġs essions
at ter
Ġf iber
al og
Ġp ile
Ġb ite
ro t
Ġm ale
ĠA IM
ĠM om
Ġth ousand
ĠP icks
ĠP ensions
ĠP ocket
ol ese
ĠB ear
ĠB ald
Ġg ifts
Ġg otten
ĠH an
ĠH ike
ĠO x
ĠO mn
ri etary
oc ated
ĠSt un
ĠSt one
Ġsh oes
Ġag ed
ell i
ĠCh am
Ġse gment
ĠV iol
Ġout right
Ġun iversities
Ġro ver
Ġro ots
ĠIraq The
act ic
Ġrec laim
ov ed
iss ue
ade i
Ġapp rec
ven ge
AN COU
ĠRe ject
ef a
Ġrecord ers
Ġcap s
app an
ĠAir line
Ġins isting
ĠAl f
ĠJo hansson
ĠRuss ians
ĠComm on
ĠMar wan
ĠMar iano
Ġtra ins
ik o
Ġ9 8
Th om
Ġgl imp
uel ing
An alysts
leg raph
ĠBr ing
Ġconsum ption
Ġav oided
ĠDar ren
Ġtrans portation
Ġed uc
Ġmar ried
As s
of ts
ĠTest ing
ĠShar ply
ĠPost al
ĠPer form
ĠDel ayed
Ar my
ĠDown load
aud io
Ġdownlo aded
rich aphan
Ġcomb ine
Ġgener ate
ĠAT LANTA
Ġcelebr ates
ĠKen yan
iplom ats
Ġappar el
Ġunc lear
ĠLabor atory
Ġcounter parts
Cl ar
Ġlay offs
icult ure
ĠMem orial
ĠCost a
Ġprevent ing
Ġindic ates
ĠCam bridge
Ġdemonstr ation
ĠCell ular
ĠProp os
ĠSk ype
Ġsy mp
Ġrevers ed
Ġclinch ing
Cor p
Ġpet rol
ĠOper ations
OH N
utt gart
Ġinform ed
Ġimmig rants
ĠRut an
Ġtort ure
Kidnapp ers
Ġyoun ger
ĠBash ir
cop ic
ĠAstra Zeneca
din and
oolworth s
ANCOU VER
Ġglimp se
; :
A USTRAL
D r
D ev
G RE
I I
I chiro
L og
L ocal
M ayer
R ap
R adio
R umsfeld
T M
T ake
c ious
i ors
i ency
j ax
l ash
n ame
s a
s ecurity
u ana
Ġt aps
on ight
it ement
al band
Ġto uts
Ġb out
Ġb ury
is ition
ic les
ic ator
Ġm ln
Ġd ire
ĠC L
ĠC row
om ore
ĠT ell
ĠM ine
ĠM inisters
Ġl ung
ol o
ĠI l
ĠB al
ĠB ou
ĠB ALCO
Ġre eling
Ġg ases
ut ure
ĠF ein
ĠR ent
ĠD ist
ĠD ue
ĠD iffer
ĠD IE
ĠG em
ĠH eath
ĠH IV
ĠH oneywell
ear lier
ĠL osing
ĠL owers
ĠE p
ĠE ADS
ag an
op ening
ate ver
Ġle aked
ĠSt el
Ġal ter
ĠTh or
Ġup ward
Ġcl utch
ĠV ick
ond er
ĠSh ane
ĠCom ments
AN GH
ron ts
pr ice
Ġind ict
Ġ10 6
ĠAl a
Ġinter ior
Ġfinal ized
Ġsw eat
Ġdisc s
EN D
Ġexpl an
ĠOpen er
ĠBr ings
TO WN
ĠMc Afee
Ġposs ession
lim ited
ĠQ atar
Ġbuild s
ĠEd g
ĠPlay off
ĠCr ashes
ett a
Com cast
ĠPost p
Bl ock
Ġpoll ing
Pr ice
eg u
Ġple ading
Ġport ion
Ġqualif iers
ĠTO WN
Ġrep eal
ĠArab ic
Ġpos ed
Ġhapp ens
Ġprop erties
Ġtight ened
ĠAcc used
Ġgen es
MP UR
ĠIm age
Ġmis leading
Ġdelay ing
Ġaddress es
Ġscr am
Ġscr amb
Ġcopyright ed
Bar adei
hit ter
ĠProp erty
Ġspir its
ĠBron x
Ġrout ine
Ġcommand ing
Ġult imate
Ġsurround ed
De utsche
Ġcontest ed
Ġrecogn ition
ĠWild life
ĠBrad ley
Ġweigh ing
Ġtyp ical
Ġtank er
Ġmedic ines
Ġfled gling
Ġlegend ary
Retail ers
Ġconstitution al
Ġrecommend ations
Tw ins
Ġargu ed
Ġnomin ee
HAR TO
Tele com
ĠHung ary
Ġimmig ration
Ġprinc iple
Ġwrap s
NAS CAR
ĠBaker ies
Celt ic
Ġfest ival
Ġabrupt ly
Ġwarl ord
Nep al
Lat est
ĠLU MPUR
eli hood
ĠJup iter
azen ove
ARLOT TE
ĠTung sten
alband ian
8 4
A X
B ears
H is
L ions
N C
N TT
S em
T al
V an
b ag
e ign
l og
p at
s oftware
s tered
t ra
v ian
Ġs lee
Ġs aga
or a
or b
or ted
en h
en o
at ra
ing ers
Ġp enn
Ġin mates
Ġm iracle
ĠS port
Ġh o
ĠC elebr
ĠC rystal
ĠM ason
ĠM acedon
ec om
ĠP ujols
Ġl in
Ġl obb
Ġl iable
ot ions
Ġg earing
ĠW a
ĠF O
ĠF ine
ĠF eat
Ġr ust
Ġr if
ĠN av
ĠN issan
im illion
ĠR h
ĠR oc
ĠD ale
ĠD anger
ĠG ogh
ĠH ands
ĠH udson
ear y
ĠL umber
ĠE cl
Ġv ow
end ered
Re v
Ġpr inter
ĠY ield
ĠY ellow
ĠTh ose
ĠTh aksin
arg et
ĠV eer
Ġout lets
over eign
Ġres ource
ON A
Ġcont enders
Ġdis order
ict ions
ort on
Ġus age
Ġar bitration
Ġear liest
ĠIntern al
Ġret iring
ix on
pr iced
ah o
Ġ10 7
ĠRes p
Ġtal e
Ġam azing
Ġinter ven
Ġunder standing
rov ed
ax o
Ġpass words
ĠTr inidad
ĠComp uters
Ġstud ying
Ġfirm ly
ĠTe legraph
ij uana
ĠAc adem
Ġmar ine
Ġcrit ically
Ġequ ipped
Ġpolic eman
Wh ere
Ġsum m
Ġmid size
ĠFranc is
Ġrequ ires
Ġpres erve
Ġ199 2
ĠRob son
Ġrep ay
ĠMiss es
Ġfocus es
FT C
Ġwithdraw s
ĠInter fax
uff led
ĠJob less
HP Q
Ġlink ing
Ġprop rietary
Comp anies
Ġupgr aded
Ġwid th
Ġtight ening
Ġtem p
NN N
Ġpain ful
Ġocc asion
ĠTele communications
Ġcrim inals
ĠUr ge
con f
Ġcreat or
Ġdismiss es
Ġrepresent ative
Ġathlet e
Ġapproach ing
edd ed
ĠTrans port
Ġseed s
ĠRem ains
ĠVol vo
Ġremov ing
North west
ĠHer itage
Palm Source
ĠAthlet ic
Ġbull ish
ĠFut ures
ĠRef ug
Ġflo at
ĠPeters burg
ĠHarr ison
Ġdiss ident
Ġod d
ĠLuc ent
Ġfrequ ency
ĠKidnapp ers
Ġbiot ech
Ġflex ible
Ġlength y
Ġafford able
Bur ma
ĠKurd ish
ĠCustom ers
sted t
abr era
Ġentreprene ur
ĠSpl it
ĠLithuan ia
ĠWebS phere
ĠOsset ia
Ġlig ament
Ġnightcl ub
Ġappet ite
ĠUran ium
Ġrefus al
Block buster
HARTO UM
9 3
9 4
B ASEBALL
D ep
D etroit
E v
G aza
I OC
N ations
P istons
Q tr
R esc
T IS
W ave
X inh
a he
f ired
i ap
r as
s b
t ains
u its
w as
Ġt urb
Ġs ad
Ġs lew
or g
Ġf oes
Ġp osing
Ġb og
Ġb ets
Ġb uses
Ġb earing
Ġm ines
ĠS urg
Ġh ug
ĠC arm
ĠC OM
ĠC SK
ĠA venue
ent h
ac ters
ĠM ugabe
Ġth igh
ĠP erez
ĠP uerto
Ġl ots
ig l
am er
ĠB EA
ĠB enson
ĠB LOOMFIELD
Ġr he
Ġr ent
Ġr ubble
Ġr ansom
ĠN OT
th ur
ĠD RAM
ĠU AL
ĠE DS
ri or
em aker
op ular
ia z
Ġch art
ĠK er
ell a
Ġk een
Ġsp arks
ĠY emen
se x
Ġcl er
ĠV aughan
port ant
Ġrec ip
ov ina
anc he
Ġad mitting
ĠSh aring
man agement
Ġim aging
Qu est
ĠPro bes
Ġserv es
Ġcons p
ubl ed
Ġdown hill
ier ra
ĠCo ors
Ġunder st
AL ORE
Ġpoin ting
ĠCol gate
Ġfound ed
ĠBe head
Ġany way
ĠAss am
ĠAb use
ĠWar ne
AM E
Ġmem ories
eng agement
ĠBar rett
Ġmar red
ĠCr ack
ĠCong olese
ĠBill y
ĠSu icide
Ph one
ĠRo ethlisberger
Ġpos es
ĠCanadian s
IP EI
ĠMe ets
MC I
pro t
ĠForm at
iar ies
idel ines
ĠAL CS
Ġfoot age
uan et
Ġthr illing
Gold wyn
PM G
ĠBur undi
Ġassass inated
Ġfort ified
Ġarg ue
Ġencoura ging
omet imes
AG UE
Ġconduct ing
Law yers
Ġ/ &
Ġaffect ing
Gre ece
Ġmeth ods
Ġmig ration
NO VEMBER
Ec onomy
Aut om
Ġdiscip linary
ĠMoham mad
Ġfunction ality
ierre z
Ġdress ed
ĠHa as
ĠPav ano
ĠLarg e
Ġgri ev
ĠNag pur
ĠEth iop
Ġisol ated
THER FORD
ĠLibr ary
PIT TSBURGH
Ġconsequ ences
Ġexch anges
ĠRU THERFORD
Ġbellw ether
wid th
Ġstom ach
Ġdise ases
ANGH AI
Xinh uanet
6 8
7 50
9 7
B ee
B rowns
D ELL
E le
J AN
K o
O per
O AKLAND
P enn
R y
S om
S ab
S ince
T ass
V ict
d ed
d ale
f our
g ary
g roup
i ov
j ust
m od
s erve
Ġt ub
Ġt ally
Ġt reas
Ġt apped
it ated
Ġf er
Ġf ence
Ġc ul
Ġp a
ic ian
ĠS ide
ĠS elling
Ġd ump
ĠA SE
et e
ur se
ĠM it
ec oming
ig ue
ĠB on
ir ation
Ġre ly
Ġre vered
ut onium
ill ar
ĠW oman
Ġst ored
ĠF ull
ĠF inals
Ġr ack
Ġr av
ĠN ortheastern
ĠN umbers
ĠD ept
ĠD ETROIT
ĠU BS
ĠG oods
ĠH um
ĠH unt
ĠH AGUE
ag os
ri ott
op utri
Ġcon stant
ĠIn vent
Re view
Ġex ternal
Ġch ains
AP E
ĠK IEV
Ġag ric
Ġk id
are va
ark o
Ġexp osed
Ġte a
Ġdis ruption
ĠCom es
ĠPro cess
az ed
Ġcount ies
els en
Ġmed ics
Ġunder min
Ġunder ground
Ġnear ing
ĠFl ights
ĠFor ward
ĠSer gio
Ch arg
enn ium
ĠOff ering
ĠAss ault
Ġmem o
ann stedt
hold er
ĠQ west
ĠBar n
ĠNov ak
uj ah
Ġappl ied
ĠOver ture
Ġdiv ide
Ġwound s
Ġdr inking
ĠPer fect
Ġwatch ers
utch ison
Ġmult imillion
ille tte
Ġpred ecess
CA IRO
ĠMe as
Ġcompl iance
Ġdecl are
Ġdistrib uting
ĠWal ter
ĠSo ars
Con f
arn oputri
Co ke
ĠUr ged
ĠSant iago
ĠGet ting
Ġhel m
Ġsurf ers
ĠGeorg ian
Ġshr inking
ĠThom pson
UM BAI
Ġele v
Ġcat astrop
Ġder by
ĠWalk man
Ġpredict ing
ĠMet eor
Ġstret ched
Ġwond ering
ĠQue bec
Ġexam ine
Ste ve
ĠFil ip
prod ucing
Ġsoph omore
claim ed
ĠBosn ian
Ġtor r
Ġintr ud
ĠPrep ares
Ġsen ator
Ġhammer ed
Ġarr ang
Ġprovision al
ĠFel ix
Rad cliffe
ela ide
UAIR Q
ĠFat ah
Ġrub ber
Kn icks
TIA GO
ĠSpani ard
ĠHawai i
Ġsoy bean
Ġprest igious
Ġpod ium
sb c
3 20
B AN
C endant
D own
D ead
D oping
F ast
F ort
F NM
G reat
H ackers
H urricanes
M ONTREAL
N BC
N avy
O s
P FE
Q ue
R IAA
V ote
W i
W ell
b old
d rive
e ur
j ay
v al
w icket
Ġt ag
Ġt one
Ġs ore
Ġs tern
ar ia
Ġc ites
Ġp ause
ic ians
as ch
Ġm ull
ĠS uk
ĠS aint
ĠS richaphan
Ġd ance
ou f
id al
id ation
ĠC urr
ĠC ALI
ĠA R
ĠM ight
ĠM aj
ĠM ead
ĠM aterial
ĠM umbai
Ġth orough
ĠP as
ĠP ulls
ig en
ol ed
ĠI cahn
Ġg t
ĠF ernando
est rian
im o
th al
ĠD O
ĠU l
ĠG erm
ĠG onz
ĠG atlin
ch o
ĠH ub
ĠH ernandez
ĠL ars
ĠE C
Ġas teroid
ĠO re
ag ate
em ble
em bers
Ġcon vert
ap t
ĠJ ail
ĠJ avier
ĠJ ennifer
Ġv ent
Ġsh ark
Ġsh uts
Ġqu ant
ĠK night
ard ed
Ġsp ell
ip her
ĠY esterday
ĠY ang
ĠFr es
ĠV EG
ĠV eter
ĠV itali
uc er
Ġun author
og ether
ect ions
Ġrec on
hn uts
Ġad mit
arter ed
Ġinc hes
Ġor ange
ang led
US E
Ġdec ides
ĠRe porter
ĠRe ader
Ġsup rem
ĠEx perts
Ġsur plus
St ri
app er
Ġrun ners
AT CH
Ġair waves
Ġbo ards
Ġrel ative
Th ird
Th ough
Ġsm ile
Ġsw ung
Ġtest ify
ract ion
Ġsub d
str ata
Ġ11 3
An n
ĠWith in
red ible
Ġbel ief
ĠOr der
Ġfail ures
ĠSup pl
Ġban ner
ĠGu errero
ĠQu its
Ġinv itation
Sp itzer
ĠNot ting
Ġevery where
Ex pos
ĠFin ish
Ġdr unk
Ġ199 4
Ġpitch ers
Ġsug ar
IR A
Ġlo ad
Ġlo aded
ĠMac int
ĠCle mson
Ġrally ing
ĠAnn ika
han ouk
Ġval ues
Ġprotest ing
ĠVi agra
ĠMor ning
ĠTaiwan ese
Ġcontent ious
oura v
Net flix
Ġchar acters
ĠHom es
ĠMess age
Afghan istan
ĠPalm Source
Ġbarg ains
Ġsucceed ed
Ġten ure
Ġelimin ating
Hol iday
ĠDun can
And re
Ġtrigger ing
De velop
Che ck
ĠGov t
Ġswitch ing
Ham m
Ġimplement ation
abe u
Ġcolumn ist
Ġbug s
ĠAmb ani
Ġsalv age
Ġenem ies
ĠStrate gy
Ġproced ure
Ġscen es
ĠAntar ctic
Ġspecif ically
epsi Co
ĠBargh outi
Ġelig ible
Ill inois
ĠBroadcast ing
Ġburd en
ĠGut ierrez
ĠAgr iculture
Ġregistr ation
Ġantisp am
Ġparam ilitary
izar re
Holl inger
ĠEcl ipse
iap arra
ĠCSK A
ĠVEG AS
" .
6 1
9 8
B ased
C ards
H armony
I ts
K I
K ansas
L ess
M UMBAI
N ine
N orthern
S istani
T EL
W in
b ane
b uild
c ro
d oor
l an
s qu
in ct
in stein
Ġs ed
Ġs ack
en os
en ary
Ġf el
Ġc ous
ing e
al one
Ġto uted
Ġb oo
ĠS iege
ĠC ities
ĠA ch
ĠA round
ĠT an
ĠT aking
ĠM ade
Ġn obody
Ġl ies
Ġl aps
ĠI ce
Ġre act
Ġg ymnast
Ġst aging
im m
ĠD rives
ew s
ĠL ance
Ġas h
Ġpro hib
Ġhe fty
um man
our g
Ġsh ipment
Ġpl asma
Ġch asing
Ġcomp act
ĠK rist
Ġk m
Ġal ien
Ġsp rained
Ġse as
Ġse izing
se at
ub ar
Ġup start
ĠV ar
ome ters
Ġro ared
ant ile
od a
Ġint im
Ġte achers
ĠSp r
ang o
ĠAn il
ĠLe inart
Ġsl aying
Ġdef enses
Ġdef inition
Ġcons oles
Ġcons ensus
ĠAr med
ĠAr bitration
ĠWorld Com
RE VIEW
ĠCl ark
ĠCl oses
Ġinter cept
Ġinter operability
Ġtri pled
ĠFl ood
Ġhead scar
Ch ampions
AR M
Ġtra ff
med ia
ĠUp set
ĠSouth west
ĠComp uting
uk a
sp oken
ĠBank north
eng ine
Sh aring
Ġcor ps
ĠMc Kenzie
Ġpress ures
ĠGr umman
Ind ustry
Ġshort ages
Ġlit er
Ġbroad en
ĠRec ording
Ġple ased
Ġdomin ating
comp uters
Ġbenef ited
ĠEgypt ians
che ll
che ck
Ġavoid ing
Ġautom ated
Pl an
Ġcho ices
ĠMarket Watch
Ġinterview s
Ġlay er
Ġtack les
VER TIS
ĠEngine ering
ĠSusp ect
heim er
ĠVict or
ĠLank an
ĠHom er
Ġmount ains
ĠRem ain
Star bucks
ĠBern abeu
Kore an
BUR N
ĠBas ra
ĠLeg isl
ĠForec asts
ĠColumb us
met a
Ġbul k
Ġevac uation
Virgin ia
ĠMcC ain
Ġmus c
Law makers
Ġfrequ ent
Sat urday
Ġcompat ible
Ġcrop s
do ing
Ġaf tershocks
ĠFlaw s
cor p
ĠSerge i
ĠResc ue
ĠEmploy ees
ĠValent ino
Ġdiver ted
FOXBOR OUGH
ĠDism iss
ĠParad orn
Ġmaj ors
Ġcaf es
ĠKell ogg
eu ver
ĠWer der
von areva
ĠQuin cy
Scot land
ĠDIE GO
ĠHeath row
ĠMacint osh
0 9
5 50
B ox
D uring
D oes
E mp
G ENEVA
J ac
K UALA
M ary
N J
P rem
P rivate
S O
S iebel
S now
V EL
Y asser
Y anks
b uilding
h ome
i el
j i
k ick
l s
m u
s k
s el
x on
z er
Ġt ags
in ces
Ġf ool
Ġc raz
Ġp ct
Ġto pping
Ġb ones
Ġb uck
is ys
ic as
Ġm ounted
ĠS in
ĠS ector
Ġh ills
Ġh overed
Ġd ying
Ġd irty
ou b
om ar
ĠA D
ĠT racy
ĠT otal
ĠT aipei
ĠM ADRID
Ġth er
ad ic
Ġn ep
Ġn urs
Ġl ined
Ġl enders
ig e
ĠB urt
ut ral
Ġe ases
ĠW ounds
ĠW GC
ĠF ly
ĠF ALLUJA
Ġr and
Ġr iver
ĠN ed
ĠN umber
ĠR an
ĠR ud
ĠU C
ĠG amb
ĠL one
ĠE asy
ĠO sw
ri ver
ld ogs
ĠJ erm
ĠJ azeera
Ġde pos
um ing
Ġqu ad
Ġwh istle
Ġsp an
Ġj ol
Ġj ew
ĠV e
Ġac ts
Ġquot a
ke le
Ġro uted
Ġint act
og en
urs ion
ov es
Ġtr uly
anc ier
Ġinc hed
ib et
Ġatt ached
ĠCom mercial
Ġ7 3
Ġmarket place
ĠAir es
Ġam ounts
ĠCon ocoPhillips
Ġinter ference
Ġsign aling
riv ers
Ġprov es
Ġact or
ĠMar io
Ġ9 1
Ġthem e
Ġgl itches
ĠZ arqawi
Ġpower house
down s
ĠSc r
ĠSc andal
Ġfall out
Ġrev amped
ĠBr u
ĠCar ly
Ġche ered
Ġref use
Ġord inary
Ġlow ers
idd ing
Ġdet ail
Sp eed
Ġnational s
Ġed ging
Ġur ban
ID JAN
Ġsk i
AC KS
ĠAm ateur
Ġmedal ist
inc ome
iron ments
ĠRo h
Sc ott
ĠTra ffic
Ġdiscuss ing
ĠBel ichick
Ġcheck ing
Ġboss es
ux emb
ET F
cep ts
ĠBry an
ĠBA Y
Ġcross ed
Ġpurs uing
Ġprem ature
Ġmiddle ware
Ġdiscl osure
oom s
Ġvill ages
Ġlog ic
Mich igan
ĠVis its
Ġcondem ns
ebr aska
ĠId aho
ĠArrest s
Ġvide os
ĠCanc els
Ġspons ored
Ġrevolution ary
ĠMerc antile
Ġconfirm ation
Ġdisarm ament
ĠSpe ech
ĠIncre ases
Long horn
Ġbrew er
Ġgad get
ĠHung arian
ĠDom ain
Ġbroadc aster
ĠLock heed
ĠMichel le
Ġsear ches
Geor gia
Ġendors ed
Ġsimpl ify
Ġinspect ors
Ġembry onic
ĠHim al
Susp ected
Ġsac rif
Ġfrag ile
ĠPip eline
mor ning
Ball mer
ĠAdvert ising
ĠCay man
ĠOt ellini
Ġbrill iant
ĠSlight ly
ĠVeer appan
ĠAcadem y
igl ione
VERTIS EMENT
uxemb ourg
. :
7 6
= =
B i
C ore
D ETROIT
E K
F F
H oping
J ackson
J PM
L U
L en
M ult
M ER
N ob
N OR
T it
T iVo
V R
V S
W EST
b ul
b one
f ront
h uman
i ques
in to
Ġs wo
Ġf right
Ġf umble
Ġf oiled
Ġb asket
as uri
Ġm aid
il ant
ĠS und
ĠS ourav
Ġd ating
ĠC ert
ĠC abrera
st ock
ĠT ack
ĠT ire
ĠM atsushita
Ġth ieves
ol ve
ol ive
ĠB ooks
ĠN ature
ĠD ate
ĠD ubl
ĠD odge
ĠG ross
ĠG irl
ĠL AN
ak i
igh ters
ri ble
Ġle ase
ĠSt at
ĠCh ance
ab ling
ab eth
Ġj it
are z
ub er
Ġcl uster
Ġout post
Ġsec tors
ĠPr int
ber to
Ġfin ishes
ov ation
Ġad ult
ull ivan
Ġdis pos
Ġapp oint
Ġatt ending
Ġstr ict
ind h
ĠAn field
ĠLe isure
Ġback ers
inis hed
pr ints
Ġrecord er
urr ing
ath ers
ĠAir craft
RE N
RE CT
ĠCl ara
Ġstart up
Ġrem ind
ĠJo ey
ER T
alif ax
ĠOp era
ĠFor bes
Ch ild
ched uled
ai robi
Th ailand
Ġgl itch
ĠApp ro
BA Y
Ġpe ers
ĠCol es
Ġsell er
ĠSc he
ĠSc ores
Ġrest oring
ĠBank ing
ĠWill is
ĠCalif orn
uck er
For get
Ġche st
10 5
Ġcontract ors
Sh are
IT H
Ġopp osing
ĠBar roso
Ġappl iance
Ġstar ters
Ġbeh alf
ĠiPod s
ĠSu ff
ĠSu its
ĠTur in
Ġannounce ments
Ġmult ic
Ġqualif ied
14 0
Ġsuggest ions
ĠBack man
rovers y
ĠBro ker
Ġmag net
ST ER
Ġcomplet ion
ĠLaw rence
Ġcompl ained
Ġdecl aring
Ġaud itors
ĠGo osen
ĠSo ar
CS CO
Ġpoor est
ĠRam allah
Mc N
Ġbook ed
ĠHit achi
Ġindic ate
Am id
Ġlands cape
ĠMag azine
Ġdemonstr ators
Ġhon ored
Ġorgan ized
Ġsmart phone
Ġbol stered
ĠII I
Ġdestro ying
MAN CHESTER
LAND O
Ġpip elines
ĠAcqu ires
bar rel
ĠKar l
IV ES
ĠFerr ero
ĠAppl ication
Ġbreat hing
Ġprec ious
ĠDefeat s
Ġpound ing
ĠDoug hnuts
Hen man
Ġeager ly
ĠCre ate
ĠPortug uese
Pe ace
Ġpayroll s
Ġsuburb an
ĠBah amas
Vol kswagen
Vi acom
ĠFact ory
ĠNA JAF
azir istan
Ġworkst ations
Jagu ar
Ut ah
Luc ent
Athlet ics
Ġmax imum
Vik ings
ĠNotting ham
Ġnep hew
9 1
C lin
D F
G N
G ordon
G artner
H are
L ed
M innesota
P ent
P ut
R IN
T een
T imes
T igers
c ould
d rop
e a
f ight
p oints
r ison
u ador
v chenko
y e
Ġt ension
es y
Ġs ink
or ate
ar rows
at ollah
Ġf end
Ġw ip
Ġp ed
Ġp iv
Ġp aving
as an
Ġm art
Ġm ile
Ġm ath
Ġm elt
ĠC ow
ac ew
Ġfor ests
Ġn asty
ĠP ear
ĠP ain
ĠP atch
Ġl os
ĠI C
ĠI OC
ĠB ody
ĠB ode
ĠB omber
ĠW ent
ĠW ait
ĠW aziristan
Ġst ub
ĠF C
ĠN ich
ĠN atural
ĠN albandian
ĠR ico
ĠD rag
ĠU nd
ĠG ol
ĠH ind
ĠH ots
ĠH alt
ĠH ynix
ĠL exmark
ak ota
em n
op al
ĠJ ess
ĠJ iang
ĠIn flation
ĠSt uttgart
ist ant
Ġk icker
ĠTh abo
Ġout ages
over ing
Ġexp ires
Ġab used
ors es
ĠMon aco
Ġrec re
ov entry
mp h
Ġtr aces
aw atra
ous es
ĠSh ah
ib les
ĠAn alysts
Ġret ires
Ġdec re
ĠEx porting
Ġind ication
ins ent
Ġph il
aun ting
ĠCo aches
St ore
Ġdeal The
ĠCl ashes
Ġinter ception
Ġair plane
Ġbo at
ĠFl or
Ġno on
Ġsw apping
Ġdisc ounts
Ġreb uff
ĠZ vonareva
Ġsusp ensions
pos es
Ġput t
Ġdrug maker
Ġmin imum
Ġrev ived
Ġrev ival
ĠGre ene
elf are
ĠBu ick
ĠBu ying
ĠGr ay
ĠBar clays
IC AN
Ġshort fall
Ġprom oted
Ġtrans plant
Ġsol o
ĠGl enn
ĠBig gest
ĠPat terson
News wire
ĠDel iver
Ġappear ing
Ph ishing
Ġmult ip
Ġden ying
Ġlo ose
Ġsuppl iers
Ġsuper star
Ġpack ing
Ġenv ironments
ĠGreen berg
Ġwant ing
Ġcanc els
ĠTor re
egr ity
ĠCap sule
ĠAnt itrust
Ġsouth west
ĠBang kok
Ġcirc um
ĠExt ra
ĠExt ension
Ġexc ell
ĠReg gie
Ġprevent ed
Ġsubscri ber
ĠFree ze
Le ading
Look ing
Ġshift ing
Ġhon our
Vo IP
Ġsteel maker
ĠBur ma
ĠLib yan
Ġrac ial
Ġrac ism
Ġsy nd
born e
Ġfort une
Palm olive
wh ich
ĠAcqu isition
Ġrecogn ize
ĠSpam mers
Ġign ored
Ġrat ified
Ġremember ed
ANA HEIM
Gen esis
ANN ESBURG
ĠDomin ican
Ġdesper ately
Ġvolunt ary
Ġrum ors
elect ric
Dem ocr
OH ANNESBURG
ĠPDA s
Ġrepeated ly
Ġkidn ap
ĠSi hanouk
ĠRetire ment
Ġpunish ment
Broad band
ĠHil ton
Ġaccompl ish
ĠWid ens
ĠHealthDay News
ĠIA EA
Ġfundament al
Ġreluct ant
Ġcoin c
ĠSebast ien
Ġspaces hip
utrit ion
count ry
ĠMur phy
Ġepid emic
ĠAch illes
" /&
A round
B P
C op
D Net
F ood
F inal
F ighting
H AL
J u
M ake
M inister
M att
M iller
M ARK
O ur
P ak
S UN
U krainian
V en
W ay
W ild
X T
b omb
d riven
f iger
g or
g ence
m ain
p ots
r anging
t ele
Ġa lt
Ġs id
Ġs inks
or ig
or ous
ed ges
Ġo uter
Ġc ry
Ġc opper
Ġw alks
re ported
Ġb atch
Ġb other
is ks
is ley
ic om
ro ads
ĠS outheastern
Ġd ates
Ġd inner
ou g
id t
ĠA ere
ĠT ells
et able
Ġfor ay
ĠP riv
ĠP ole
ĠP oints
Ġl av
ĠI V
ot hes
ĠB re
ĠB eck
Ġg a
ut ter
ut to
ĠW W
ĠF T
Ġr attled
ĠN ike
ĠN vidia
im on
th rop
ra fts
qu alif
ĠG O
ĠG illette
ch rist
ew hat
ĠH ousing
ul tery
and ro
op en
Ġpro c
Ġhe ir
ast asia
ĠIn quiry
Ġle an
ĠK end
ĠK umble
ell ers
Ġsp inning
ĠV ent
ĠV iz
ĠV ancouver
ile y
ire c
ON E
Ġcont ing
Ġcont am
Ġcont acts
Ġnot ed
ĠSp y
ced es
Ġfl urry
IN A
air ed
ĠEn h
Ġdown grade
ĠAr rington
ĠCo ke
ĠCon stitution
ĠJo han
ĠPal estine
ING S
Ġoper ates
ĠComm and
Ġ8 7
Ġimp ending
Ġtra ined
ĠAd ministr
ĠAd mits
ĠAd elaide
ĠZ h
ĠApp ar
Ġtele cast
ĠUp s
ĠUp sets
ĠDe Lay
Ġdeb ris
An cient
Ġshould n
ĠWar ren
Ġkey note
ĠPC I
ĠBo ise
Ġrece ivers
ĠQu it
Ġfund ed
Ġmight y
ĠSte ady
Ġsol ved
Ġpolitical ly
ĠRec overy
ĠCr ime
Ġloc ated
ern ic
ift y
Iraq is
itz ki
Ġsem is
Ġrepl aces
Ar ctic
Ġinfl ated
Ġ199 1
press ed
Ġmat ters
ĠCle ars
bit r
30 1
ĠInter state
Ġtreat ments
Ġshoot s
Ġdeep ly
Ġlic ensed
Ġsil ent
Air line
Fed Ex
ĠSaf eway
Ġwat ches
Ġclass ified
ĠMotors ports
Ġpromp t
Eng lish
Ġhear ts
Ġbur ial
Ġbroadcast ing
ĠEv ans
Ġnarrow ed
FO OTBALL
Just ice
Ġterrit ories
FOR T
aby te
Ġapolog ized
Ġaltern atives
ĠQue ens
Ġcur se
Ġexplo its
ĠAdd ress
ĠHand held
ĠOb serv
Ġexcl us
ĠPa isley
ikh ail
Ġdism al
ĠTD s
Ġheight ened
Ġramp ant
Ġadministr ator
Ġobject ions
ĠContin ental
Ġgall on
ĠSpot light
Us ers
found er
ĠSug gest
Ġbeaut y
Ġdelight ed
Saf in
eoples oft
Ġmerch and
ĠKat ie
ĠRichards on
Ġreconstr uction
ĠCopy right
astro us
ĠShin awatra
ĠFle ming
ĠThor pe
Ġexplan ation
Ġpenn ant
cro ft
5 6
A ud
B ad
B BC
F und
G DT
J ury
K im
M en
M iddle
Q antas
R ight
R oy
R IA
S F
S OUTH
V oting
W estern
d ates
h ar
k ed
k il
p ack
p eople
p ective
r c
s z
w ealth
y ou
Ġt earing
in ema
er ial
Ġs rc
at ics
Ġf ading
Ġc ere
Ġw ood
Ġb unch
Ġm ere
Ġm ental
ĠS AS
Ġh inted
ĠC ox
ĠC alled
st ill
ĠA ge
ĠM inn
ec ided
ĠP un
ĠP ick
ĠP ound
ĠP onting
ĠI ron
ĠB oss
ĠW end
ĠW els
Ġst ing
Ġst ellar
ow een
est ing
im g
ĠR IAA
ĠD or
ĠD akota
ĠU efa
ĠG ay
ĠH K
ĠL akes
ĠL uxembourg
ul pe
and ra
em ma
ĠJ ol
Ġhe ats
um a
ĠSt ory
Ġsh ifts
Ġcomp iled
if w
Ġal arm
Ġsp ying
ĠY us
Ġres ulting
ach o
OR GE
orm one
ĠSh aun
Ġstr anded
ĠPro cessor
Ġdef raud
ĠEx it
ĠEn ters
ah a
Ġdown s
Ġsur ges
Ġ10 8
app ointed
Ġrun off
ĠBrit ons
ĠAl leged
Ġcomm issions
AL M
ĠMar ks
Ġlat ely
Ġnow here
Ġproduc es
Ġ11 4
ys sey
Ġrev olt
enter ia
ES LAN
Ġadv ancing
EC D
EC EMBER
Ġvis ible
Sh ort
Ġdirect ed
Ġhom eless
Ġenter tain
Ġmain tains
ĠSw ift
Ġ13 5
Ġnational ly
Ġcell phones
ric ted
ential s
for ced
Ġtelev ised
ĠFin ley
ĠWin ner
AD VERTISEMENT
Ġsaf egu
151 450
tor ic
ĠCons iders
Ġfraud ulent
Ġgener ator
Ġow es
Ġappeal ing
200 301
pan el
Ġpri est
ĠCan as
iller y
ĠBomb ing
Ġcho osing
ĠVal uable
Sec retary
Ġcrash ing
Ġflaw ed
Ġmurder ing
Ġtack ling
Gl azer
Ġsurf aced
Ġsurpr ises
Ġshr imp
All awi
oph os
Ġhor izon
Ġhor ror
Ġteen agers
Ġband it
Ġband width
Ġdevast ation
Ġabs ent
Ġking dom
PR Newswire
Che chen
Ġenjoy ing
iab et
ambod ian
Ġparticip ants
Ġrat ification
ĠTool bar
ĠWood ward
Ġaccel erated
ĠHospital ity
Ever ton
ĠLaur a
Ġbow ler
Ġincent ive
Ġguarant eed
Sk ype
Ġtend on
person ic
ĠPop ular
ĠBert i
Ġhousehold s
Ġunh appy
ANS AS
Geor ge
onz o
Ġforg otten
Ġinspect ions
ĠFer dinand
Ġsquee ze
Celt ics
Ġkil ometers
Ġreop en
ĠFun ai
IND IANAPOLIS
ĠBudd hist
ropri ate
Ġstockp iles
Rich ard
ĠMob il
Form ula
Ġcigar ette
Ġeval u
Ġpurported ly
Ġdinos aur
ĠGard ner
Ġfurn iture
ĠBlo omberg
ĠTE HRAN
Opp osition
Ġbrut al
Ry der
ĠSuk arnoputri
Len ovo
indh oven
Clin ton
ulpe pper
200301 151450
A O
B ol
C N
C ash
D ALLAS
F ar
G ra
K obe
L abor
M ad
N vidia
P edro
S pr
S outhern
T er
T rib
W are
d i
g irl
l ayer
p iece
s ee
s ub
s ome
s burg
u ware
er b
on et
Ġs ew
Ġs overeign
en za
en abled
Ġc hess
Ġw is
Ġb ags
Ġm ate
Ġm ask
ĠS ims
Ġd ent
ĠC NET
ĠA lp
ĠA mit
ĠT X
ĠM ist
ĠM ull
ĠP R
ĠP orn
ĠP ixar
Ġl od
ĠB and
ĠB ail
ĠB ucks
ir ut
us en
ĠN y
ĠN athan
ĠR ange
ĠR ouse
ver ines
ĠD est
ĠD ips
ĠD illon
ĠG ill
ĠH o
ĠL azio
os ex
em p
em ex
Ġpro ud
Ġch ant
iv ision
Ġal uminum
Ġcl ick
Ġun limited
ex pl
ĠPr actice
av or
Ġcont ained
Ġcont rad
Ġen rich
ade qu
her n
Ġbl ames
Ġbl ogs
hes ter
ise um
ĠLe vel
Ġsl apped
Ġdef initely
Ġdes erved
Ġquarter final
Ġreg ret
Ġ10 5
St rug
Ġec ho
urr ay
Ġdo omed
Ġair liners
ĠPh on
EN RN
Ġgl aciers
Ġsusp ends
raw ling
ĠCol on
Ġrest ored
put ed
leg al
ĠNational s
ĠSan jay
Ġvis ual
eng u
Ġfac ts
Ġgr illed
Ġconcer ning
ĠEar ns
Ġopp ose
Ġopp osite
Ġlower ing
ĠBu enos
Ġsever ely
IC ANN
br en
Ġlit igation
Ġbreak away
ĠBy rd
Ġlik elihood
Ġmatch ing
Ġmer ely
IL A
for mer
Ġsk ip
ĠWin ning
Fr ances
Ġent it
Ġball park
Ġhot ly
Al most
Ġsing led
On ly
ĠNext Wave
IR UT
ĠAnn ounce
Ġtourn aments
Ġcelebr ity
Ġimprov es
ĠWi Fi
Ġcompl icated
Ġmeas uring
Ġart illery
ĠDev ice
ĠGo al
idel ity
Ġkick off
Air lines
Ġrad iation
ĠRel ations
ĠCam era
itiz ens
Ġdoubt ful
Ġfr ame
ĠJac ob
ĠCA RE
ĠCal gary
Ġclean ing
ĠMid way
ae ologists
Ġfit ting
ĠLo eb
ĠJam mu
antas y
Ġir re
Ġmil k
Ġprim arily
ĠEff ort
ĠEff orts
IRO BI
Ġadap t
ĠCa esars
ĠPS V
Ġexceed ed
Ġoutl ooks
ĠDoc tors
Sol aris
Ġadministr ators
ĠMonth s
ĠBrand on
ĠPhot os
Ġwrest ling
Fall ujah
Mil osevic
Ġcooper ate
BANG KOK
ĠProsecut ors
ĠKa hn
Ġdowngr aded
Ġinstitution al
Ġmel ting
ĠAce h
ĠIndo ors
fix ing
Ġscramb led
ubar ak
ENRN Q
2 10
7 1
7 3
B u
C AL
C ustom
C LE
D aimlerChrysler
F ew
J ack
M id
M ON
N otebook
O f
P ark
P rize
R aid
T ax
W ELL
Y oung
l ock
p rop
x ist
er ro
es ity
ar er
Ġf ert
re ams
Ġp ink
Ġb ree
Ġb izarre
ic ity
ĠS ound
Ġh ires
ĠT echn
ĠT ouch
el est
ur st
ĠM ikhail
Ġl aud
Ġl angu
am al
ĠB art
ĠB ER
ĠB akar
Ġre wards
Ġg ates
ut en
ĠF ees
ĠR isks
ĠG ear
ĠH ans
ĠH oping
ĠL ion
ĠE L
ĠE indhoven
ri y
em ed
em pl
ess im
Ġcom a
ĠJ oint
ĠJ AKARTA
Ġhe ars
Ġle agues
Ġle thal
Ġpl utonium
ĠK ee
ĠK iev
Ġpr inting
ĠTh ough
Ġse als
tern ative
od o
ĠPr eseason
ĠMon itor
ĠUn til
Ġcont ains
iz abeth
ĠInc ome
Ġlast ing
Ġatt itude
ext ra
ĠSp arks
eat ing
ĠAn sw
Ġret ained
Ġret reated
ĠRe ed
az quez
Ġsl ashing
IN TER
ons o
ne z
ĠAl ive
ĠAl ert
Ġtal ented
ĠCon c
ĠMar riott
enn ial
Ġrel iable
ĠAd elphia
Ġdisc ont
Ġgl ance
Ġstri fe
ĠCol iseum
Ġpass age
oth ers
let ter
cl usive
Ġkey s
oods hed
Ġhom ecoming
ann es
Ġ14 4
ĠDem ands
Ġtrans mission
ĠNot es
esc rib
go al
Ġfuel ing
Ġmid day
raph ic
Ġlet ters
ĠRob in
CH ARLOTTE
ĠCle an
ĠCle ment
Col gate
rovers ial
Ġcomb ines
Ġrisk y
ĠInter active
Ġvol umes
ĠMor occo
Ġbody gu
ĠCap tain
Ġview ed
Ġprop elled
Ġpri x
ny der
Ġcheck ed
Ġcritic ised
ĠSol id
Ġreview ing
Ġnorth west
ĠVal ue
Ġart ificial
Ġguard ed
Ġwitness ed
Ġrequest s
Ġneighb ors
ĠDevelop er
Ver itas
Ġinflu enza
Ġfr amework
ĠEv idence
Ġnarrow er
ĠMid west
Ġcontrib utions
ĠAuthor ities
Ġcur few
ĠWild cats
Ġdetermin ation
Ġpion eering
omet ric
SH IP
ĠApprov al
ĠOb asan
ĠBuc keyes
Ġcult ural
ram jet
Ġpal ace
Ġrail way
ARL INGTON
ĠOwn ers
ĠSab an
ĠMill ennium
Ġsurpass ed
ĠIntegr ation
Ow en
COR RECT
Ġproper ly
Ġenthus i
Work ers
Ġeg gs
Ġroof s
eart hed
Ġfren zy
ĠVie ira
Ġschol ars
ahe e
ĠMit chell
ĠHimal ayan
Ġmaid en
Ġga uge
ĠAdministr ator
4 30
8 50
A id
A RE
B oth
D eb
D aven
F amily
F uture
H el
K D
L a
M el
M eg
O klahoma
R am
R ising
R ookie
T ravel
W ood
W PP
d ers
f ighting
n m
p illar
r us
r ates
s ite
u art
w ick
Ġ \\
Ġt ee
Ġt asks
in x
or p
or ge
ar an
at ican
Ġf oe
Ġc ens
Ġm ir
ĠS olution
Ġd ry
Ġd umping
ĠC ause
ĠC ANA
st ances
ĠA jax
el le
ĠM uk
ĠM eth
ĠM ONTREAL
ol itan
ĠI gn
am an
am ine
am ford
ĠB ed
Ġg ate
Ġg ovt
ĠW annstedt
ĠF acing
ĠN E
ĠN asa
ĠR are
ĠR ush
ĠR esidents
ĠD anish
ra ising
ĠG ad
ĠG od
ĠG erry
ch i
ĠH os
ĠH ires
ĠH alifax
ĠL ap
ĠL ack
ĠL ama
Ġbe aches
ain ted
ĠSt al
Ġsh oe
ĠK iw
Ġsp oof
ĠY an
Ġse qu
are house
ans k
Ġun armed
Ġres emb
port ivo
Ġte ens
Ġtr icks
anc er
ade ga
Ġdis asters
ock ets
Ġar senal
ind ustry
uss ion
Ġdec ept
Ġdef ect
Ġfl own
ons ter
air es
Ġme ga
ĠAr rives
ĠCo ff
under ing
Ġtop ics
Ġmed ley
Ġam ateur
Ġinter active
Ġunder dog
Ġair lift
ĠFl oods
lud es
Ġprov inces
ĠPh ys
ĠRed knapp
Ġbr isk
Ġexpl ains
Ġexpl icit
Ġany more
ĠWill ie
ater pillar
AM STER
Sh oppers
ĠGu y
Ġsever ance
ĠAng lo
ĠHigh s
Ġsuccess ion
Ġtax p
ĠSte vens
Ġfore ver
Ġste ering
Ġcre am
Ġwhe el
Ġforec asters
GH T
Ġemploy ed
Ġloc usts
Ġmer gers
ID C
Ex t
Ġless on
LE D
GO P
Ġel imination
ĠChe mical
Ġter rif
12 0
Ġstrate gies
IM E
Ġsom ewhat
ĠAN D
ĠBomb ings
Pl aying
Ġnorth western
South west
13 5
Pol ish
Ġdesc ribe
ĠTy son
Ġmis ery
Ġdismiss al
ĠReg ion
VER AL
ĠStart ing
Ġscr ambling
atab ases
HO O
Ġjud icial
Ġabd uct
Ġconfident ial
ĠMy Doom
And y
ĠHear ts
Ġresum ing
Ġimpress ed
Ġattract ive
ĠMah al
bor g
ĠPad raig
ĠGe off
Ġmus ical
ĠGarc iaparra
ĠFav or
ĠJer ome
Ġconver ted
ĠAB UJA
ĠBul ldogs
ĠWake field
Tw enty
Ġbow ling
Ġrig ged
ĠVill eneuve
Ġhij ack
Ġsatisf action
ĠAh mad
Char les
Venezuel an
ĠRound up
de velop
ĠBow den
Ġdisappear ed
COL UM
Ġsquee zed
Ġkil omet
Sant ander
Ġembry os
Ġbund le
Ġdeliber ately
Ġeth ics
ĠCandid ates
Ġanonym ous
Ġancest or
Ġgrocer y
ĠBatt les
ĠMcGr ady
Inj ured
ĠWilkins on
Hung ary
Abb as
ĠHok ies
ĠMean while
ĠParalymp ic
Ġentr ance
Ġcycl ist
Ġreaff irmed
Ġjur ors
Ġdiox ide
Lock heed
ĠRAM ALLAH
ĠWang ari
ĠShoot out
Ġunauthor ized
VEL AND
irec TV
ĠObasan jo
Daven port
AMSTER DAM
? \\
C are
F light
G U
J Boss
K y
K evin
L G
L ib
M aking
R em
R oss
T ra
T arget
V A
W izards
c ritical
e o
h on
h ana
j ave
k el
r anking
s ky
u um
u ine
Ġt arn
Ġs way
Ġs orry
or ca
ed own
ed ition
at ami
Ġf erry
Ġf amed
Ġc ook
Ġw elfare
Ġp ac
Ġp umm
Ġto ler
Ġin fo
ĠS elig
Ġh ill
le ague
Ġd ash
ĠC E
ent e
ĠT at
ĠT ie
ĠT onight
Ġon sl
ur k
ĠM yst
ĠM illions
ĠM urder
Ġth ank
ĠP ros
ĠP osition
ĠP owers
ĠB ent
ĠB rain
ut tering
ĠW ire
Ġst ark
ĠD id
ĠD og
ĠD atabase
ĠG av
ĠG ran
ĠG ymnastics
ĠH ide
ĠL E
ĠE N
ĠE ach
ĠE AS
ĠE DT
ĠO ur
ap y
Ġsh aken
Ġqu e
Ġex ha
Ġch ronic
ist ol
Ġoff ences
ine es
Ġwas hed
Ġal cohol
ip lex
ĠV ision
out ing
Ġout p
Ġun ited
Ġsec t
Ġint ensive
ass es
Ġres ur
ov ing
Ġnot iced
ade a
Ġdis astrous
ĠSh ips
ĠCom pl
Ġbl owing
ĠRe adies
Ġsl ice
Ġfl ows
Ġcons ulate
ĠEx ports
ĠAr lington
Ġ7 50
pt ions
cess ors
use gun
Ġmed ication
Ġrem atch
rug u
Ġ19 18
Ġtro un
Th anks
Ġext ensive
Ġleader board
Ġaut onomy
ĠUp dates
ĠBe irut
par ed
amil iar
ĠAfr icans
Ġretail ing
ĠCar ling
ĠWh it
Ġviol ate
hold ing
ĠQu alif
ĠQu inn
Ind ians
Ġsent ences
ĠEd ward
ĠMot o
Ġed ges
Ġpropos ing
Ġregul ate
Ġresp ected
Ġemploy er
Ġemb edded
ĠSl ows
Ġlist ings
Ġlist ening
ĠSy l
Ġfire works
ĠFin ally
Ġconfir ming
Ġmid way
Ġel usive
Ġvo iced
ĠDes ert
Ġfact ion
ĠSu SE
Ġcapt uring
Ġconsider ation
Ġsn aps
Ġ23 0
ĠTra ining
Ġfav ored
mar ks
Ġident ifying
ĠPlan es
Af ghans
ĠTech s
ĠProt ect
200 5
Ġrow ing
ĠAcc uses
Ġmeas ured
dog an
Ġpain ting
ĠMass u
tr ading
ĠGrow ing
Ġvac c
Ġap iece
Ġmis steps
ĠKn ow
ĠKh atami
ĠBell South
Business Week
Sch umacher
Ġabd uction
ĠPoll s
terror ist
Ġdescrib es
Ġpur poses
Ġcat alog
Ġcontrib ution
Ġcontrib ute
Ġachie vement
Ġinstall ation
Ġresum es
FI FA
ĠPen insula
ĠLyn n
Ġworry ing
icken ham
Ġnorm ally
Ġtim etable
ĠPartners hip
Fin ancial
ĠOl usegun
Ġweigh s
cap able
RAM ALLAH
ĠClimb s
ĠBelt re
Ġpoison ing
cr ime
Im m
Ġhang s
ĠPo ised
Ġextin ct
Islam abad
Sir ius
Ro oney
ĠEmer gency
Ġfault y
Ġtouc hes
ĠGam ble
Ġcommod ities
Ġhung ry
Ġcateg ory
Ġstead ily
ĠPubl isher
again st
Ġnav ig
Ġnom ination
Ġaffili ate
ĠBuck ingham
ĠAy atollah
ĠCrim inal
ĠRou ge
Ġdemol ition
Ġtechnolog ical
Rw anda
ĠButt iglione
Carl os
Ġrebell ion
ĠPerform ance
enh ancing
Mary land
Ġlos ers
Ju ventus
Ven us
Ġmerchand ise
adequ ate
Strug gling
CORRECT ED
Ġonsl aught
! \\
6 50
B osn
C reat
H ead
I RE
J on
M GM
S ven
T ennessee
V C
c all
c lear
e Bay
f n
f orth
f ought
f lying
h al
i ya
m O
r ise
s oft
s aving
s igned
s ki
w atch
er ates
er able
Ġs oot
Ġs outheast
al ke
Ġw ings
Ġp ave
Ġp inch
Ġb abies
ro at
Ġm ulls
ĠS K
ĠS hel
ĠS inn
ĠS iber
ĠS teroid
Ġh av
Ġd orm
Ġd uel
Ġd azz
ĠC urb
ĠC endant
ĠA le
ĠT old
et tle
ac cept
ĠM unch
Ġth aw
Ġn as
Ġn ets
Ġn avy
Ġl ays
Ġl ucky
ol ester
Ġre writ
ĠW oolworths
Ġst unt
ĠF innish
ĠN ebraska
ĠN airobi
ĠR om
ĠR anking
ra ining
un ately
ĠG i
ĠL G
ĠL ost
ĠO g
ĠO ption
ag ar
Ġpro long
Ġy ard
all ies
ap itated
ĠJ ake
Ġde portation
Ġch ancellor
Ġch urches
Ġnew com
ĠTh r
ĠV end
ĠV era
ĠV azquez
Ġout ing
Ġun earthed
ark in
ĠPr inc
ĠIraq A
ure ment
rop olitan
Ġbut ter
Ġrec k
Ġcr acks
ib ilities
pl ays
Ġman ner
Ġstr ess
eral ly
ph i
Ġsecond ary
ons ider
Ġreg ained
St ill
St ars
istan ts
rac ed
ĠRes ort
ĠCl oud
ĠAl ger
Ġinter cep
riv als
Ġhead ache
Ġbr ace
ipp en
Ġmake over
Ġlat ter
Th atcher
Ġprofit ability
Ġinj ures
Ġexpl oring
ĠBe ing
Ġ11 5
Ġcol our
An y
ĠNorth rop
Ġleg ally
aul ted
Ġcor on
ĠBar ney
Ġ14 0
br and
Ġpat ience
Ġchamp agne
ole c
Ġmar ijuana
Ġmanager ial
Ġevery body
IL E
ĠGl aus
the m
ĠEl izabeth
Ġchild hood
Ġfar ewell
ĠDel phi
Ġseek ers
EM P
Ġbill ing
ĠDown er
Ġshut t
Ġinvol ves
ĠTra in
SAN TA
Ġcred ibility
Ġcred entials
Ġspeed ing
Ġstrate g
Ġdiscuss es
iber n
ĠPlan ned
Ġcrow ned
Ġgra pp
Ġcelebr ations
AK A
Ġwid en
Ġwid ens
Ġcompl ain
Ġdecl ares
ellig ent
pro cessor
Bay ern
ĠReb ounds
ĠTw enty
ĠTw ickenham
Ġz ero
Ġrain y
ĠHall oween
omin ated
Ġcirc ulating
Ġinvent ed
ĠExt reme
Ġexpress ing
Ġphot ographer
ĠImp rove
ĠDisc overy
eas y
LC D
ogn ition
Ġdifficult ies
Ġorgan is
ĠDam age
ĠCall ing
ĠRand all
ĠMach ine
JA VE
Ġpen et
ĠCent ury
Ġconclud e
Ġshel ters
ĠShare holders
ĠProv idence
ĠCross ing
War ner
ĠKe ane
Ġvolunt arily
ĠSep ar
ĠLehman n
Ġconsolid ate
bro ok
nan ometer
ĠLaur en
Ġcos met
Ġla ure
Rock ets
Ġundis puted
Aug ust
Atlant a
Tel stra
Ġmicropro cessors
hist oric
ĠDraw s
Explos ion
Astron omers
BANG ALORE
poin ter
Ġobst acle
Ġfier y
Ġven ue
ĠPrim era
Ġing red
ĠLie ber
FRAN KFURT
Ġclus ters
Ġadvertis ements
ĠWol verines
ĠSurg es
Ele ven
ĠASE AN
ĠMaterial s
Ġjol ted
Tit ans
Ġpiv otal
erro uj
ĠCANA VERAL
olester ol
2 25
5 36
B uc
D NA
E ll
E ner
F ON
F err
F ALLUJA
G R
G arc
H uge
K ing
M r
M add
M urdoch
Q U
R u
R and
S N
S pe
S addam
V ar
Y UKOS
\ "
a urs
b ps
b attle
c ter
d y
d ev
f ish
h ors
i Pod
l ink
l usion
l anguage
m ay
n ai
p m
w ould
z es
Ġt issue
in st
Ġs oul
ed s
it ol
it ous
Ġf ray
Ġo l
Ġo uster
Ġc ache
Ġw ard
re aching
Ġp ure
Ġp ubs
Ġp ockets
Ġto uting
is bane
ro ger
ĠS YDNEY
Ġh ots
Ġd ashed
Ġd atabases
ĠC irc
st ation
ĠA I
ĠA ston
ĠT ag
ĠT rying
et ch
el ve
ac les
ĠM AR
ĠP ounds
Ġl ib
Ġl ining
ĠI SS
am ib
ot ted
ĠB ovina
ĠW achovia
ĠF ab
ĠF oll
ĠF aster
ĠF unk
Ġr ift
ĠN orm
ĠR i
ĠR enteria
ĠD ro
ra ged
ĠU z
un is
qu ality
ĠG ot
ĠL azard
ce ans
ce ived
ak sh
ĠE D
ĠE sp
ks on
ĠJ FK
ĠJ ihad
Ġsh ine
Ġsh akes
Ġsh aking
oo ter
ĠK le
ug s
ud ed
Ġsp at
Ġover coming
ĠV erm
ĠV CR
Ġout rage
Ġun official
ex p
ors port
og an
og ul
Ġres idence
ote urs
Ġen abled
Ġen abling
ound ing
Ġinc ursion
ĠCor respondent
ĠSp in
ĠSp ark
Ġbl n
Ġbl oodshed
Ġind eed
ĠĠ ĠĠĠ
Ġpart ially
Ġpre t
ĠBl ood
St ep
ĠPl edges
ath ina
Ġso ap
Ġins ider
Ch ris
ĠMar xist
Ġtra iling
Ġkn owing
enn ett
Ġeff ic
Ġfound ation
Ġ11 7
ĠAss ets
OS T
Ġhold ings
Ġleg s
Ġbel t
ES PN
ĠBr isbane
ĠBag le
Ġfac ilit
ĠMc Le
Ġred uctions
lo aded
Ġform ation
Ġrece ption
Ġpop ulations
ĠDis play
ĠEd itor
ĠFrench man
Ġappl iances
ĠSte in
ĠPlay boy
ĠCr u
ĠSy n
we ights
Ġob esity
Israel is
the ir
ane k
ĠNet egrity
Ġjump er
Fr anc
Un ilever
Ġball s
ĠIT unes
ĠRet reat
Ġconfer encing
Ġfre es
ĠRo om
Ġsn atch
Ġden ounced
ĠTra vis
Ġroll out
Ġdon ations
Sun Trust
Ġterm inate
ope z
Ġspe aker
ĠInvest igation
ĠTom orrow
ĠMin aya
ĠUs ed
serv ices
ĠMilit ia
rag ging
Ġesc apes
ĠTele vision
Ġconc ussion
Ġvac ant
con ference
Ġdeploy ing
Ġtechn iques
Ġexc itement
ĠSusp ends
Ġindic ators
Shar p
ias m
ĠThreat en
ĠSem if
Ġmiddle weight
Ġquit ting
Ġorgan ize
ĠPenn ey
Bank rupt
ĠGM ail
Ġconnect ivity
Gold man
Ġspect ators
ĠMy SQL
Ġpur pose
ĠProp erties
Ġovert urned
Ġpostp one
Ġder ailed
Ear nings
ĠMove ment
Ġemail s
Sy base
Ġinstall ing
Ġerup t
Ġliqu or
ĠAbd ul
Ġtoug hest
Ġaccel erating
Ġconcess ion
ASE AN
Aut o
ĠLaur ent
Ġrecommend ation
ĠHun ter
AV ANA
Ġhij acked
MR T
Med ical
Ġmotor cycle
ĠSent enced
ĠDream Works
Ġtopp led
ĠLuk as
Ġbon us
Pay Pal
Trans actions
Ġlov ed
ĠDw ight
ĠHil figer
Ġimag ine
ĠAntar ct
ĠBrom wich
ĠCome back
ĠPitch er
Ġuncon stitutional
ĠMol ik
ĠNi elsen
Ġeleph ants
ĠAlban ian
WO OD
Ġcompar ison
ĠPolit ics
Mov ie
ĠRosen borg
Ġlin eman
Ġbog us
oled o
Ġheadscar ves
ĠDubl in
Pent agon
ĠWent worth
ĠKee gan
ĠMoto GP
7 8
8 3
9 65
A riz
B LOOMFIELD
G UST
H A
H G
J er
J NJ
K e
L o
M et
M ort
O W
O FT
P ublic
P aper
T urn
W ords
Y S
d isc
e ven
f i
h is
h un
i ated
l isted
m usic
n eck
p a
r at
r ights
t echnology
v oting
Ġ iv
in ions
in ction
er ia
ed ing
en ess
en aries
ar agu
at ur
Ġc ure
re p
re ets
ic ia
ic iary
ro se
Ġm ent
ĠS eat
le ep
le ader
ĠC ells
ĠA ld
ĠT ower
ĠT sunami
ĠM ate
ĠM oo
ĠM other
ĠM ittal
Ġn od
Ġn erve
ĠP ap
ĠP ors
ĠP insent
ol ia
ĠB ott
ir ie
ĠW ere
ĠW ide
ĠW ally
ĠW BC
ĠW rong
Ġst oked
ĠF ights
Ġr iots
ĠN ever
ĠR ew
ĠR aj
ĠR ugby
ĠR allies
th is
ĠG raphics
ĠG annon
ĠH ang
ĠH iring
ĠH earing
ĠH orse
ĠL j
ĠO kl
ri ft
em ption
Ġpro ven
oc ate
ĠJ ar
ĠJ OHN
Ġv owing
Ġde af
Ġde ple
um ed
ĠSt atist
ĠSt amford
Ġsh un
Ġch ass
ist a
art z
ud ged
Ġj ersey
ĠV ulner
ge y
over ished
ant astic
Ġexp ire
Ġint rig
og le
ĠUn its
ĠUn ilever
Ġsc attered
Ġsc rapped
Ġad ultery
Ġdis engagement
oin ting
ĠSh ia
ĠSh ock
Ġim ported
Ġman euver
Ġend less
ĠEn richment
ins p
ild er
aun ts
ne apolis
RE AK
ious ly
Ġpresident s
Ġins ects
ĠAl v
Ġtri ps
Ġhead line
rov es
Ġprov ing
ĠOp eration
Ġshow case
Ġimp asse
ĠMar ino
thern et
Ġher oes
ĠEng ines
Ġsusp ending
Ġaut umn
Ġgu ided
Ġgu ests
CO M
Ġant idepress
ĠBe agle
ĠAss et
ĠAss ass
Ġi Book
ĠAb uja
ĠGre ens
Ġadv ised
AM AR
Ġpublic ation
Ġpublic ity
ĠOr ig
Ġche ating
ĠBaghdad A
Ġord eal
Ġ18 0
itch ing
Ġinv ade
Ġprom o
Ġappl aud
Ġgood bye
Ġshe et
ĠPlay offs
esc opes
Ġemb ark
ĠSl ams
Ġmor ale
Ġshar ks
ĠPol ic
ĠNet Ware
Ġvo ices
ĠMo jave
ring ement
Ġmanufact ured
Ġfre ely
Ġpot ent
Ġinvol ve
Col umb
ĠChrist opher
Ġdomin ation
Ġdomin ates
Ġfig ured
Ġtravel ed
Ġpick up
Ġweak ening
Ġhospital ized
Mar iners
Ġprob ing
ĠCap t
ĠNow itzki
ĠLaun ched
ĠLa os
Pl ayer
.\ &
ĠDiv idend
ĠReb ound
Ġfly by
arn ett
ĠSil va
Ġwa its
BR IT
Ġinvent or
Ġphot ography
Ġwrong doing
Ġneighb ouring
cat el
ĠJew s
Ġfr uit
bl ower
ĠCA IRO
Ġanim ated
Ġhum ili
Just in
ĠGreat er
Ġtent atively
rob able
Ġfair ly
Ġpredict ions
Ġsal aries
Ġpra ises
ĠInj ures
ĠMel vin
Ġcurb s
ĠDirect ors
Ġpresent ation
ĠSeek ing
Ġimpl ications
Ġgro in
Per fect
ĠProv ince
Ġcollabor ate
ĠCommun ication
ĠCommun icator
Ġmob iles
Ġbolster ing
Ġrum ours
Ġimproper ly
ĠDoub t
ĠBec ause
ĠGro kster
ĠGil christ
ĠTrip le
ĠMoham ed
ĠScient ist
Ġbroadc asters
ĠProble m
ĠYug ansk
Ġintr usion
Ġsubstant ially
Mex ican
ĠCur se
Ġlov es
Ġresh uffle
ĠOptim ism
Ġoverwhelming ly
ĠResc uers
ĠWithdraw al
DEN VER
Ġtrim med
ĠCandid ate
ĠDU BAI
Host age
ĠLloy ds
ĠRic ardo
Ġwal lets
Ġsponsors hip
Leban on
Pil ots
ĠCaps ules
ĠVin cent
Ġpharm ac
ĠTall adega
ĠPAUL O
Rap tors
bag bo
Ġfer oc
arko zy
ĠSuppl ies
Jac ques
ĠOsw alt
Ġjew el
Ġconting ent
Ġhav oc
accept able
Transactions BASEBALL
ĠAntarct ica
Ġiv ory
ĠOkl a
Ġchass is
A IN
B ec
C ent
C arter
C IA
E qu
E mb
F ile
G ard
G ov
G ene
H ist
K KD
L P
L inks
M ol
N ATO
R Y
R ice
R oundup
S ub
T ough
b ok
c hens
d itch
d iman
g ae
h ighest
h urst
i ere
k ov
p ike
r ors
r ics
s ur
t rust
u is
u ations
in vest
er re
Ġa pe
ar en
Ġf le
Ġf ingers
Ġp ent
Ġp essim
Ġb ay
Ġb orders
ro e
Ġm ill
Ġm alls
Ġh ate
Ġh erald
Ġh orses
ter ior
Ġd olphins
ou ted
ou lt
ĠC atch
ĠC ARAC
ent ech
ĠT ibet
ĠM ap
ĠM ardy
ĠM urray
Ġfor ged
Ġfor ums
ĠP etro
ol n
ot ton
ĠB og
ĠB ANG
ĠW PP
ĠW onder
Ġst ent
ĠF o
ĠF eb
Ġit em
ĠR ail
ĠD raft
ĠD iet
ĠG SM
ĠH ole
ĠH ikes
ĠL inked
ri o
em ia
Ġcon gress
Ġhe s
Ġv ener
Ġv oid
ĠIn fo
ĠIn stant
ĠSt ays
ĠSt akes
Ġwh ale
ĠK on
ĠK it
ĠK ir
ĠK ids
ĠCh er
Ġwas hing
Ġro uting
Ġro aming
ant ic
od ed
od ing
amp ling
Ġcont rast
ach t
Ġte acher
Ġtr icky
Ġad mission
ull i
Ġcr ick
ĠSp aces
ĠSp acecraft
ĠCorp s
ĠAn astasia
ise ase
AS S
ĠLe ver
ĠRe fer
az y
Ġsl ated
Ġdef l
ĠEn c
Ġpre ferred
oot ed
Ġrele g
RE SS
ĠRes ign
ĠRes orts
Ġam endment
ĠComm ons
Ġlaw maker
su i
Ġtra p
reak ing
Ġrel ating
ik ed
Ġsm ell
ĠZ emin
Ġinj unction
ĠTr uck
Ġsell ers
Ġmusic ians
ĠAg enda
Ġrul er
sp e
ater ina
ĠWar n
Ġkeep er
Ġche ers
EC B
Ġhom osex
ĠGu errouj
Ġpress ured
IT E
Ġform ing
Ġpop ulous
abor ate
Ġpropos es
Ġste als
imb o
ĠIv erson
UN I
Com ing
ĠGl oria
Ġrock y
ĠPol y
Un ions
Ar med
Ġreal ize
ĠMart ins
Ġver ify
Ġsn atched
Col umn
Ġgun point
Ġspeed y
roll er
ĠProt ests
pro of
Ġsurv iving
Ġdesign ated
Ġwind fall
Ġinsp ire
Ġinsp ection
ĠPan athina
ĠOs lo
Ġarm ored
ĠKn ee
ht ar
Ġneighb our
Ġhy personic
ĠQuarter back
Ġspl ash
Ġorganiz ing
asc ular
ĠBell amy
Ġill ust
Ġsens ation
Ġsens ational
ĠTer diman
Ġele ments
MAN DU
Def ending
Ġrein force
ĠInf onet
Ġassoci ate
Indian apolis
Ġresum ption
Do CoMo
Ġexam ining
Ġweight lif
Ġextrem ist
AG AR
Ġir rit
Ġ198 6
Ġparticip ation
Ġcitizens hip
ĠTool s
ĠEri k
Ġflo ated
ĠOl iver
Ġexerc ised
ĠPeru vian
Ġblog ging
Ġliquid ation
Ġcha otic
Ġgrad uate
Ġhighlight ed
Ġrecru iting
ĠAmb assador
Ġacadem y
Ġgren ades
ĠTown s
Ġharm ful
Conn or
ĠBh opal
ĠBh utto
Ġspre ads
ĠRut gers
Ġbon uses
Islam ic
Philipp ines
Ġbrows ing
TW X
Cle veland
ĠOuts ourcing
Ġsyn ch
ĠStrug gles
Ġconsult ant
ĠCole man
ĠOptim ization
Cy ber
Ġyoun gest
ĠFew er
Ġincor por
Ġcosm ic
ĠLind a
Ġmemor able
ĠBett man
ĠAer onaut
Ġpriz ed
ĠLic ense
Ġeleph ant
ĠRober ts
ĠIndepend ence
Ġlegit imate
ĠUg anda
ĠCroat ia
Ġdiscr imination
Ġdil emma
Stand ard
Ġimplant able
ĠOx ford
ĠPropos al
Tal iban
Ġrhe toric
Ġtorr ential
Emp loy
Ġquad rup
RIN AGAR
Ġcircum stances
iabet es
Ġentit led
Raid ers
Ġintercep ted
aksh mi
ĠPors che
ĠCARAC AS
2 65
B rian
B attle
B engals
C lim
C APE
G ary
G rowth
H and
H op
I ES
J ose
K MRT
L ive
M ot
M od
P ER
R icky
R ugby
S ep
S ources
S TOCKHOLM
U EFA
V M
V eter
W il
b h
e ered
k os
l ic
n ants
o it
y ip
Ġ ub
Ġt unes
in ity
in agar
or ke
ed y
at o
Ġf are
Ġc up
Ġc ord
Ġc overs
Ġp and
Ġto e
ic ism
as man
ĠS or
ĠS igned
ĠS ubs
ĠS ierra
Ġd oses
Ġd wind
id ians
st ated
ĠA RM
ent ative
ĠT een
ĠT ale
el ly
el come
ĠM ort
ĠM ortgage
Ġth us
ad ition
ĠP ul
ĠB ans
ĠB etween
ĠB rawl
ĠB eef
ir sol
ĠW y
Ġst all
Ġst ack
ĠF oot
ĠF isher
ĠF iat
ĠF riends
Ġr arely
ĠN est
ĠR ocks
ĠD ial
ĠG ig
ĠG ona
up date
ĠH aven
ĠL oc
ĠE thernet
Ġcom et
Ġle ak
ĠSt ef
ĠSt uart
Ġqu ell
Ġwh atever
Ġpl acing
Ġch ants
ĠK BR
ĠK aterina
ard on
if ications
Ġpr ince
ud ential
Ġj am
Ġj ockey
Ġup sets
any on
ĠV ic
ĠV ald
ĠV PN
Ġout we
ge oning
ke ters
ree ks
od er
ep id
ens ity
ass ies
ĠIraq s
Ġfin est
rit re
Ġen orm
Ġtr ump
ite k
Ġad equ
ĠSh ut
Ġatt rib
ĠAn cient
Ġbl ank
ĠIs n
Ġback ground
az in
Ġsl ot
Ġsl ap
Ġdef ied
Ġpol ar
Ġpre gn
Ġvict orious
ied ler
ĠAl z
Ġair liner
Ġbo asts
lud e
Ġass emb
Ġno ise
Ġbid ders
Ġra ft
rup ted
Ġpe aks
Ġgu ess
ĠDe portivo
ĠSc reen
Ġ12 5
ĠNorth western
Ġrev ital
Ġdirect ory
Ġgr ace
ĠGu ards
ĠAll ies
per ate
Ġdet ection
ĠDem ocracy
ĠItal ia
Ġob struction
ĠDef ending
alth am
ĠEl Baradei
Ġless ons
Un iversity
ĠFranc ona
inc oln
Ġdoub ling
ĠMart nez
Ġpres ents
ĠDeal The
ym akers
Ġcapt ures
ĠDown loads
On t
Ġfe ver
ĠRob ot
Ġport ra
12 5
ĠAnn ual
Ġpred iction
ĠTro op
ĠInter view
ĠBro ck
ATH MANDU
Mar lins
Ġprob ation
ĠCap itol
Ġgra in
MC D
Ġproject ions
ĠPri est
ĠCan on
ĠAcc ount
Ġalleg es
ĠUs es
ĠDo zens
Ġgen ome
CS I
ĠAlex and
ĠSaf e
ĠTy co
ĠMajor ity
Ġap es
Ġexplod es
ĠIns ide
Ġtie breaking
ĠIm m
ĠIm ports
ĠEr dogan
Ġresc uers
ĠCam er
fe iting
Ġchar ts
Ġregular ly
Ġhor rif
Ver iSign
asc ar
Ġring ing
Ġsmart phones
ĠSchool s
ĠMov ing
ĠEv il
ĠRun s
ĠHeat ing
Bomb ardier
ĠNL CS
rav id
Ġbi ological
osh op
Ġpartic les
Ġexam ined
Neal y
ĠLim a
Ġattract ing
ĠNeed ed
eneg ro
Ġrespond ing
Ġign ore
Ġign oring
Ġimplement ing
Ġinaug uration
Ġpan ic
ĠTay yip
Ġtyp ically
Ġblog gers
Ġlif estyle
Treas ury
ĠLinks ys
Get ting
ĠSand ers
Ġgrad ual
Ġvolunt eers
ĠPrison ers
ĠDi ouf
Reg ulators
Ġpoison ed
MA X
Ġinform al
mind ed
Ġadministr ative
Ġdict ators
Ġsatisf ied
Sk ulls
ĠAp ache
empt ive
Colomb ian
BOUR G
Ġfract ured
ĠAsh croft
ĠGuill ermo
ynam ics
Ġintent ions
ĠContent Guard
ĠOuts ide
Ġconvers ation
president ial
ĠRO UND
ĠLeon id
Ġcripp led
poin ters
Ġimpr isoned
ĠKos ovo
ĠFan ning
Ġmention ed
ĠRober tson
ĠBenef its
ĠMall orca
ĠBlade Center
ĠExpect ations
Prosecut ors
bu ilt
Den ver
Ġindict ment
ONA IVES
Ġinterven e
Ġcler ics
ĠEthiop ia
Ġpredecess or
Ġdrunk en
Ġtraff icking
McN air
ĠKend all
bitr ator
CLE VELAND
ĠBER LIN
FALLUJA H
ĠUz bek
ĠStatist ics
oult ry
Ġub iqu
ĠGona ives
1 36
7 7
A lt
A stra
B Y
C owboys
D et
D ECEMBER
E th
E arn
F al
G ro
H AT
H AKA
J ean
K line
K ashmir
M as
M organ
N ike
O IL
O IP
S am
S ex
T ex
W he
Y en
Y esterday
f eed
k usen
r ayed
t ronic
z o
er ted
on na
Ġs acks
Ġs izz
Ġthe ater
it ter
Ġf ab
Ġf oods
ing es
al id
Ġw ishes
re ading
re ction
Ġp es
Ġp eek
Ġb n
Ġb aff
ĠS ear
ĠS arg
ĠS UN
ĠS ophos
ĠC over
ĠC ON
ĠC AN
ĠC ulpepper
st ory
ĠA IG
ĠT ens
Ġth rust
ad ler
ad ona
Ġn aming
ĠP ir
ĠP urn
Ġl ake
Ġl one
ĠI celand
am ount
Ġre pr
Ġre hab
Ġg ears
ĠW ag
ĠW ard
ĠW itnesses
Ġst opp
ĠF ig
ĠF ij
Ġr ated
ĠN arrows
ĠR um
ĠR att
ĠR occo
ĠD ust
ĠD ome
ĠD iana
ra x
ĠG ore
ĠG iven
ĠG bagbo
ch ips
ĠL aud
ĠL ooms
ĠE urop
Ġcon struct
ĠJ edd
ĠJ Boss
Ġv ault
ĠCh ain
Ġsp acew
The se
ĠTh orn
Ġover th
Ġse iz
Ġcl othes
Ġun named
Ġro les
Ġexp ired
og ged
ĠUn likely
Ġbut ton
Ġsc our
Ġfin ancier
ĠNew ton
pl aced
pl agued
AN T
ĠRe id
AF X
Ġend orse
Ġind ec
Ġreg rets
ĠBl acks
Ġrele v
els at
Ġdeal er
ath y
rac ing
Ġcar n
ĠAl ready
ĠCon struction
Ġair ing
ĠJo el
Ġimp robable
head s
Ġbid der
Ġsm iling
Ġreb uilding
Ġgl ad
Ġexpl ained
Ġgu idelines
Ġrest ricted
Ġmin im
AM PA
Ġfight back
Sh i
Ġpress es
sh irt
Ġemp h
Ġopp oses
Ġcampaign ers
Sp ecial
Ġnational ist
Ġste er
ĠPlay ing
Ġauthor ized
Ġob lig
Com m
ID E
ĠGl en
Ġgreat ly
Bl u
ĠDel ivers
Ġmid session
ĠHol tz
LE ANS
UR ICH
rust ed
Ġ199 3
ĠDavid son
ĠWe ight
Ġpubl ish
Sc ience
14 5
ĠJust ine
ĠEnd angered
Ġcomb ining
Ġow ed
ĠEarth Link
ĠBro ok
Ġradio active
egr en
Ġspe akers
ĠShe vchenko
bo ards
ĠLaw makers
Ġproject ion
Ġpurch asing
ĠRich mond
Ġblood iest
udd y
augh ters
ux erre
ĠTw in
tr ack
Ġdesign ers
Ġcommit ments
Ġdesc ended
Ġcirc le
Ġinterview ed
Ġmis erable
Ġaddress ed
erg ie
ĠSam uel
ĠThreat s
Se ahawks
Ed ge
Ġaband oning
ĠBron ze
Val encia
Ġcur tain
Ġdepart ments
Ġsky rock
Ġvirtual ization
Ġrebound ing
Ġdark ness
Ġadj usted
Ġmeth ane
Ġlif etime
Tro ops
ĠJul ius
Ġperman ently
Ġprior ities
Ġgovern ors
ĠGil bert
ĠDoug las
ĠLeft wich
Ġtend ered
onym ous
ĠBat man
Ġsurr endered
ĠPhot oshop
Ġunh armed
Smith Kline
ĠFur ther
gar ia
ĠThink Pad
Cle mens
ĠMcG ahee
ĠSom ali
ĠExplos ives
Ġbeaut iful
Ġaccompl ished
Ġskept ical
ĠOR LEANS
Ġpig s
Ġobst acles
Low e
Ġgal axy
ĠLloy d
ARS EN
Doc tors
Ġgloom y
Ġnic he
Ġrid ic
ĠRobb ie
Liber ty
TX N
Christ mas
Schw arzenegger
ĠWheat on
ĠTOWN SHIP
Ġlobb ying
axo SmithKline
Ġsumm oned
Ġgriev ance
iov ascular
Charg ers
ĠPas o
Ġsubd ued
Ġfel ony
Ġintercept ions
Ġcorps es
ĠJerm aine
ACKS ON
Nob el
Ġswo op
elest ial
Ġkilomet res
Ġdeple ted
Ġvener able
ĠJedd ah
, '
A v
B and
B ills
C U
C a
C lear
D allas
D ouble
E isner
E ADS
F BI
G e
H oneywell
I CO
I ETF
J an
J OHANNESBURG
K uwait
K ANSAS
L AKE
N uclear
N egoti
N asa
O pt
R un
R FID
S ON
T erm
U C
U BS
V IA
W ater
W alt
b order
f ly
f illed
f ashion
g reat
h ou
h all
h oods
k ie
k ind
p al
s y
w ave
x iety
z man
z amb
Ġ ump
Ġt ire
es a
es ome
Ġs orts
it omo
at ches
al on
re le
re qu
re ason
Ġb rib
Ġb owed
Ġb ubble
Ġin her
ro en
ĠS kins
Ġd a
Ġd od
Ġd ips
ĠC er
ĠC itizens
st age
ĠT R
ĠT oledo
ur ate
ĠM A
ĠM LB
Ġth under
ad ows
Ġn uke
ĠP urs
ĠP orter
ĠP DF
Ġl overs
Ġl umber
Ġl iability
ig ators
ol k
ĠB extra
Ġre ar
Ġg host
ĠF ired
Ġr ider
Ġr ighth
ĠR im
ĠR ex
ĠR ah
ĠR ica
ĠR IM
ĠR uth
th ink
th rax
ĠD yn
ĠD rivers
qu is
ĠG oss
ĠL av
ĠE id
ĠE missions
ĠE agle
ul ates
ri x
ks hire
ĠJ ailed
Ġv oy
ĠSt ing
ĠSt ops
Ġsh ade
Ġsh irt
ust ing
Ġch arter
ard in
Ġag es
Ġsp illed
ob i
ĠY ale
se ille
Ġcl amp
ant e
ĠMon ster
ices ter
ON ES
Ġop inions
Ġsc oop
Ġsc rapping
Ġ3 20
Ġdis gu
Ġear ning
ĠSp A
ĠSp art
Ġsl ides
Ġdef y
IN ES
Ġsup erv
ĠEx hib
Ġdes erves
Ġseason al
Ġ5 50
aun ched
ĠBl ames
Ġconf ron
ĠCl ough
Ġsign ature
ĠFl ushing
Ġoper ative
Ġ19 60
Ġimp overished
Ġass igned
Ġact ual
ĠMar vel
TON Y
ik os
ĠAd Words
ched ule
erm en
IS P
IS TAN
ĠUp grade
ĠTr ue
arm azin
Ġany body
ress ed
ress ion
ĠX strata
An aheim
Ġhold out
red o
let cher
ater n
ĠWh olesale
Ġturn out
Ġref lects
Ġav ian
ĠDec lines
Sh ack
rel im
Ġcor al
Ġgr ade
Ġeng ulf
Ġyour self
Ind iana
Ġlit erally
ener b
ont e
ĠPar ts
esc ale
UN TA
Ġemb assies
Ġexper iences
ĠSl ump
Ġmer cy
Ġsk id
Ġtrad er
Ġ0 1
Ġ0 4
Ex p
ona uts
ĠPart ies
ĠAtt endants
LE X
AD E
App l
Al aska
ĠFRAN KFURT
Ġver t
Ph ot
ĠHow e
ĠBlack berry
Ġcop e
Ġsuggest ion
comp at
Ġey eing
Ġdon ors
ĠMont oya
Ġautom ation
ĠAdv is
ĠSol berg
Ġadvert isers
Ġart ist
Cl ick
Ġarch rival
Pro fit
rag ue
Ġund ecided
iconduct ors
ĠDen mark
ĠAv ailable
Ġbook ing
Ġlay ing
ĠJeff erson
Ġlegisl ators
Ġboy c
Ġcommun icate
Ġgreen back
ĠEver ett
ĠAct ivity
Ġgirl friend
Not es
Ġscreen ing
ĠMess aging
esl ie
Ġmist aken
ĠConf ident
ĠLiber al
aby tes
ĠVis ual
High er
ĠDun n
And rew
Ġtruck ers
ĠEqu ity
ĠKenn y
ĠLim its
Ġbal anced
ĠKar achi
ERS ON
Cor porate
SH ANGHAI
ĠAppl iance
Ġgam ble
Egypt ian
ĠMeg son
Ġflo ating
ĠControl s
Fin ance
roc od
charg ed
Ġoverwhel med
elect ronics
Sat ellite
ĠBec ome
Ġrig ging
Ġpark ing
Ġmour ners
stan bul
Ġcompat ibility
ĠBird s
ĠBor is
Ġbra ve
ĠClar ett
olt z
ĠPrep are
Let ters
Ġreass ure
Power ful
Ġstream ing
ĠFur cal
ĠFleet Boston
ĠSug ar
Har vard
ĠRB Is
ĠExplos ion
Ġble ak
Ġanonym ity
Ne ill
ĠBett is
Ġenthus iasm
ĠMcGr ath
ĠTreat y
Pit tsburgh
ĠLah oud
ĠIndepend ent
Swed en
ĠKost as
Ġdisgr aced
Ġjeop ardy
ĠArg os
ĠAlb ion
ĠMcD owell
ĠFro ogle
Ġagg rav
Fil m
Ġmisc onduct
Ġho ax
Ġcatastrop he
Ġcous in
kele ton
ĠStat us
ĠWels h
Ġwis dom
Ġchant ing
ĠTat iana
Ġnas cent
ibern au
Ferr ari
REAK ING
ĠAlz heimer
; (
A z
A lex
B uilding
C MC
D ale
G S
G T
G reg
H arry
H opes
J un
K U
K l
L ittle
M adrid
M erc
O x
P rop
P armalat
R od
R ams
R anked
R OM
S im
S alv
T itan
Y our
c ke
e k
g om
h l
m atic
n ob
Ġt ablo
Ġt epid
in j
or us
ed e
at tering
Ġf ame
Ġf ung
Ġf itness
Ġc urs
Ġc ats
Ġc andy
Ġw ipe
Ġp up
Ġp enny
Ġb acter
Ġin struments
as g
ĠS S
ĠS alt
ĠS ao
ĠS onics
Ġd aughters
ĠC oventry
st orm
st able
st akes
ĠA J
ĠT ape
ac io
ac ious
ĠM B
ĠM as
ĠM ack
ĠM ash
ĠM IT
ĠM ubarak
ec hes
ĠP itt
ĠP ARK
Ġl iv
Ġl ull
ĠB alk
ĠB urns
Ġre ins
Ġre ference
Ġg rit
Ġg amb
ill o
ĠW OR
Ġst one
Ġst icks
Ġst agn
ĠF ell
ĠF ior
ĠF inger
ĠF ried
Ġr ip
Ġr ays
im i
ĠD err
ĠG arnett
ch ief
ew ed
ĠH SBC
ĠL akshmi
ĠE Bay
Ġbe verage
Ġcon j
ian i
ĠJ ong
Ġhe al
Ġv essel
our se
Re bel
Ġqu akes
iv or
iv is
ĠCh ic
ĠCh iron
Ġsp oken
ub bing
Ġcl aw
Ġun ite
Ġro ot
od us
Ġexp elled
Ġper ks
Ġsc uffle
hn y
aw ar
Ġnot ables
Ġdis l
oy ant
ĠSh adow
ĠSh rek
ib ank
Ġatt ach
ĠSp adea
Ġhad n
Ġstr ide
ĠAn alysis
uss ina
AS SE
ĠLe v
ĠLe ander
Ġdec apitated
Ġfl ared
Ġsup ple
ĠEx xon
Ġplan etary
Ġind ications
uch i
ĠBl ogs
err est
ult ural
ĠAl am
ĠAl ong
Ġcomm em
ck er
Ġimp osing
Ch amp
Ġsw amped
EN IX
ains on
Ġgl ow
ĠTr ent
Ġprot ester
mb olic
ĠSc ore
ĠSe ville
ves co
amil ies
Ġmem orial
ott a
Ġref uge
ĠBar ber
ĠBar nes
ĠEd m
ĠEd gar
ĠItal ians
ĠSte am
Ġtrans formation
ĠOver time
Ġbeh avi
ett es
Russ ians
ĠFin cke
Ġdr illing
ĠPer th
Ar sene
Ġreal ized
Ġsoon er
Ġmet als
ĠChe m
Ġstorm y
ĠPaul o
Ġkidnapp ings
Ġmanufact ure
Ġcapt ives
Ġnet ted
Ġrep rieve
Ġsuper computers
ĠArab s
Ġdeliver ies
ĠTro uble
Ġtravel s
IM ORE
Ġvol can
ĠPlan ning
Ġhapp ening
Ġautom obile
Ġcommercial s
Ġtight ly
Ġtight ens
ĠHen rik
Fi at
iot ech
FA X
Con ocoPhillips
arn o
ĠHealth care
Ġenc oun
ĠFund ing
Tr end
tr ade
Ġkick ing
oul ter
We ak
Ġvac ancy
Man ufacturing
ĠMicros ofts
Mc Gr
Ġcreat ors
Ġsubsid iaries
Ġintegr ates
Fl ash
ĠReg ional
Ġsurf ing
ĠSwed e
Ġshr ink
box es
Ġpers ist
Ġaddress ing
Ġ34 0
ĠSam my
Ġbrief s
ĠBangladesh i
ĠEy ed
lins mann
Ġsens or
Ġsens ors
Ġut ilities
Ġshock ing
ĠShow down
LS U
MAN ILA
ĠSwiss com
ĠBas ayev
Ġassass inate
Ġgrab bing
Ġsal mon
El i
Ġbi ometric
Ġfeel ings
ĠWor ry
San Disk
Ġrecogn ized
ĠTre k
Ġgear ed
Ġenvironmental ists
Su ite
Ġdefend ants
Inter est
Ġdig ging
ĠCurt is
ĠEnv oy
obb led
ĠOrd ered
ĠMat sui
oco a
Ġgrad ually
Dem and
Sat urn
Bron cos
ĠView s
Ġfeed ing
Phill ies
Ġstir ring
Ġaer ial
Tor rent
Ġestablish ment
Char l
Ġflex ibility
Ġtopp le
Ġbelong ing
Bel gian
rent ice
Earth qu
ĠRub ens
Ġwear y
ĠCritic izes
Kidnapp ed
ĠAutom otive
Ġproced ures
Bell South
Ġsac red
fund ed
ĠMol son
BB D
Er nie
ĠWat son
ĠKirk uk
Ġjack pot
Stud ents
ĠSMB s
Ġjeop ard
Fred die
Ġairstri ke
Ġphen om
Ġnan ot
Ġadvent ure
ALT IMORE
Ġoversee ing
ĠChel s
ĠISP s
ĠEarthqu akes
Ġpalm One
Thom son
ĠDiffer ent
ĠRh ode
ĠYield s
ĠFilip ino
igen ous
ĠKrist en
Ġsacrif ice
Ġstub born
Ġexclus ively
Bol ton
Ġlangu ages
Ġtaxp ayers
ilder stadt
Ġubiqu itous
Astra Zeneca
ĠWag ner
relim inary
. (
1 15
B N
B or
B oy
C it
C urt
D ata
G erm
G ARY
H us
H eat
H arr
H BOS
J E
J ud
K h
L ab
M utu
N S
S D
S CH
S IR
S ouness
S ainsbury
V ill
V iew
W ake
W AL
W AR
X P
a ude
b red
d ue
f alls
g ear
g old
g ood
h u
h ours
h ift
i Tunes
m ess
p oen
r ans
r ations
z hny
Ġt ighter
Ġa ston
Ġs our
Ġs ons
Ġs acking
or ox
ar ity
ar ians
Ġf ra
Ġf ury
Ġf ret
al le
Ġp ub
Ġb its
Ġb ike
ic z
Ġm icros
Ġm alf
Ġm apping
ĠS EO
ĠS inks
ĠS arkozy
Ġh acking
Ġh ormone
le ft
le aning
Ġd up
Ġd istr
ĠC ab
ĠC ros
ĠA w
ĠT A
ĠT ank
ĠT ata
ĠT aba
ĠM oy
ĠM AN
ec o
ĠP ool
ĠP OP
Ġl oft
ig ion
Ġg ene
ĠW S
Ġst ave
Ġst aunch
ĠF est
ĠF eed
ĠN ik
ĠN IT
ĠN othing
ĠN ader
im at
ĠR ank
ĠR ape
ĠR idge
ĠD L
ĠD ent
ĠU A
qu ar
ĠH em
ĠH erman
ĠH icks
ĠL UK
ĠL anguage
ĠE T
ĠE as
ag anda
ri bery
em ade
em aking
oc can
Ġhe aven
Ġle v
ĠSt arter
Re public
Ġsh aping
Ġex ile
Ġex agger
AP P
AP EC
Ġcomp elling
iv ists
ĠK ick
ard i
ine ers
ug ger
ud a
ĠCh artered
Ġal ike
ab its
Ġnew er
Ġsp ies
Ġsp awn
ob s
ob ber
ĠFr an
ĠUS B
ĠUS D
Ġro uter
Ġro de
oll er
Ġ-- --
ach im
Ġ3 000
Ġrec onsider
Ġtr action
Ġnot ified
ĠSh oppers
Ġinc redible
ĠSp a
ok ers
Ġsl ashes
ĠAmer i
ĠAmer icas
Ġfl ock
Ġfl owing
IN C
Ġcons istent
ons on
Ġplan ted
ah ce
Ġdown ed
Ġreg istry
Ġph r
omb ie
St an
AT ER
Ġmed d
Ġins ist
ĠCl ive
ĠAl ph
Ġday light
Ġbo ats
Ġbo gey
ĠOp el
Ch avez
Ġass ume
Ġact ed
med al
Ġhit ter
Ġexecut e
Ġsw all
Ġpay out
Ġgl ob
ĠApp rove
pos ition
Ġdel ta
ĠTr adem
Ġinf ield
ĠAg ent
Ġcol leges
Ġrest ated
Ġmin ors
ĠMan ila
Ġrev ision
Ġshould ers
ĠHe inz
Ġbar riers
ĠOr ton
ĠOr ganiz
ĠNetwork ing
Sh a
ĠGu zman
sh aped
lo at
Ġstra pped
Ġev il
inn y
ĠDep loy
ung es
Ġschool girl
Ġbroad ly
Ġ17 0
ĠAc cepts
Ġgood will
Ġed itors
ĠBy ron
ĠShar man
ĠSch alke
ĠMed i
Ġ24 0
Ġappear ances
Ġhuman ity
ĠRet ief
UP S
Ġheart beat
Ġsn apping
ĠMer ge
rap s
Col orado
ĠBack e
Ġmon key
illeg al
Ġgener ating
ĠMos ley
Ġpil gr
Europe ans
ĠPower ful
ĠPark er
ĠExpl oration
." \\"
ĠSur prise
Ġdest ination
ĠMont ana
Ġwid ening
ĠWi MAX
play ing
ĠAdv anta
fl ow
ĠVer iSign
Ġrob bed
ĠRog ge
Ġvac uum
scri bers
Mc C
Ġexc use
Fl a
Ġprosp ective
Jo e
Ġadop ting
Ġscore board
Ġneighb ours
Ġbur geoning
Ġfoot hold
ĠChen nai
Ġdemonstr ate
Ġorgan isers
Ġthr ashing
ĠSim ulator
Vo ters
Ins urers
ĠEv olution
room s
ELS IN
Ġtent h
Bomb s
Ġremov al
Ġcat ches
Ab u
Ġdiscover ing
Ġfan fare
Ġabs or
Ġenj oys
met re
Ġcerem on
Ġrevers al
ĠPet rov
ĠBuild s
Ġstronghold s
Quarter back
ĠSerb ian
Ġdig it
Ġproceed s
ĠOb ject
ĠPil ot
ĠBuc s
Group s
ĠDet ain
Ken yan
ĠCrit ical
MO JAVE
ĠIS V
ĠIS LAMABAD
Get ty
Aut hor
prod uct
Ġanger ed
Ġmountain ous
uzz i
Ġcomprom ised
Ġcaution ed
iqu id
ĠLet ter
ĠMichel in
ĠMedic ine
Ġmicro chip
Ġdamp en
ĠIR S
ĠSurv ivors
Ġsurve ys
ĠKidd e
Ġgrant ing
Ġcert ific
Ġconvers ion
WS J
ĠRonald o
ĠConsider ing
Ġancest ors
Ġnav igation
Ġpriz es
Ġconservation ists
Ġven ues
Ġsmugg ling
ĠRece ives
ĠMI AMI
Ġrevel ations
Ġbot tle
ĠFee ley
Ġairstri kes
ĠHav ana
Ġtransist or
Ġdiagn osed
ĠReve als
Ġirregular ities
Auss ies
Ġdrift ed
AUSTRAL IA
ĠCarm elo
ĠCALI F
ĠFres no
Ġliter ature
Ġmusc les
Ġrand om
Share holders
Ġwip ed
ĠHots pur
Ġphil os
Ġproc urement
bren ner
ĠCoff ee
ĠMyst ics
rugu ay
Ġvacc ines
Ener gy
Ġlib el
ĠSemif inals
ĠLever kusen
Earn hardt
enerb ahce
gom ery
asg ow
poen as
3 80
B ul
B LIN
C oll
C able
C avs
D eep
D iplomats
E ri
E ff
F ound
G all
G ONAIVES
H aving
I AL
K ar
L ou
M ut
M ick
M errill
P G
P et
P ont
P ersonal
S tern
S orenstam
T oys
T endulkar
b ooks
c u
f il
f aced
g rown
h unt
s an
t oo
v ironment
Ġ ore
in ite
Ġa il
he user
es ley
Ġs ou
an ed
at is
Ġf als
Ġf iction
Ġf izz
Ġc urt
ing o
al iation
Ġp und
Ġp enal
Ġp umped
Ġp uzz
is ler
ic ycle
as ive
Ġm olec
Ġh oney
Ġh udd
le ch
Ġd irt
Ġd iabetes
ĠC ook
ĠC avs
ĠC azenove
ĠC emex
st ep
ĠA ide
ĠA hern
ĠA uxerre
ent in
ĠT une
ĠT aser
et on
et he
ĠM ul
ĠM ath
ĠP erson
ĠP ablo
ĠP rague
Ġl ocks
Ġl ava
am ax
ĠB B
ĠB ASE
ĠB ennett
ĠB REAKING
ir s
Ġre igning
Ġg uru
us ers
ĠW E
ĠW ig
ĠW ary
ĠW MD
ĠW ATCH
Ġst inging
ĠF TC
Ġr age
Ġr eneg
ĠN az
im portant
ĠR aul
ĠR olen
ĠD B
ĠD od
ĠD river
ra id
ĠG y
ĠG overn
ĠG ator
ĠH R
ĠH AR
ĠH aving
ĠH urd
ear th
ĠE ld
ul ative
and ered
Ġ1 66
ĠIn nings
end ous
Ġpl ague
ist ans
ĠK ier
.. ..
ud es
Ġsp ar
Ġsp ite
ob ble
ĠY orke
ub a
ub ic
ĠFr at
ĠV ir
Ġout spoken
Ġun se
Ġro aring
ros copic
Ġexp osure
Ġint elligent
Ġsc ans
ov sky
Ġtr ims
Ġnot able
Ġdis qualif
Ġapp oints
Ġacc use
ĠSh amil
ĠSh aq
ĠCor nell
Ġatt racted
reat ing
AN O
Ġret ali
Ġbl aze
gr ily
ĠPro b
ĠRe quest
Ġsl umping
Ġplan The
ĠBl ow
ĠBl ame
outh i
ĠRes olution
ĠCl ay
ĠAl onzo
Ġam mun
Ġair planes
Ġsign alled
ield ing
Ġoper ated
Ġoper ational
ĠOp ec
ĠOlymp ia
Ġass urance
Ġass istants
Ġkn ife
Ġbr ushed
Ġbr ighter
Ġsu ic
Th ose
ty ing
Ġexpl ode
ĠUp beat
Ġsub sequ
Ġinf amous
str ate
par ing
ĠComp lete
Ġpar ad
10 6
Sh awn
ĠSup ports
Ġdev oted
Ġcor rupt
ham oni
Ġhard est
ĠSw ap
ĠSw ainson
Ġinv ite
IC S
Ġpop ulated
mit age
itt e
ler osis
ĠFin ed
ĠWin FS
Ġdist urb
AD V
Ġmass es
Ġreal m
eg az
Al an
comm od
Mart inez
ĠRo jo
Ġmakes hift
Ġforecast ing
Ġaid ing
Ġspecial ists
SAN TIAGO
Ġmon arch
ĠInter im
Ġchips ets
CC I
uff les
Ġsurvey ed
Ġmort ars
hic le
Ġspe eches
Ġcard iac
ĠShe arer
Ġprop ose
ĠWork er
ĠCongress ional
ĠAcc ord
Ġcam c
Ġgen uine
ĠCut ting
Ġfun ny
Pol it
ĠSant os
ĠNHL PA
ĠIns urers
EA G
ĠDead ly
Ġblue print
Le Bron
keep ers
Ġgolf ers
Se oul
Se agate
Ġdemonstr ations
Ġring ers
He avy
First Call
ĠRobert o
bl ock
Ġthr iller
ĠArt isan
Ġanim ation
Ġut il
Ġut ter
Ġflood ed
Ġhal ting
hit ting
Ġ38 6
ĠColomb o
Op ec
Ġcontrib uting
Ġsy mbolic
Ġwond ered
29 5
Ġtur key
Ġplun ging
Ġunf old
Ġfavour ites
ĠHoll and
Ġconclud es
ĠMcC aw
Can on
ĠGe Force
Invest igators
Ġ198 8
Ġgran ts
Ġparticip ating
Milit ant
Milit ary
Ġintens ity
Ġarchitect ures
market ing
Ġflo ors
Ġspons or
ĠNic aragu
AND RIA
Ġloyal ty
Ġtank ers
ĠMult i
Ġcomfort ably
Ġestabl ishing
ĠGene va
Ġhighlight ing
Ġsuspic ions
Ġsomet ime
Ġnomin ated
Ġdiscip line
Mark ets
Ġembarrass ment
ĠMoham med
ĠKuwait i
Ġgall ery
Ġbroadc asts
ĠArch itect
Ġnerv es
ateg ory
Malays ian
ĠFast est
Us ing
ĠSi hamoni
Ġconven ed
ĠSurv ives
struct ing
Ġconsult ants
Rad ical
Ġmud sl
Explos ions
UALA Q
Ġscor eless
Ġhamp er
ĠKos kie
Ġlie uten
Ġswift ly
sign ificant
Ġtum ult
ĠCho ice
Ġdinos aurs
Ġswim mer
Leg al
Ġwors ening
FD X
ĠFail ure
ĠBenef it
Ġconfig uration
Ġtransist ors
mans hip
Mour inho
ĠCommon wealth
Log ic
Ġslee k
Ġrack et
ĠSund ays
Ġjit ters
Ġmultic ore
Ġmagnet ic
ĠPear l
Ġlav ish
ĠMuk esh
Madd en
Ariz ona
Ġferoc ious
ĠMartins ville
ĠPanathina ikos
Ġsynch ron
Mot orsport
Ġenorm ous
Ont ario
ĠROUND UP
ĠSear ches
fashion ed
ĠAlam os
ELSIN KI
0 8
B altimore
C rew
D L
E AN
F uel
F ujitsu
G az
H u
J ay
K idd
K HARTOUM
L ine
L oss
L arry
L ithuan
M ove
M OND
N uggets
O ak
O rd
P iracy
R a
R upert
S ite
S par
T OR
T rial
Y HOO
\ (
b il
b rew
f ats
g ue
h id
h ouses
i ens
k owski
l ast
m idt
n uclear
p c
p es
r uled
t un
u ven
v ol
z el
Ġt umbling
Ġt aught
er ox
Ġs its
Ġs unk
ar est
ar ling
ar aval
at ters
Ġf antasy
Ġo ceans
ing u
Ġw ore
Ġw ww
re v
re ads
Ġp acks
Ġp unt
Ġb ore
Ġb ells
Ġb read
Ġb owled
Ġb ragging
is ons
is ode
Ġin ner
ic hes
ro tt
Ġm ish
Ġm aps
Ġm ourn
ĠS it
ĠS ag
ĠS ens
Ġd ocked
Ġd ynamic
ĠC ass
ĠC FL
ĠC reek
ĠC oup
ĠC ambodian
ĠC aterpillar
om p
ĠA APL
ĠT am
ĠT uts
ĠT SB
et ica
ac on
ĠM esh
ĠP LO
Ġl ag
ol ving
ot ine
ĠB I
ĠB aby
ĠB ounty
ir ted
Ġre ply
Ġre actor
Ġre election
ĠW ays
ĠW altham
Ġst im
Ġst icking
Ġst abbed
ĠF itz
ĠF iedler
ĠF ilderstadt
ĠN ukes
ĠR ee
th roscopic
ra b
ĠU Mass
ĠG and
ĠG PS
ĠG erald
ĠH E
ĠH oo
ĠH ire
ĠH ampton
Ġan ch
ĠL I
ĠL y
ĠL if
ĠL ady
ĠL AKE
ĠL opez
ĠE lin
ĠE lim
ĠO le
ag raph
Ġpro lif
Ġy es
ĠJ ury
Ġv ibr
por adic
ĠSt ata
Ġsh ore
Ġsh ame
Ġqu een
Ġpl ain
ust rial
Ġcomp are
ĠK ap
ĠK armazin
oun cing
ug ene
ug itive
ab in
Ġsp oil
Ġfir mer
arg e
ie i
ĠV OIP
Ġac es
Ġres ist
ĠUn f
Ġ-- (
Ġcont acted
Ġsc lerosis
Ġen larg
iz a
iz za
Ġtr usted
ĠNew spaper
Ġapp lying
Ġus her
Ġacc ession
Ġinc iting
her ald
pl ayed
ey ed
Ġret aliation
ok er
Ġend ured
Ġdef ined
Ġfl our
ĠAs araval
ĠEx porters
Ġind emn
Ġpre vention
Ġli ed
aun te
ran ean
St el
St raw
ĠBrit ains
urr ent
Ġtop ic
ĠCl osing
ĠAl ly
ient ist
Ġjust ify
Ġdem ise
Ġshow c
ĠMar vin
Ġtra gic
Th ink
ĠZ en
ĠZ ee
ĠZ amb
af ia
ĠTr im
ĠTr ulli
Ġmove ments
Ġant enn
sp ace
red ibles
ĠUN IX
let es
ĠHe els
Ġbar on
Ġbar ring
Ġfree zing
ĠDec ide
sh ow
fur t
Ġhard line
inn ers
Ġmen u
ĠQu iet
ĠDis aster
ĠDarfur The
Ġshe ep
Ġcond itional
Ġminister ial
Ġequ ities
UN C
Ġemb ro
oid s
ett les
Ġexpect ation
Bl asts
ĠSch ol
Ġ0 5
ĠPat riot
Ġdist ant
cil iation
ĠPer haps
Ġmid range
inc luding
Ġel aborate
World wide
ream ing
ĠTur k
Ġconsider able
Ġconsider ably
Ġsuper ior
Ġtreat ing
ĠAT I
sw appers
Ġprob able
Ġsepar ated
ĠEc uador
ĠProt esters
ĠPay ments
ĠPort is
Ġeffect iveness
bo ost
epend ent
Bay er
Ġreview ed
fl u
Ġclimb s
Pro be
ĠDie bold
Pol itical
fect ure
Ġfavor ites
Ġcreat ive
ĠCost co
Ġsoft ball
Ġnames ake
Ġshift ed
ĠBall ot
ĠVol unt
ĠPoll ution
ĠTer ms
Ġtext iles
Ġhal ts
Ġlog ging
Ġlog istics
Ġterrit orial
Op inion
ĠProp ulsion
aver ick
Ġspir al
ĠLeg g
Ġpredict able
Ġbi ologists
Ġimm unity
ĠBuild er
cont rol
ĠLo an
ĠNe il
ĠStud ents
ĠSchw artz
ĠLonghorn s
Mon ty
Ġhur ry
ĠMut ual
Cong o
riend ly
ĠEff ect
ĠProm ises
Ġguns hips
Tro jan
Tro ubled
Ġrum or
ĠJul ian
ĠBec omes
Ġhar b
ĠMod el
Ġcompat riot
omed ical
Ġ197 3
Ġbuzz er
perform ing
Cap tain
Hen ry
Ġwealth y
EX ICO
rog ba
Ġbrac ing
Rog ers
Ġbelong ed
Ġtall est
Ġreward ed
Ġbes et
May be
ĠCur ry
ĠStrug gling
Ġtransform ed
ĠPhilip kos
Ġdeg rees
Ġasp ir
ĠBanc o
Ġphotograph s
gl obal
ĠJun ior
Ġdismant le
ĠBit Torrent
ĠCit ibank
Mic ro
ĠCreat ive
Ġdiscr imin
ĠNord egren
ĠLear ning
Ġplumm eted
ser ver
neft egaz
child ren
Mys tery
ĠAwa its
ĠPos itive
Ġmotiv ated
zam am
ĠOmn imedia
ĠCL ARA
ĠEp stein
ĠMacedon ia
ĠRefug ees
ĠYemen i
Ġconsp iring
ĠCrack down
Ġpa used
Ġarrang ements
Ġash ore
ĠVar itek
ĠNed bank
ĠCaliforn ians
Ġmart ial
ĠYan uk
Ġtarn ished
ĠOg den
Ġlaure ate
Garc ia
Ru ud
ĠRefer endum
Ġoverth row
Salv ation
nob r
ĠChels field
Ġammun ition
ĠAsaraval a
ĠPhilipkos ki
B udget
B argh
B ESLAN
C ox
D an
F av
F idelity
G n
G ames
H old
H ER
H ATI
H uy
L ewis
M yers
N ation
N othing
R L
R um
R OS
S Y
S oy
S GI
T U
T our
T ran
T iny
T ottenham
U r
V is
V ING
W ire
W ind
c up
d on
d ist
g ones
g iant
i ative
n ar
r isk
s av
t ank
u Secure
w r
y ane
Ġt ug
Ġt ant
Ġt ainted
in ational
er or
on ement
Ġs igh
en berg
it iveness
Ġf asc
Ġf ronts
Ġc ree
Ġc ock
Ġc elestial
Ġw asted
Ġw arehouse
Ġb rown
Ġb oots
Ġin active
ic ap
as ir
il iation
ĠS ak
ĠS eal
ĠS ask
ĠS ources
Ġh aw
Ġd ose
ĠC ou
ĠC and
ĠC oun
ĠC ounter
ĠC ategory
ĠT av
ĠT esco
el ena
ac ities
ĠM is
ĠM ong
ĠM old
ĠM iles
ĠM TV
ĠP ays
ĠP erm
ĠP ippen
Ġl ured
ĠI L
ĠB our
ĠB EL
ĠB ases
ĠB elf
Ġg ent
Ġe agle
ers p
ers The
Ġst ung
Ġst agger
ĠF enerbahce
Ġr it
Ġr anges
ĠN on
ĠN ote
im ated
im posed
ĠR A
ĠR s
ĠR ather
ĠR outs
ĠR iley
th ans
ĠD isease
ĠG U
ĠH ackers
ĠL es
ĠL or
ĠL ater
ĠL incoln
ĠE ra
igh am
ĠO UT
ĠO AO
ag ong
ain en
ap ters
ĠJ enson
ĠJ iri
Ġhe ights
ĠIn k
Ġpl ac
Ġpl ots
Ġch am
Ġch unk
Ġch olesterol
ĠK err
Ġpr ayer
ĠCh ang
ĠCh ronic
Ġsp o
Ġsp ill
ob iles
Ġj ub
ie ved
Ġup hold
Ġup scale
Ġcl out
Ġun ilateral
Ġun ravel
Ġsec ures
ĠUn iverse
eek ing
Ġagain The
Ġper f
Ġsc re
Ġrec ession
Ġtr ash
Ġlast ed
ĠSh ower
ĠSh akes
ĠSh ifts
Ġar ra
Ġar throscopic
ĠAn ne
ĠAn kle
uss le
gr ades
gr ession
ĠLe icester
ĠPro ves
Ġdec ent
Ġback lash
Ġsl ick
Ġdef er
Ġdef ine
Ġdef ens
Ġdef iance
ah u
ah an
Ġpre tax
aun t
Ġne utral
St ates
year s
ĠCl ick
lud ed
Ġhead lined
Ġprov isions
Ġdem ocr
ĠMar seille
ink ies
Ġtra iled
ĠAt las
Ġbomb ard
Ġsw itched
EN OS
ĠZ e
ĠZ oo
Ġaut hors
rup ts
Ġpe g
ĠCol umn
Ġpass ports
ĠTr end
ĠOpen World
ĠDe leg
ĠDe vers
Ġinf ection
Ġprot ects
ĠAg encies
ĠSc am
ĠX ML
Ġcol ony
Ġ12 1
ĠWar nings
ĠHe aded
Ġround up
Ġref lected
Ġref erred
ĠBaghdad BAGHDAD
Ġgold s
Ġcor poration
It ar
ĠMc M
Ġgr ay
ĠSw itch
ness et
Ġ14 1
Ġcare ful
Ġcare fully
Ġmod eling
Ġhol ed
Ġhol iest
Ġarrest ing
itt agong
Ġcre pt
Ġsol ic
Ġapprov ing
Ġresp ects
uf thans
ours es
ern el
ĠSy base
Ġperform ing
for cing
ID GE
Ġsk ating
ĠPe irsol
Ġclear ance
ĠAm ir
ĠAm nesty
ĠMed iter
-- --
Ġball oting
Ar m
LE Y
Ġver bal
ĠWe aker
Ġbill ed
Ġpersonal ity
Ġsn ag
Ġqualif ication
IR M
IR S
Ġlo oph
Ġrep urchase
Ġspecial ly
Ġgun battle
ĠCons ortium
Ġcred ited
Ġenv oys
Ġpil ed
uff icient
Ġheavy weights
Ġsom ewhere
Ġbird ied
ĠMil ton
Ġgra v
Ġlight ning
ĠLaw yer
Ġroad map
Pl ugged
Ġclin ches
ĠSol ar
Ġaud itor
Ġbus iest
Ġz oo
Ġdiplom acy
Pro gress
Ġyoung sters
Ġdesc ription
ĠAL H
ĠNets ky
angu ard
Ġmis led
Ġintegr ity
Ġexc luding
ĠOf com
ĠRel ay
ĠNAS D
ias co
Ġhun ted
Ġunl ike
keep er
keep ing
Will iam
Ġdraft ed
Ġbrief ing
Ġcollect ing
Ġcollect ions
Ġattend ance
Ġreserv ations
ĠKey s
Ġmaintain ing
ĠLiber ia
Ġcondem n
Ġerup tion
Ġcold er
ĠRetail er
Ġmos ques
Sil ver
ĠPle a
Br anson
Ġcompens ate
def ine
Ġexpert ise
Ġhur ts
alem ate
Ġintens ify
Acc ounting
Ġdispl ayed
ĠSmart phone
ĠHu y
Ġconver ged
ĠProm pts
cap acity
Rob ert
Ġbowl ers
Ġcasual ty
hem oth
Ec onomic
Ġyield ed
ĠVen etica
Ġcoordin ated
Ġded uct
Ġstir red
ĠBarb ara
Ġcolle ague
Ġdiscip lined
ALI FAX
Ġspirit ual
ĠNation wide
Ġfract ion
ĠCO O
iat ric
Ġtort ured
Ġreop ened
ĠProtest ant
ĠStrug gle
Ġbund led
ĠRac eway
Ġscen ario
Ġsubst ances
ĠWolf sburg
Ġspecif ications
Ġasp ects
Ġphotograph ers
Ġexcess ive
Ġstockp ile
ĠHoly field
ĠRepl ace
Pan thers
Ġdug out
Ġconcent rate
Ġsne ak
ĠOvers eas
Ġexist ence
Ġsubpoena ed
ĠNad al
Ġaccur ate
ĠCP U
opt ic
INN ATI
Ġpattern s
Auss ie
ĠDal ai
Ġoverhe at
Ġprincip al
plan ned
Bern ie
Serv ice
mis phere
Ġhabit at
ĠCham bers
Resc uers
Ġhug ely
Ġcul min
ĠGross man
Democr ats
ĠPriv acy
ĠWend y
Ġsafegu ard
Ġevalu ating
Ġsovereign ty
ĠNy unt
Ġbodygu ards
Ross i
Ġshutt les
Ġorganis ations
ĠAI RES
amib ia
ĠRi yad
ĠGreens boro
Ġfle eing
Ġdictators hip
Ġrehab ilit
Ġrighth ander
errest rial
Ġbehavi our
imat um
INC INNATI
Eri ksson
Mick elson
ubic ic
herald ed
Huy gens
ufthans a
ĠMediter ranean
0 10
1 12
A p
A sh
A WE
B F
B AR
B ody
B anks
B asketball
B rad
C AC
D i
D irect
D iamond
E m
F un
F erguson
G ators
G ovt
H ug
H amilton
J I
K EL
L N
L ee
M at
M oon
M acedon
N ajaf
O range
P le
P av
P ages
P epsiCo
R af
R onald
S ense
S oon
S oviet
V ANCOUVER
W I
b ie
b aston
c am
c ade
d irect
f ell
f aces
f ires
h afi
l en
l op
l ings
l ific
n ic
p d
s old
s eries
t urned
v ia
Ġ icy
in ating
Ġa st
on en
he avy
or ated
or ied
an x
an ova
Ġf ax
Ġf aded
Ġc ro
al ie
Ġw reak
Ġp ork
Ġin ks
Ġm um
ĠS ure
ĠS elf
ĠS ought
ĠS ullivan
ĠS isler
Ġh acked
ĠC red
ĠC TO
om on
ĠA ber
ĠA LEX
ĠT aken
el b
ur ated
ĠM D
ĠM iz
ĠM BA
ĠM RI
Ġn agging
Ġn utrition
ĠP ion
ĠP ALM
Ġl ighter
ig gy
ol ics
ĠB j
ĠB le
ĠB ot
ĠB ros
ĠB ars
ĠB rees
ĠB irth
ĠB owa
ĠB abe
ĠB ACK
ĠB CCI
Ġg ymn
ĠW ife
ĠW anted
Ġst int
ow orld
ĠN ab
est ation
ĠR MC
ĠR iggs
th y
ĠD over
ĠD eng
ĠD ynamics
ĠG RE
ĠG Hz
ĠG reeks
ch ar
ĠH ank
ĠH oy
ĠH ij
ĠH uge
ĠH ONG
ĠH utu
ĠH utchison
Ġat oms
ĠL on
ĠL ets
os ters
ĠE vent
ĠE ST
ĠE ugene
ul atory
ul iani
Ġpro port
Ġpro xy
Ġ1 000
Ġcon gest
ĠJ PM
ĠJ orge
ast ically
ĠSt aples
Re p
ĠK ewell
art ed
if i
ĠCh anged
Ġsp aw
Ġsp ray
Ġsp inner
ĠY es
ĠTh ing
ĠTh rows
Ġover looking
Ġj ails
ong ue
Ġup ped
Ġcl ip
ĠV ANCOUVER
out imi
Ġout lines
Ġac commod
Ġun ified
ĠPr icing
Ġab ortion
ors hip
og a
ber ly
Ġper mit
ect ors
Ġcont end
Ġcont empl
erv ing
iss a
ĠNew man
Ġdis band
Ġacc ounted
oy ing
ĠSh op
her tz
ib b
ĠSp ike
ĠCom mentary
AN E
ind el
ĠLe iter
ĠRe ally
Ġback p
Ġsl ack
Ġsl aughter
Ġdef ault
Ġfl att
Ġsup reme
Ġsup porter
pr ession
Ġpre y
ĠSaturday s
Ġ7 100
ĠPl edge
ath ing
Ġso fter
Ġins ufficient
ĠCl oning
ĠAl leg
Ġnear ed
Ġtri bes
ĠJo achim
Ġbo oster
Ġ8 50
Ġimp er
ĠMar bury
ington es
ipp le
IS E
IS ON
Ġsm arter
EN N
ĠZ afi
Ġfil ings
Ġexpl aining
Ġpe pper
iver t
Ġcourt esy
Ġprot e
Ġ11 2
Ġany time
ĠAss igned
Ġcol ors
ific ance
res p
ĠBr istol
ĠBag well
ĠCar r
ĠWest brook
Ġdirect ions
Sports view
Ġred uces
rib ution
sh ort
ĠAll ow
BC CI
TA IPEI
iff any
Ġcase A
ĠOver haul
Ġbattle field
Ġresp ective
ĠRec ent
UN ICH
ĠCr imes
Ġmor al
Com merce
Ġpolic ymakers
the y
Ġshar per
Ġ0 3
ĠPat rol
ĠPat ients
Ġhealth care
Brit on
ĠBay lor
ĠHol idays
ĠRet urning
Ġfre ight
ĠMer cedes
14 9
Ġlo om
Col in
aud is
Ġspokes person
Ġgun ned
add y
anger ous
ĠPrem inet
ĠBel grade
IP O
Ġweak en
ĠMor rison
ĠMor occan
Mar ks
Mar athon
elph i
Ġlight weight
Ġposition ing
Ġcou ples
Ġcompl aining
Ġdebut ed
Ġtem pt
aut ious
Cl ass
Cl ashes
bur st
cel o
ĠSant ini
Ġdismiss ing
Ġphot ographic
ĠProd ucer
Ġextra v
Ġpromp ts
ĠKh in
ĠVict oria
Ġpers pective
ĠImp erial
ĠHom ers
Ġaccept able
ĠIll ini
ĠMag n
aine ers
ĠBell horn
ĠStorm s
ĠGood en
Ġorgan ic
Ġfr anc
Ġthr illed
ĠBet rusted
Bar richello
ĠMcL aren
ĠRaid s
Ġovert ake
ĠBas el
ĠKey hole
Ġsucceed s
Ġabs ol
Ġstret ches
Ġbi ology
Ġpen insula
Ġbul lets
Ġdeadl ocked
Ġerup ts
ĠLo a
ez man
Ġshel f
zy u
Ġfrust rating
Ġphys ics
Ġexplo ited
ĠLeaders hip
Ġhur led
Ġimplement ed
Don key
Ġem otions
Ġcollabor ating
ĠWater ford
Ġsupposed ly
Ken ya
ĠRyan air
Ġconver ting
ĠEll is
ĠMult iplex
charg es
ĠAB IDJAN
Ġteleph ones
Ġunus ually
ĠLuc as
bro ker
Dem ocratic
ĠSpe aking
Ġrecru ited
Ġfeed s
Ġhar vest
82 17
Ġroy alties
Ġjun gle
Ġrefin eries
ĠSent ence
DU BAI
Ġtopp ling
Ġdisappear ance
WE B
Ġendors ement
Go ing
Bel arus
ĠLog ic
Ġtow ers
ĠHispan ic
Ġunanim ous
Ġsurpass ing
Ġsleep ing
USTR Y
May or
official s
Ġpremium s
Ġsmooth ly
ĠBurn ett
Pad res
ĠBanc orp
Ġcripp ling
ĠWel ch
Ġdeterior ating
oa ib
ĠFidel ity
Ġtrem ors
Ġtum or
Ġnom inees
ĠInn ovation
Nor way
ĠHon or
Ġassum ed
Ġclar ify
Ġwal let
Ġcolon ial
Ġrefund s
AZ N
Prod uct
Ġtrav elling
Ġundersc oring
Ġstif ling
Ġparach ute
Ġparach utes
GRE EN
ĠStel co
ĠEdg baston
ĠFeat ures
Ġrif les
Ġtub e
Ġcraz y
Ġmelt down
ĠFlor idians
Ġexcell ent
tele vision
Ġcontam inated
ĠAlp ine
Ġlod ged
Ġecho ed
INTER VIEW
escrib ed
ĠStal ey
COLUM BUS
Ġsect arian
Creat ive
Ġeffic iency
ĠStein brenner
Ġhumili ating
ĠYugansk neftegaz
ĠAlexand ria
ĠUzbek istan
Jean ne
ĠEurop es
rocod ile
Ġtablo id
ĠChic outimi
ĠCros by
ĠHuy gens
ĠRiyad h
) ;
- \$
1 30
A EL
A iling
B AT
B BI
C ut
C rit
C US
C AT
C iting
C MP
C incinnati
C avaliers
D B
D ix
D ER
D omin
D elphi
F irm
G L
G OL
G errard
H ad
I ce
I celand
J FK
O Q
O uts
P urdue
R U
R ound
T rip
T rain
T eer
V L
V W
V AL
V onage
W olf
W HO
d igital
d isk
d ominated
e ters
f its
h s
h um
h awks
h wag
h annes
k ay
k onen
l it
l asting
m em
n etwork
p it
p ies
p acked
t alk
w ear
w ana
z ar
Ġt ones
er ately
on ter
he et
Ġs inking
Ġs oup
ar ion
Ġf its
Ġc rem
Ġc attle
Ġc afe
Ġw inger
Ġp orts
Ġp umping
Ġb un
Ġb ud
Ġb ands
Ġin adequate
ic ist
as us
Ġm o
Ġm ush
Ġm others
il ation
ĠS uch
ĠS AL
ĠS CH
Ġh i
Ġh ack
Ġh int
ĠC ana
ĠC ertain
ĠC ease
st ars
ent ing
ĠT aps
ĠT outs
ĠT ae
Ġon board
ac ier
ac cess
ur ge
Ġn ail
Ġn aval
ĠP ats
ĠP enalty
ĠP ORT
ĠP ierre
Ġl ob
Ġl over
Ġl ooting
ig s
am ation
Ġre actions
Ġg raphic
day s
us ions
ĠW en
ĠW ounded
ĠF iling
ow ay
ĠN arrow
est on
ĠR ating
th ousand
ĠD iss
ĠD ravid
ra int
ĠU ribe
un ate
un ge
qu ee
ĠG or
ch a
ch in
ĠH Q
ĠH BOS
ĠH erald
Ġan grily
ĠL amp
ĠL enn
ĠL ula
ĠL inz
ĠL isa
os ys
ri arch
oc re
ct ure
ĠJ ab
ĠJ asch
Ġhe misphere
Ġde ported
Ġle af
Ġle aks
Ġwh oles
Ġex odus
Ġch illy
oo q
ĠK linsmann
ĠK nesset
if a
ry ption
Ġover look
Ġj oke
Ġse am
ub b
Ġcl oned
ick ers
ĠV P
ĠV ia
ĠV atican
Ġout door
Ġac company
Ġun beat
Ġun spec
ant ry
Ġint ro
og uchi
ure a
hen ko
Ġcont ests
Ġte eth
anc o
Ġad ware
Ġdis ks
ason ic
orm al
Ġinc lusion
Ġcr us
ĠCor ner
ĠInd ias
AN K
Ġbl is
Ġbl ades
ĠLe ak
Ġback drop
ix es
Ġdef use
Ġdef ying
IN ESS
In st
Ġdes p
Ġme ter
ĠAr rive
Ġli ver
aj an
Ġcap acities
Ġcan n
ult an
Ġrun away
ĠRes istance
ĠCl audio
Ġeconom ist
ĠCon stellation
Ġunder est
Ġunder lined
Ġsign ificance
rov ing
Ġhome owners
ĠSer ious
Ġass ert
ĠRed uce
ik konen
Ġ9 50
Ġsm iles
Ġsw at
Ġsw ir
EN A
EN H
Ġext ent
ots wana
Ġgl orious
ĠWeb b
ale z
used ski
BA E
ĠOff ense
Ġcost ing
Ġpass port
Ġgu est
ĠDe ion
Ġdeb acle
ĠSc ream
ĠX serve
ench ing
ĠSe venth
idn ey
Ġpar agraph
Ġstud ied
uck ing
AM ER
ĠWest field
10 1
Ġgold ATHENS
aul ting
Sh opping
Sh rek
Ġstand still
ĠBo at
ĠEar lier
ĠGr ud
ĠSw atch
ĠHigh lights
Ġmod ule
get own
Ġtrans f
Ġtrans ferred
Ġwhe els
ĠCourt ney
Ġmar ry
Ġequ estrian
raz en
Ġloc als
ern ova
ett i
ID F
ĠPe ak
aff ected
ĠSch midt
Ġ0 8
Ġdist ances
Ġve get
ĠDel io
Ġsem iconductors
asser stein
AD B
Ġinfl ict
UR ITY
Ġpres erved
Al coa
ĠChe chens
comm un
Ġconv ictions
ĠMer ri
Sc ientist
IR G
Ġlo os
12 6
Ġground ed
Ġterm inal
ĠExpl odes
Ġsepar ation
ĠFire wall
Ġcard iovascular
ĠShe a
ĠBuy out
Ġsqu arely
Ġlim iting
hy un
ĠRich ter
Ġsurv ives
Ġcounter feiting
AB UJA
Ġpain t
Ġer ad
ĠGen ome
Ġwind ing
Ġfavor able
Mc G
Ġcreat ure
ĠNor wich
Ġlegisl ature
President ial
ĠBA E
Ġpers ons
Ġspark ling
PH O
ĠHom est
ĠSem in
iction ary
omen on
Ġorganiz er
Ġhon ors
Ġjud o
Ġthr ashed
Gold en
ĠAz eri
Ġele ven
ĠTax es
Ġobserv ations
Ġobserv atory
Sy rian
Ġmal aria
ĠGh azi
Ġinstall ations
Ġshel ved
stra pped
ĠTurn pike
ĠGe ico
Ag encies
Su ites
ĠStrong er
ĠBuff ett
Ġexplo iting
ĠColl abor
ĠPhill ip
ĠSocial ist
Ġdiss idents
Te hran
Ġnecess arily
Ġecl ips
ĠCa uc
Ġdre amed
Ġbrew ing
ĠEric kson
ĠSav ers
ĠSav ings
Ġ197 2
Ġsalv aged
ĠJen in
Cal pers
Ġeditor ial
ĠLock out
ĠPers ia
Ġaf raid
Ġgreet ing
Ġfu elled
ĠSus an
Ġdisrup ting
ĠFer enc
Ġdress ing
ĠStr ength
Ġindef inite
ĠRub ber
nold s
ĠSr inagar
ĠSom alia
ĠEsc apes
ĠCritic ism
Ġpromotion al
des ign
ĠDw yane
ĠCars on
ĠFreed om
ĠGall ery
BE IRUT
ĠSoft bank
ĠAstron aut
Ġgar age
Ġwarl ords
Prot esters
Ġhamp ered
ĠReform s
ĠReported ly
sm all
Ġstabil ize
ĠAer ospace
Hung arian
ĠPred icts
Ġmanip ulation
Leban ese
ĠAx im
ĠRey nolds
Ġphen omenon
compet itive
meg apixel
ĠPier o
ĠUnc ertain
Ġdeser ter
ĠMadd ux
ĠMom ent
Clar ke
Ġscram ble
ĠResp onse
Ġunderst ood
Ġagric ulture
Ġundermin ed
ĠLars son
ĠVeter ans
Ġsuprem acy
Ġintim idation
Child ren
ĠAppro ach
Cop ernic
XT L
orig inal
ĠViz quel
Ġcere al
ĠSK G
Ġrewrit e
Ġhots pots
Step hen
Columb ia
ĠFo ley
Ġhomosex ual
Veter an
bh ajan
Ġpregn ant
Ġstopp age
Ġemph atic
Kl itschko
ĠAmeri Suites
Ġglob ally
Oak land
Ġantenn as
Ġembro iled
ĠChronic le
Plugged In
KEL EY
ĠJasch an
Ġunspec ified
6 75
B in
B EL
B run
C ount
C raig
C INCINNATI
D ON
F el
F act
F acing
F ossil
F AST
G atlin
G AME
J une
J ACKSON
K eeping
K PMG
K ATHMANDU
L anger
L exmark
M Y
M OS
M aker
N XTL
O b
O d
P en
R ival
S ometimes
V X
V EN
V ietnam
V irtual
W eather
Y AD
Z N
b ill
c over
c ester
c enter
d eep
d eath
d umping
g arian
h ers
h appy
j amin
k aid
l ican
l ived
m obile
p aid
r ss
s ell
s ix
t able
t icket
u els
w eary
y oung
Ġt ongue
Ġa ided
Ġs agging
Ġs keleton
ed ay
it ution
at che
Ġf o
Ġf ist
Ġo v
Ġc ave
Ġw art
Ġp our
Ġp ouring
Ġb ang
Ġb ows
Ġb ounty
ic ating
Ġm ens
Ġm mO
Ġm ogul
il ak
ĠS L
le ted
Ġd ign
Ġd ish
Ġd ont
id lp
ĠC ed
ĠC AMP
ĠA ides
ĠA wait
ĠT ip
ĠT out
ĠT ied
ĠT iny
ĠT ogether
el in
ac a
ur ances
ĠM ice
ĠM ile
ad v
ĠP ond
Ġl es
Ġl ops
Ġl agging
Ġl imbo
ig ata
ol z
ĠI stanbul
am is
ĠB iz
ĠB alt
ĠB oys
ĠB orders
Ġst alemate
ĠF ac
ĠF ate
ĠF AT
ĠF letcher
Ġr ational
Ġr ides
Ġr aging
ow der
im ax
ĠD uff
ĠD irk
ra ven
ĠU ph
un u
ĠG ibernau
ĠL N
ĠL igue
ĠE A
ĠE t
ĠE MI
Ġbe am
Ġbe hemoth
ĠO H
ag g
Ġpro lific
oc ity
all ess
Ġde port
um at
ĠIn zamam
Ġle verage
Ġsh adows
Ġwh ip
Ġex ists
Ġch urned
Ġcomp an
ĠK ov
ĠK PMG
Ġag ony
Ġoff ens
Ġoff enses
ĠThe m
Ġal tered
Ġal arming
ĠY u
ĠY am
ĠY um
ere es
Ġj oc
Ġj ock
Ġse g
ans ing
ie ged
Ġcl ips
ĠV f
ĠV HS
Ġquot es
Ġun n
Ġro oft
Ġint end
Ġab uzz
og y
ass ault
ich am
Ġres il
Ġres igning
oll o
Ġsc ared
Ġte ach
Ġte aching
Ġen act
Ġtr imming
iss ance
Ġnot ion
ĠSh ots
ĠSh ining
Ġar bitrator
Ġcr ises
pl er
Ġear s
ey eno
ĠAn alyst
tle t
AS K
ĠLe aving
ĠPro grams
Ġwar fare
Ġdec k
ĠRe ached
ok il
Ġback ward
Ġsl oppy
Ġpol io
ĠEx c
ĠEx per
Ġseason ally
Ġsur charge
lp id
Ġph armaceuticals
ball s
onom a
ĠBl ake
ĠBl amed
ĠBl oom
ĠCl os
ĠCl inch
Ġinter rog
riv ed
ĠFor get
ĠRuss ell
AL O
ĠOlymp ian
Ġass ignment
ĠPh ishing
ax ter
Ġact ress
head ed
Ġfinal ists
Ġbr ush
ech y
ĠAd Sense
EN CE
Ġgl ut
ĠZ ero
ĠZ DNet
af a
ĠApp rentice
Ġsub stitute
Ġinf ecting
Ġprogram mes
ĠAra fats
ĠAra gones
uk emia
ific ent
ustom ed
ĠBr igham
ater no
ĠFall ing
Ġturn over
Ġviol ates
Ġfree ing
Ġcustom s
Ġcustom ized
Sh aq
pe ace
sh ine
sh ares
ĠBu zz
ĠBar ca
Ġbuild ers
ĠSun ny
Ġcase The
ĠPar amount
Ġste ered
Ġdiv isive
ĠSy mbol
ĠDef ensive
aff ar
Ġ25 6
Ġ0 9
ĠPat ches
Brit ons
Ġfar ms
Ġdist ill
EM I
ĠFed erated
ĠSm oltz
Ġnegoti ated
unt led
Ġshut ting
Sc an
ĠKill er
uge ot
Ġey eb
Ġmon ument
ĠReal ity
Ġgener ations
uff s
iber ger
ĠBel mont
OM A
Ġterm inated
Ġworth y
ĠPlan ets
ST E
bo ks
Ġprop el
Ġprop onents
ĠKashmir i
ĠMont i
Ġcou rage
Ġdidn t
THE RE
Ġtot ally
ĠBomb ers
Ġwild ly
Ġclin ics
ĠVal ve
Ġdeep ening
Ġsett ler
Ġpled ging
ĠFound er
Pol and
ĠBen azir
Ġcirc les
ĠRam sey
Ġcreat ures
ffic ient
ĠIN G
ĠSusp end
ĠRel o
Am ong
oura ge
Ġide al
ĠGovernment s
Ġcommon ly
ĠWestern ers
ĠDisc over
erg en
Ġlack ing
Ġorig ins
Ġcrack ing
Ġansw ered
35 400
Des perate
Bar clays
Ġstre ams
ĠGM T
LO W
Ġens uring
ĠMess ier
Ġovert aken
rav ity
Ġinstant ly
ĠRad ical
ĠHass elb
Sy mbol
Ġult imatum
Ġmal ware
ĠSum itomo
ĠGh ana
Mer ger
Ġrelie ve
ĠRoll ins
Dav is
IV E
ĠHy per
Ġgro use
mon ton
ĠProv ide
sl ist
Ġhat red
Ġmob il
David son
eme tery
ĠReview s
ĠEm ile
ĠClear wire
ĠSand y
Ġfrequ ently
Ġescal ated
UA E
Ġhar ass
Ġhar ness
ĠWilliam son
ĠBi omedical
ĠBor land
ĠSuccess or
Ġscan ning
Ġbra ins
ĠAp olog
Ġextrad ited
Ġrefin ery
ĠIr ans
Ġtel escopes
ĠWhe ther
Ġdog ged
Ġbag gage
Earth Link
ĠFleet Center
Ġfaith ful
ĠLarg est
ĠEsc al
ĠSerge y
Ġillness es
Mem ory
Ġgri pped
ĠWithdraw s
ĠRE VIEW
Ġhide out
Ġhook ed
inf oworld
Ow ens
sol aris
Ġskept ics
Ġcateg ories
Ġmerch ants
ĠNi igata
Ġvig ilant
Sales force
ĠBrief s
ĠTreat ment
Ġworkst ation
Pit cairn
ĠConserv ative
Ġinstr uctions
Swed ish
ĠDer by
ĠHok kaid
Ġru ins
Ġsustain able
ĠCreat or
Ġcongrat ulated
ĠSM ART
ARAC HI
spot lights
spot rss
ser ious
Ġinex per
MIL AN
Ġnick el
ĠInit iative
Ġmerc enaries
Ġhistor ical
Ryan air
ĠCham ber
ĠPostp oned
Ġscram jet
Ġturb ulent
Autom akers
sbc spotrss
ĠMead ows
Stri ke
Ġremind ed
ĠHind u
Ġrebuff ed
Ġmultip layer
Ġsid ew
ĠEnh ances
ĠBail ey
ĠDest ro
Imm une
Ġdazz ling
ĠPrinc eton
Buc s
Ġol ive
Jer usalem
ĠSubs id
Ġoutwe ighed
Mas ri
Ġfab ric
ĠThorn ton
compat ible
CMC SA
Ġphr ase
ĠTradem ark
ĠPetrov a
Lou is
onter ra
ĠCana veral
Ġwholes al
YAD H
eyeno ord
35400 7
sbcspotrss feed
. --
4 15
B at
B et
B elt
B ALTIMORE
C as
D id
D HAKA
E UR
F at
F re
F ish
F inding
H er
H um
J akarta
K raft
L oc
L eslie
M oss
M AR
M IT
M IC
M ixed
M ylan
R ate
S n
S and
S um
T alk
U X
W oman
W ells
W inning
Y es
b attered
b ishop
c ertain
c ope
d eal
f ar
f ocused
g one
k it
k ill
k ens
k illed
l oss
l osing
m ic
m ie
m oney
o z
o ks
o oping
s ided
t een
u ivert
v ang
v ale
Ġ ),
Ġt ide
Ġt igers
er ver
on ia
an ic
ar ts
it ar
it ects
at in
at oes
Ġo usts
Ġc asts
Ġc odes
Ġc inema
re port
Ġto ut
Ġto mb
Ġb ribery
Ġin h
ic able
ic ular
Ġm end
Ġm onster
ĠS ic
ĠS gt
ĠS ink
ĠS GI
ĠS chedule
Ġh og
Ġh ubs
Ġh overing
Ġh inges
Ġh abits
le ad
Ġd ock
Ġd iary
Ġd aunting
ĠC rop
st e
st rom
ĠA hold
ĠT ree
ĠT act
ĠT entative
el on
el ance
ac as
ĠM N
ĠM ia
ĠM AT
ĠM ouse
ĠM ald
Ġth riving
Ġfor es
ĠP urch
ĠP eoplesoft
ig gers
ig ma
ot ation
ĠB J
ĠB oo
ĠB ab
ĠB odies
Ġre pt
Ġg ut
Ġg arden
ut tered
Ġe leg
ĠW ine
ĠW ider
ĠW ILL
Ġst oried
ĠF uj
ĠF ather
ĠF argo
ĠF lying
ĠF ernandez
Ġr end
Ġr ang
ow ning
ĠN em
ĠN PR
ĠN orton
ĠN omar
ĠR odgers
ĠR EP
ĠD I
ĠD J
ĠD iplom
ĠD oping
ĠU RL
ch air
ch airman
up ply
up hor
ĠH ugh
ĠH ero
ĠL und
ĠL ives
ĠL arkin
ĠE pson
and i
ĠO bs
ag ine
ri ev
Ġhe ck
Ġv illa
Ġde emed
Ġby e
ft en
ĠSt oud
Ġsh ines
Ġch ill
AP AN
iv ans
ĠK ay
ĠK asuri
Ġag on
Ġpr on
ug es
Ġk ne
ob urn
ip ro
ĠY om
Ġse eded
se ven
ub ens
Ġout line
Ġac comp
Ġun iversal
av ers
ĠMon za
ase y
ber ts
rop ical
Ġsc ales
Ġsc rip
Ġsc orer
ets k
Ġfin anced
erv ation
Ġen cl
ĠSh ake
ĠSh oots
ib re
ĠSp itz
ang ling
ĠAn bar
Ġbl essing
cent ric
gr en
ĠRe ad
ĠRe ading
Ġsl ogan
Ġfl ip
Ġfl esh
Ġcons ent
pr ising
Ġind igenous
ubl es
Ġwhen ever
Ġgo alless
Ġwork place
ĠAr thur
less ly
less ness
Ġec st
ĠPl ants
ĠPl ummer
ne eded
Ġmed iation
ĠRes umes
Ġins ol
ĠAl ou
ĠAl icia
Ġam bus
Ġam nesty
Ġrem nants
Ġsign atures
New ly
ĠOp inion
ĠAustral ias
Ġmanag es
Ch ad
ink y
ai jan
Th rough
Th irty
Ġsm ash
Ġdisc ounted
rew ell
ĠWeb ber
Ġfil tering
Ġstate hood
Ġsub poenas
ret ch
eed way
Ġsell out
Ġfound ing
Ġpar aly
Ġrest itution
Ġ12 9
Ġrev iving
Ġbel oved
res earch
ES A
ĠBr in
ĠBr ig
Ġspace flight
Ġhand led
ĠWar rior
ĠCar roll
Ġadv ers
AM ES
ĠOr bit
Ġref erring
10 2
mail ing
Ġcor respondent
ĠMc Car
Ġred e
Ġred ef
Ġeng aging
ĠBo om
ĠGu ang
ĠAll ows
ĠGr am
ĠNov a
Ġinv ading
Ġinv aded
idd led
ĠEd u
ĠHigh way
Ġmod e
Ġmod erately
Ġbreak fast
[...]
