{"<unk>":0,"!":1,"\"":2,"#":3,"$":4,"%":5,"&":6,"'":7,"(":8,")":9,"*":10,"+":11,",":12,"-":13,".":14,"/":15,"0":16,"1":17,"2":18,"3":19,"4":20,"5":21,"6":22,"7":23,"8":24,"9":25,":":26,";":27,"<":28,"=":29,">":30,"?":31,"@":32,"A":33,"B":34,"C":35,"D":36,"E":37,"F":38,"G":39,"H":40,"I":41,"J":42,"K":43,"L":44,"M":45,"N":46,"O":47,"P":48,"Q":49,"R":50,"S":51,"T":52,"U":53,"V":54,"W":55,"X":56,"Y":57,"Z":58,"[":59,"\\":60,"]":61,"^":62,"_":63,"`":64,"a":65,"b":66,"c":67,"d":68,"e":69,"f":70,"g":71,"h":72,"i":73,"j":74,"k":75,"l":76,"m":77,"n":78,"o":79,"p":80,"q":81,"r":82,"s":83,"t":84,"u":85,"v":86,"w":87,"x":88,"y":89,"z":90,"{":91,"|":92,"}":93,"~":94,"¡":95,"¢":96,"£":97,"¤":98,"¥":99,"¦":100,"§":101,"¨":102,"©":103,"ª":104,"«":105,"¬":106,"®":107,"¯":108,"°":109,"±":110,"²":111,"³":112,"´":113,"µ":114,"¶":115,"·":116,"¸":117,"¹":118,"º":119,"»":120,"¼":121,"½":122,"¾":123,"¿":124,"À":125,"Á":126,"Â":127,"Ã":128,"Ä":129,"Å":130,"Æ":131,"Ç":132,"È":133,"É":134,"Ê":135,"Ë":136,"Ì":137,"Í":138,"Î":139,"Ï":140,"Ð":141,"Ñ":142,"Ò":143,"Ó":144,"Ô":145,"Õ":146,"Ö":147,"×":148,"Ø":149,"Ù":150,"Ú":151,"Û":152,"Ü":153,"Ý":154,"Þ":155,"ß":156,"à":157,"á":158,"â":159,"ã":160,"ä":161,"å":162,"æ":163,"ç":164,"è":165,"é":166,"ê":167,"ë":168,"ì":169,"í":170,"î":171,"ï":172,"ð":173,"ñ":174,"ò":175,"ó":176,"ô":177,"õ":178,"ö":179,"÷":180,"ø":181,"ù":182,"ú":183,"û":184,"ü":185,"ý":186,"þ":187,"ÿ":188,"Ā":189,"ā":190,"Ă":191,"ă":192,"Ą":193,"ą":194,"Ć":195,"ć":196,"Ĉ":197,"ĉ":198,"Ċ":199,"ċ":200,"Č":201,"č":202,"Ď":203,"ď":204,"Đ":205,"đ":206,"Ē":207,"ē":208,"Ĕ":209,"ĕ":210,"Ė":211,"ė":212,"Ę":213,"ę":214,"Ě":215,"ě":216,"Ĝ":217,"ĝ":218,"Ğ":219,"ğ":220,"Ġ":221,"ġ":222,"Ģ":223,"ģ":224,"Ĥ":225,"ĥ":226,"Ħ":227,"ħ":228,"Ĩ":229,"ĩ":230,"Ī":231,"ī":232,"Ĭ":233,"ĭ":234,"Į":235,"į":236,"İ":237,"ı":238,"Ĳ":239,"ĳ":240,"Ĵ":241,"ĵ":242,"Ķ":243,"ķ":244,"ĸ":245,"Ĺ":246,"ĺ":247,"Ļ":248,"ļ":249,"Ľ":250,"ľ":251,"Ŀ":252,"ŀ":253,"Ł":254,"ł":255,"Ń":256,"Ġt":257,"in":258,"er":259,"Ġa":260,"on":261,"he":262,"es":263,"Ġs":264,"or":265,"an":266,"Ġthe":267,"ed":268,"en":269,"ar":270,"it":271,"at":272,"Ġf":273,"Ġo":274,"Ġc":275,"ing":276,"al":277,"Ġw":278,"re":279,"Ġp":280,"Ġto":281,"Ġb":282,"is":283,"Ġin":284,"ic":285,"ro":286,"as":287,"Ġof":288,"Ġm":289,"ay":290,"il":291,"ĠS":292,"nd":293,"Ġh":294,"ion":295,"ter":296,"le":297,"Ġd":298,"ou":299,"id":300,"ĠC":301,"om":302,"st":303,"ĠA":304,"ent":305,"ĠT":306,"Ġand":307,"Ġon":308,"et":309,"el":310,"ac":311,"ur":312,"ĠM":313,"Ġth":314,"ec":315,"ad":316,"Ġfor":317,"Ġn":318,"ĠP":319,"Ġl":320,"ig":321,"ol":322,"ĠI":323,"am":324,"ot":325,"ĠB":326,"ir":327,"Ġre":328,"Ġg":329,"ut":330,"Ġe":331,"ers":332,"Ġ-":333,"Ġ#":334,"day":335,"us":336,"39":337,"ve":338,"ill":339,"ĠW":340,"Ġst":341,"ĠF":342,"Ġr":343,"ow":344,"Ġ(":345,"ĠN":346,"est":347,"Ġit":348,"im":349,"ĠR":350,"th":351,"ver":352,"ĠD":353,"ra":354,"ation":355,"ĠU":356,"un":357,"ly":358,"qu":359,"ĠG":360,"ts":361,"ch":362,"up":363,"ith":364,"ew":365,"ĠH":366,"ear":367,"Ġan":368,"Ġat":369,"ĠL":370,"ce":371,"os":372,"ak":373,"ĠE":374,"igh":375,"Ġbe":376,"ul":377,"Ġas":378,"and":379,"ĠO":380,"Ġthat":381,"Ġwith":382,"ag":383,"ri":384,"em":385,"ld":386,"ters":387,"op":388,"ess":389,"Ġpro":390,"Ġcom":391,"ain":392,"Ġ1":393,"Ġis":394,"Ġy":395,"oc":396,"Ġsa":397,"ks":398,"Ġcon":399,"Ġits":400,"'s":401,"ct":402,"all":403,"ian":404,"ap":405,"Ġ2":406,"ĠJ":407,"Ġhe":408,"00":409,"Ġv":410,"Ġde":411,"ate":412,"uters":413,"ast":414,"Ġsaid":415,"um":416,"ĠIn":417,"Ġby":418,"ft":419,"ore":420,"ies":421,"ia":422,"ost":423,"our":424,"end":425,"Ġhas":426,"por":427,"Ġle":428,"rom":429,"ee":430,"ĠSt":431,"Re":432,"Ġsh":433,"Ġqu":434,"Ġwh":435,"Ġex":436,"ight":437,"Ġpl":438,"ust":439,"Ġch":440,"oo":441,"AP":442,"ack":443,"Ġcomp":444,"Reuters":445,"und":446,"Ġfrom":447,"ist":448,"ment":449,"iv":450,"ity":451,"ĠK":452,"ard":453,"art":454,"Ġag":455,"ial":456,"pp":457,"if":458,"Ġpr":459,"oun":460,"Ġoff":461,"fter":462,"..":463,"esday":464,"ĠThe":465,"ine":466,"ug":467,"ive":468,"Ġhis":469,"ud":470,"ell":471,"Ġwill":472,"Ġk":473,"ĠCh":474,"Ġwas":475,"ted":476,"ave":477,"lt":478,"ry":479,"gt":480,"Ġal":481,"ab":482,"Ġnew":483,"ord":484,"Ġsp":485,"ob":486,"Ġafter":487,"ice":488,"ip":489,"oft":490,"The":491,"ĠY":492,"ĠTh":493,"Ġover":494,"mer":495,"ere":496,"Ġj":497,"Ġfir":498,"Ġse":499,"Ġwor":500,"ff":501,"ions":502,"arg":503,"ould":504,"ace":505,"se":506,"are":507,"ans":508,"ie":509,"ub":510,"ong":511,"ĠFr":512,"Ġup":513,"ning":514,"ays":515,"\\$":516,"Ġcl":517,"Ġhave":518,"ick":519,"old":520,"any":521,"ĠV":522,"uc":523,"Ġyear":524,"tern":525,"out":526,"Ġtheir":527,"wo":528,"Ġare":529,"ue":530,"Ġout":531,"ĠUS":532,"ame":533,"ge":534,"Ġac":535,"Ġ\\$":536,"ome":537,"Ġquot":538,"ail":539,"illion":540,"Ġun":541,"ke":542,"over":543,"Ġsec":544,"ide":545,"Ġro":546,"ign":547,"ant":548,"ident":549,"ree":550,"ile":551,"ros":552,"ark":553,"ex":554,"ime":555,"od":556,"ĠPr":557,"ire":558,"Ġexp":559,"ond":560,"raq":561,"Ġint":562,"Ġab":563,"ep":564,"ors":565,"og":566,"ake":567,"ens":568,"Ġfirst":569,"av":570,"own":571,"ĠMon":572,"ass":573,"ich":574,"Ġres":575,"Ġtwo":576,"ish":577,"amp":578,"age":579,"ices":580,"ase":581,"ĠUn":582,"urs":583,"ĠIraq":584,"com":585,"ations":586,"ON":587,"eek":588,"ber":589,"one":590,"port":591,"Ġ200":592,"Ġop":593,"oll":594,"Ġ--":595,"ates":596,"ure":597,"row":598,"Ġagain":599,"ary":600,"Ġper":601,"rop":602,"Ġmore":603,"ect":604,"hen":605,"Ġbut":606,"iday":607,"esident":608,"ther":609,"act":610,"Ġlead":611,"Ġcont":612,"Ġsc":613,"ach":614,"Ġ3":615,"Ġrec":616,"edn":617,"ets":618,"Ġfin":619,"ote":620,"ednesday":621,"erv":622,"ĠMonday":623,"ance":624,"...":625,"uesday":626,"Ġte":627,"hn":628,"hed":629,"rit":630,"ĠWednesday":631,"ov":632,"Ġwin":633,"ursday":634,"ĠTuesday":635,"ory":636,"Ġen":637,"iz":638,"mp":639,"Ġtr":640,"ank":641,"lect":642,"ĠInc":643,"ĠThursday":644,"ite":645,"Ġcompany":646,"anc":647,"iss":648,"aw":649,"Ġthis":650,"Ġnot":651,"Ġad":652,"ĠNew":653,"ence":654,"ull":655,"ade":656,"Ġdis":657,"ated":658,"ational":659,"arter":660,"ĠFriday":661,"ash":662,"ous":663,"ict":664,"vest":665,"ount":666,"ood":667,"Ġone":668,"eop":669,"ited":670,"ock":671,"earch":672,"ork":673,"ort":674,"Ġagainst":675,"icros":676,";/":677,"OR":678,"Ġapp":679,"Ġthan":680,"ester":681,"eople":682,"urn":683,"etw":684,"ican":685,"Ġinto":686,"Ġus":687,"oin":688,"ason":689,"gh":690,"ound":691,"Ġweek":692,"Ġlast":693,"esterday":694,"Ġacc":695,"oy":696,"orm":697,"ush":698,"Ġwho":699,"ven":700,"Ġyesterday":701,"ĠSh":702,"Ġabout":703,"Ġplay":704,"Ġinc":705,"icrosoft":706,"als":707,"Ġar":708,"Ġcr":709,"ĠCor":710,"her":711,"man":712,"ib":713,"Ġwere":714,"roup":715,"eb":716,"Ġthey":717,"Ġoffic":718,"Ġann":719,"Ġall":720,"land":721,"overn":722,"Ġatt":723,"pl":724,"ware":725,"oss":726,"ina":727,"Ġbeen":728,"Ġear":729,"ext":730,"ĠInd":731,"Ġim":732,"Ġworld":733,"ition":734,"ocks":735,"ĠSp":736,"Ġor":737,"reat":738,"vel":739,"ey":740,"ical":741,"its":742,"Ġman":743,"ĠCom":744,"Ġ4":745,"yst":746,"ird":747,"uct":748,"AN":749,"ĠIntern":750,"Ġhigh":751,"eat":752,"ang":753,"ton":754,"ll":755,"Ġmillion":756,"Ġhad":757,"Ġstr":758,"Ġmark":759,"Ġthree":760,"ind":761,"Ġkill":762,"ĠCorp":763,"eral":764,"ced":765,"overnment":766,"ĠAn":767,"ral":768,"onth":769,"ower":770,"Ġ&":771,"Qu":772,"Ġret":773,"tle":774,"ose":775,"Ġbl":776,"ĠIs":777,"ook":778,"hes":779,"ased":780,"cent":781,"ilit":782,"ise":783,"Ġ6":784,"uss":785,"AS":786,"gr":787,"line":788,"ected":789,"ting":790,"urity":791,"unday":792,"Ġofficial":793,"US":794,"ĠLe":795,"ĠPro":796,"ĠSunday":797,"Ġwar":798,"ines":799,"Ġdec":800,"urop":801,"Ġwould":802,"ĠRe":803,"Ġteam":804,"AF":805,"ok":806,"urope":807,"Ġback":808,"Ġend":809,"Ġoil":810,"ix":811,"az":812,"ating":813,"ove":814,"olog":815,"Ġserv":816,"Ġcould":817,"able":818,"Ġsl":819,"ĠSat":820,"Ġfour":821,"ely":822,"Ġdef":823,"Ġannoun":824,"ĠAmer":825,"Ġfl":826,"ports":827,"ph":828,"ugh":829,"Ġgovernment":830,"Ġbu":831,"IN":832,"Ġsecond":833,"Ġset":834,"ĠUnited":835,"ics":836,"ox":837,"Ġpol":838,"ĠAs":839,"Ġwhich":840,"Ġyears":841,"ales":842,"iness":843,"oftware":844,"Ġcons":845,"AFP":846,"ons":847,"ents":848,"Ġmak":849,"Ġsup":850,"ĠEx":851,"EW":852,"Ġtoday":853,"Ġpeople":854,"Ġmonth":855,"Ġco":856,"usiness":857,"ron":858,"ww":859,"In":860,"inis":861,"ows":862,"Ġplan":863,"orld":864,"pr":865,"Ġelect":866,"Ġind":867,"ubl":868,"tt":869,"ĠĠ":870,"Ġdes":871,"Ġprices":872,"air":873,"echn":874,"ĠEn":875,"Ġpercent":876,"ĠEurope":877,"Ġseason":878,"ah":879,"hip":880,"Ġ5":881,"ital":882,"ins":883,"Ġdown":884,"Ġwhen":885,"ier":886,"enc":887,"Ġsays":888,"Ġpart":889,"urday":890,"Ġquarter":891,"Ġnext":892,"Ġme":893,"uch":894,"Ġsur":895,"Ġtime":896,"les":897,"Ġpre":898,"ystem":899,"Ġgo":900,"ef":901,"ĠSaturday":902,"ally":903,"lp":904,"Ġnight":905,"ĠPresident":906,"atch":907,"ement":908,"ings":909,"Ġwork":910,"Ġreg":911,"Ġcount":912,"Ġgame":913,"ĠAr":914,"ief":915,"apan":916,"Ġli":917,"Ġthird":918,"Ġph":919,"Ġinvest":920,"Ġ7":921,"ild":922,"ecut":923,"aj":924,"ists":925,"Ġprod":926,"ball":927,"aun":928,"ĠCo":929,"ged":930,"onom":931,"Ġbec":932,"inister":933,"ORK":934,"uring":935,"ĠYORK":936,"echnolog":937,"Ġmarket":938,"under":939,"pt":940,"Ġrecord":941,"ĠBl":942,"Ġvict":943,"Ġcap":944,"Ġmay":945,"ran":946,"Ġne":947,"orn":948,"Ġsoftware":949,"form":950,"Ġmilit":951,"cess":952,"omb":953,"ied":954,"ough":955,"ms":956,"Ġcan":957,"err":958,"ustral":959,"ision":960,"Ġprof":961,"=\"":962,"ars":963,"ult":964,"Ġhelp":965,"Ġ10":966,"rael":967,"ames":968,"eal":969,"oot":970,"ger":971,"Ġrele":972,"St":973,"Ġopen":974,"Ġbusiness":975,"Ġ2004":976,"els":977,"ĠAf":978,"ned":979,"less":980,"ner":981,"Ġannounced":982,"eld":983,"ourt":984,"ĠMicrosoft":985,"lear":986,"Ġec":987,"uter":988,"app":989,"ĠPl":990,"Ġagre":991,"000":992,"ported":993,"ĠInternet":994,"use":995,"Ġdeal":996,"Ġconf":997,"Ġsome":998,"Ġrun":999,"Ġgroup":1000,"ĠBrit":1001,"Quote":1002,"Ġbig":1003,"Ġbillion":1004,"ne":1005,"Ġlarg":1006,"urr":1007,"ath":1008,"Ġdo":1009,"ĠWorld":1010,"ands":1011,"Ġtop":1012,"outh":1013,"rough":1014,"ones":1015,"AT":1016,"ble":1017,"Ġcall":1018,"istan":1019,"Ġsecurity":1020,"led":1021,"ica":1022,"rac":1023,"Ġtake":1024,"Ġmed":1025,"ĠAir":1026,"Ġmost":1027,"io":1028,"year":1029,"eep":1030,"RE":1031,"ares":1032,"ious":1033,"Ġso":1034,"Ġpresident":1035,"inu":1036,"ĠRes":1037,"een":1038,"Ġins":1039,"ĠCl":1040,"Ġcar":1041,"Ġtarg":1042,"Ġsay":1043,"ĠJapan":1044,"ĠAl":1045,"ĠIt":1046,"ces":1047,"Ġtal":1048,"Ġeconom":1049,"Ġam":1050,"echnology":1051,"Ġstart":1052,"ague":1053,"ward":1054,"round":1055,"ert":1056,"ĠCon":1057,"ince":1058,"Ġvictory":1059,"Ġinter":1060,"iam":1061,"Ġother":1062,"Ġunder":1063,"Ġnear":1064,"Ġrem":1065,"Ġkilled":1066,"Ġgrow":1067,"Ġtri":1068,"acks":1069,"Ġday":1070,"Ġair":1071,"Ġcomm":1072,"gle":1073,"ĠJo":1074,"aim":1075,"ony":1076,"ives":1077,"Ġofficials":1078,"Ġsign":1079,"ield":1080,"ĠChina":1081,"ajor":1082,"Ġreported":1083,"Ġsales":1084,"ĠBush":1085,"Ġbo":1086,"ual":1087,"ures":1088,"co":1089,"ampions":1090,"vent":1091,"anad":1092,"riv":1093,"Ġwe":1094,"ept":1095,"ER":1096,"ants":1097,"etwork":1098,"ĠPal":1099,"orth":1100,"other":1101,"ĠFl":1102,"ĠSec":1103,"Ġoffer":1104,"rug":1105,"lymp":1106,"ĠCup":1107,"ING":1108,"inian":1109,"lud":1110,"Ġhead":1111,"Ġlaun":1112,"velop":1113,"Ġcut":1114,"ient":1115,"nings":1116,"Ġoper":1117,"alif":1118,"Ġcountry":1119,"ool":1120,"rov":1121,"Ġ\"":1122,"New":1123,"Ġplans":1124,"Ġtarget":1125,"ities":1126,"Ġprov":1127,"ĠOp":1128,"ĠFor":1129,"ling":1130,"BM":1131,"fore":1132,"ĠRuss":1133,"ĠAustral":1134,"way":1135,"Ġjust":1136,"Ġget":1137,"ĠComm":1138,"Ġ19":1139,"ĠEuropean":1140,"ops":1141,"usp":1142,"Ġhome":1143,"Ġbefore":1144,"usic":1145,"estinian":1146,"Ġdem":1147,"gan":1148,"gy":1149,"ium":1150,"Ġlaw":1151,"Ġmanag":1152,"Ġbuy":1153,"Ġ8":1154,"ederal":1155,"ency":1156,"ĠNo":1157,"gest":1158,"oogle":1159,"Ġshow":1160,"AL":1161,"Ġser":1162,"ck":1163,"ĠOlymp":1164,"Ġimp":1165,"ĠStates":1166,"ember":1167,"su":1168,"ĠMinister":1169,"ission":1170,"ording":1171,"ange":1172,"ĠSer":1173,"Ch":1174,"Ġass":1175,"Ġtak":1176,"ĠPh":1177,"cer":1178,";...":1179,"Ġlong":1180,"Ġjob":1181,"ax":1182,"Ġact":1183,"ĠMar":1184,";...&":1185,"ĠYork":1186,"ĠIsrael":1187,"Ġbro":1188,"Ġno":1189,"Ġsystem":1190,"Ġcharg":1191,"Ġreport":1192,"ĠRed":1193,"\"&":1194,"ury":1195,"AR":1196,"ink":1197,"Ġnews":1198,"ington":1199,"Ġtra":1200,"Microsoft":1201,"head":1202,"Ġformer":1203,"icker":1204,"ĠNEW":1205,"Ġhost":1206,"to":1207,"obile":1208,"iant":1209,"wn":1210,"TON":1211,"ĠAmerican":1212,"Ġkn":1213,"Ġtro":1214,"Ġfinal":1215,"Ġyou":1216,"reak":1217,"Ġbr":1218,"Ġsu":1219,"anies":1220,"Ġbid":1221,"med":1222,"enn":1223,"ech":1224,"ĠJohn":1225,"thern":1226,"Ġinclud":1227,".,":1228,"Ġwon":1229,"Ġrel":1230,"ump":1231,"Ġfive":1232,"ik":1233,"Ġbank":1234,"Ġtechnology":1235,"fo":1236,"Ġleast":1237,"ĠAd":1238,"Ġmade":1239,"ata":1240,"ese":1241,"ause":1242,"ipp":1243,"ular":1244,"ublic":1245,"Ġhim":1246,"etween":1247,"Ġpoin":1248,"ĠAt":1249,"ending":1250,"Ġpost":1251,"Ġmajor":1252,"Ġher":1253,"Ġdevelop":1254,"Ġ9":1255,"ense":1256,"Ġhit":1257,"Ġindust":1258,"Ġmake":1259,"Ġbomb":1260,"ched":1261,"Ġmaker":1262,"ĠProf":1263,"erm":1264,"Ġlat":1265,"IS":1266,"ollar":1267,"ai":1268,"Ġeff":1269,"Ġbetween":1270,"Ġexecut":1271,"ady":1272,"Th":1273,"Ġchief":1274,"Ġsm":1275,"Ġlargest":1276,"error":1277,"Ġincre":1278,"Ġsw":1279,"ears":1280,"Ġthem":1281,"ĠPalestinian":1282,"Ġprogr":1283,"//":1284,"ising":1285,"iew":1286,"Ġduring":1287,"Ġdisc":1288,"ĠEng":1289,"Ġprofit":1290,"://":1291,"ised":1292,"ttp":1293,"66":1294,"Ġreb":1295,"Ġif":1296,"Ġthrough":1297,"ards":1298,"ley":1299,"Ġcompanies":1300,"http":1301,"Ġclaim":1302,"ouse":1303,"ashington":1304,"Ġtalks":1305,"Ġwhat":1306,"Ġaccording":1307,"ful":1308,"Ġhop":1309,"EN":1310,"Ġpay":1311,"fer":1312,"rew":1313,"Ġext":1314,"ots":1315,"ains":1316,"Ġtest":1317,"gin":1318,"ivers":1319,"Ġadd":1320,"eeks":1321,"Ġgl":1322,"ĠWeb":1323,"ĠZ":1324,"Ġra":1325,"Ġservice":1326,"rem":1327,"ered":1328,"ale":1329,"Ġsusp":1330,"Ġanother":1331,"ĠIraqi":1332,"raw":1333,"Ġbat":1334,"Ġcoach":1335,"Ġleader":1336,"ireless":1337,"Ġloss":1338,"www":1339,"alf":1340,"ĠBritish":1341,"Ġnow":1342,"ages":1343,"uction":1344,"ty":1345,"uclear":1346,"Ġintern":1347,"ract":1348,"Ġexpected":1349,"ĠOct":1350,"Ġaut":1351,"af":1352,"ĠApp":1353,"Ġsix":1354,"ution":1355,"rup":1356,"Ġgiant":1357,"Ġfil":1358,"owing":1359,"ĠLeague":1360,"used":1361,"BA":1362,"Ġinj":1363,"Ġstri":1364,"ility":1365,"Ġexpl":1366,"Ġmeet":1367,"Ġsearch":1368,"ns":1369,"Ġpe":1370,"ications":1371,"info":1372,"ticker":1373,"reuters":1374,"ects":1375,"ĠIndia":1376,"REF":1377,"eneral":1378,"Ġtele":1379,"ĠHREF":1380,"Ġleft":1381,"ĠCol":1382,"ife":1383,"erry":1384,"ĠOff":1385,"ĠUp":1386,"Ġ20":1387,"akistan":1388,"'t":1389,"Ġattack":1390,"Ġpower":1391,"Ġstate":1392,"Ġproduc":1393,"pos":1394,"Ġcost":1395,"Ġway":1396,"ured":1397,"son":1398,"Ġsub":1399,"ret":1400,"eed":1401,"ading":1402,"Ġsince":1403,"Ġdel":1404,"Ġthreat":1405,"Ġpass":1406,"ĠSept":1407,"ĠTr":1408,"Ġgu":1409,"back":1410,"CO":1411,"Ġstill":1412,"ĠOpen":1413,"Ġwhile":1414,"Ġriv":1415,"ĠDe":1416,"50":1417,"Ġinf":1418,"iver":1419,"Ġmiss":1420,"Ġcourt":1421,"Ġbeing":1422,"Ġprot":1423,"Ġmov":1424,"Ġsell":1425,"Ġmove":1426,"Ġstrong":1427,"Ġearly":1428,"Ġindustry":1429,"Ġcamp":1430,"Ġfound":1431,"Ġpolice":1432,"Ġamp":1433,"ights":1434,"mb":1435,"ments":1436,"vestor":1437,"asp":1438,"str":1439,"bers":1440,"Ġant":1441,"uel":1442,"off":1443,"ĠBe":1444,"Ġ11":1445,"Ġreturn":1446,"EL":1447,"Ġmusic":1448,"Ġdead":1449,"arm":1450,"down":1451,"ĠSouth":1452,"min":1453,"Ġput":1454,"ghan":1455,"Ġany":1456,"ress":1457,"ism":1458,"ĠGroup":1459,"Ġshare":1460,"Ġagreed":1461,"Ġprogram":1462,"ĠAg":1463,"Ġdeb":1464,"racle":1465,"ĠAra":1466,"ĠAss":1467,"ĠSc":1468,"ison":1469,"par":1470,"Ġmilitary":1471,"ries":1472,"date":1473,"be":1474,"obal":1475,"iol":1476,"tel":1477,"ĠX":1478,"Ġ'":1479,"Ġcent":1480,"DA":1481,"Ġmonths":1482,"ator":1483,"ĠComp":1484,"aza":1485,"ĠInternational":1486,"rupt":1487,"oon":1488,"ench":1489,"Ġi":1490,"Ġcol":1491,"ĠSox":1492,"Ġelection":1493,"full":1494,"ys":1495,"Ġever":1496,"stocks":1497,"Full":1498,"ches":1499,"uk":1500,"INGTON":1501,"ĠKore":1502,"quick":1503,"Ġlook":1504,"ators":1505,"ĠSe":1506,"ĠChampions":1507,"idn":1508,"Ġgrowth":1509,"quote":1510,"investor":1511,"Ġdays":1512,"=/":1513,"Ġrul":1514,"aspx":1515,"fullquote":1516,"FullQuote":1517,"quickinfo":1518,"Ġonly":1519,"ves":1520,"ource":1521,"ific":1522,"indows":1523,"Ġ...":1524,"Ġnuclear":1525,"Ġpar":1526,"An":1527,"ible":1528,"Ġbecause":1529,"Ġcomputer":1530,"Ġterror":1531,"ĠPrime":1532,"Ġsold":1533,"ises":1534,"ĠOn":1535,"oci":1536,"Ġclos":1537,"Ġeven":1538,"ross":1539,"ASH":1540,"Ġdrug":1541,"reet":1542,"Ġrest":1543,"Ġ12":1544,"urg":1545,"oth":1546,"Ġmin":1547,"tain":1548,"sp":1549,"OS":1550,"erson":1551,"ĠNorth":1552,"Ġonline":1553,"ored":1554,"ĠBank":1555,"put":1556,"Ġnum":1557,"rest":1558,"ips":1559,"irect":1560,"Ġmobile":1561,"ootball":1562,"Ġhold":1563,"ustom":1564,"urrican":1565,"ider":1566,"iers":1567,"pite":1568,"ĠWith":1569,"Soft":1570,"Ġphone":1571,"red":1572,"int":1573,"ĠWill":1574,"ude":1575,"Ġresearch":1576,"ASHINGTON":1577,"Ġfoll":1578,"Ġleg":1579,"Ġbeat":1580,"anadian":1581,"ĠOlympic":1582,"Ġservices":1583,"ĠMan":1584,"ĠUN":1585,"Ġincluding":1586,"leg":1587,"Ġfall":1588,"ĠWindows":1589,"Ġrev":1590,"Ġbel":1591,"enter":1592,"my":1593,"ĠState":1594,"amil":1595,"ĠAb":1596,"ĠAfr":1597,"Ġstud":1598,"ĠGre":1599,"res":1600,"let":1601,"ative":1602,"ĠCalif":1603,"Ġthere":1604,"cl":1605,"ES":1606,"Ġspec":1607,"ĠBr":1608,"Ġshould":1609,"hd":1610,"Ġplayers":1611,"ater":1612,"chool":1613,"Ġago":1614,"Ġlatest":1615,"Ġconsum":1616,"ĠDav":1617,"hel":1618,"Ġjoin":1619,"Ġearnings":1620,"Ġhigher":1621,"NEW":1622,"ĠAfghan":1623,"ĠFall":1624,"Ġspace":1625,"Ġlike":1626,"Ġhand":1627,"ĠBag":1628,"Ġface":1629,"ĠOil":1630,"ĠWar":1631,"ida":1632,"Ġfirm":1633,"raft":1634,"eopleSoft":1635,"based":1636,"Ġretail":1637,"Ġpoints":1638,"ĠCar":1639,"Ġkeep":1640,"TO":1641,"uck":1642,"Ġreleased":1643,"hdad":1644,"Ġcity":1645,"Ġkey":1646,"Ġnation":1647,"Ġadv":1648,"Ġmany":1649,"Ġbiggest":1650,"AM":1651,"ene":1652,"Ġrose":1653,"ĠNational":1654,"ĠHe":1655,"Ġfut":1656,"Ġbar":1657,"ĠBut":1658,"Ġcompet":1659,"iting":1660,"Ġneed":1661,"ores":1662,"Ġfight":1663,"Ġstock":1664,"ideo":1665,"Ġpublic":1666,"oston":1667,"ĠWh":1668,"Ġturn":1669,"quarter":1670,"Ġshares":1671,"Ġmem":1672,"Ġmuch":1673,"lin":1674,"ĠWest":1675,"Ġgames":1676,"Ġtit":1677,"ĠGaza":1678,"ott":1679,"Ġdata":1680,"imes":1681,"Ġround":1682,"ĠOr":1683,"ĠPC":1684,"ĠAnd":1685,"Ġacqu":1686,"ior":1687,"Ġfell":1688,"Ġviol":1689,"Ġfree":1690,"Ġpeace":1691,"der":1692,"ĠGoogle":1693,"36":1694,"ize":1695,"For":1696,"ike":1697,"Ġche":1698,"Ġdou":1699,"Ġref":1700,"Ġ2005":1701,"OND":1702,"Ġrecent":1703,";&":1704,"Ġcustom":1705,"Ġtroops":1706,"Ġstocks":1707,"udan":1708,"EC":1709,"Ġvers":1710,"ĠEngland":1711,"ĠBaghdad":1712,"10":1713,"ply":1714,"ended":1715,"ĠNetwork":1716,"ancial":1717,"ĠSan":1718,"Ġgold":1719,"Ġusers":1720,"osition":1721,"inux":1722,"Up":1723,"uts":1724,"Ġfail":1725,"Ġvis":1726,"ĠPakistan":1727,"Ġheld":1728,"aul":1729,"ĠWashington":1730,"ĠAustralia":1731,"eng":1732,"Ġpast":1733,"ians":1734,"so":1735,"Ġav":1736,"Ġwom":1737,"Ġpolit":1738,"Ġsuc":1739,"Ġown":1740,"aign":1741,"ONDON":1742,"Ġinternational":1743,"ĠAug":1744,"oods":1745,"Ġfourth":1746,"Ġcontract":1747,"ĠDec":1748,"Ġcontinu":1749,"Sh":1750,"Ġahead":1751,"Ġline":1752,"istr":1753,"pe":1754,"ats":1755,"Ġfac":1756,"igital":1757,"iving":1758,"Ġrelease":1759,"Ġregion":1760,"Ġord":1761,"ĠSup":1762,"rel":1763,"mail":1764,"hor":1765,"elt":1766,"ASA":1767,"Ġdev":1768,"ized":1769,"Ġeconomy":1770,"rol":1771,"Ġweeks":1772,"Ġdemand":1773,"ĠMich":1774,"Ġcor":1775,"Ġdirect":1776,"It":1777,"Sports":1778,"Ġprice":1779,"Is":1780,"Ġwhere":1781,"ĠTe":1782,"iger":1783,"ĠDar":1784,"oney":1785,"Ġleaders":1786,"Ġtrade":1787,"ĠĠĠ":1788,"Ġhom":1789,"isco":1790,"ĠMc":1791,"Ġred":1792,"ases":1793,"Ġreports":1794,"Ġlaunch":1795,"rib":1796,"opp":1797,"Ġsupport":1798,"Ġexecutive":1799,"ĠResearch":1800,"Ġforces":1801,"Ġstand":1802,"loy":1803,"Ġgr":1804,"ober":1805,"ĠPress":1806,"Ġhalf":1807,"Ġposs":1808,"Ġhow":1809,"Ġprocess":1810,"Ġeng":1811,"Ġban":1812,"Ġ15":1813,"ĠBo":1814,"aker":1815,"Ġconcer":1816,"ject":1817,"ĠGu":1818,"Ġ18":1819,"Ġpress":1820,"itch":1821,"sh":1822,"ĠIsraeli":1823,"Ġpresidential":1824,"ĠAssoci":1825,"IT":1826,"Ġuse":1827,"fur":1828,"Ġfederal":1829,"ĠStreet":1830,"EO":1831,"ham":1832,"ends":1833,"Ġeconomic":1834,"lo":1835,"ĠIran":1836,"fat":1837,"IBM":1838,"Ġboost":1839,"erve":1840,"eor":1841,"Ġform":1842,"Ġstra":1843,"Ġbet":1844,"Ġenter":1845,"ientists":1846,"ask":1847,"Ġhist":1848,"ided":1849,"orida":1850,"ĠAll":1851,"Ġmain":1852,"ĠBoston":1853,"Ġemp":1854,"ĠAfter":1855,"urricane":1856,"ĠEar":1857,"Ġnumber":1858,"Ġdollar":1859,"elf":1860,"ees":1861,"Ġyour":1862,"Ġinvestig":1863,"Ġrival":1864,"Ġopp":1865,"Ġtook":1866,"Ġright":1867,"Ġlower":1868,"ĠBu":1869,"ults":1870,"BC":1871,"lim":1872,"Ġtry":1873,"ann":1874,"ĠLinux":1875,"atic":1876,"hold":1877,"Ġlow":1878,"Ġrece":1879,"Ġtitle":1880,"ying":1881,"Ġhard":1882,"ĠGr":1883,"Ġev":1884,"inn":1885,"riz":1886,"Ġjobs":1887,"ĠAmerica":1888,"ought":1889,"Ġmen":1890,"Ġnearly":1891,"Ġcalled":1892,"Ġdeath":1893,"Ġinvestors":1894,"veil":1895,"alt":1896,"Update":1897,"ĠQ":1898,"anke":1899,"ĠSw":1900,"ĠMay":1901,"Ġinterest":1902,"Ġseries":1903,"Ġused":1904,"ĠBar":1905,"pped":1906,"ĠRussian":1907,"Ġsever":1908,"Ġfind":1909,"ness":1910,"ĠOut":1911,"ĠQu":1912,"Ġseven":1913,"ĠNov":1914,"Ind":1915,"ills":1916,"Ġclose":1917,"Ġaim":1918,"Ġaround":1919,"Ġbuild":1920,"Ġinv":1921,"unications":1922,"key":1923,"ides":1924,"lines":1925,"ankees":1926,"inal":1927,"ĠUnion":1928,"Ġ14":1929,"ired":1930,"Ġattacks":1931,"ĠServ":1932,"orks":1933,"Ġfund":1934,"Ġdri":1935,"IC":1936,"Ġsent":1937,"Ġpop":1938,"ĠKorea":1939,"aring":1940,"ĠCity":1941,"ging":1942,"mit":1943,"ades":1944,"ams":1945,"Ġcampaign":1946,"aid":1947,"ĠTo":1948,"inals":1949,"ĠRussia":1950,"TA":1951,"ĠSecurity":1952,"Ġlate":1953,"ĠDep":1954,"idd":1955,"br":1956,"Ġglobal":1957,"ĠSun":1958,"ĠDis":1959,"ael":1960,"Ġkilling":1961,"ĠOracle":1962,"15":1963,"rod":1964,"ĠWall":1965,"Ġworkers":1966,"akes":1967,"Ġnetwork":1968,"ened":1969,"ĠAng":1970,"per":1971,"Ġcare":1972,"Ġdet":1973,"iff":1974,"ĠApple":1975,"Ġshort":1976,"ĠSays":1977,"ĠEd":1978,"udge":1979,"cy":1980,"uj":1981,"ĠSudan":1982,"ĠHigh":1983,"ĠIBM":1984,"Ġquest":1985,"Ġlit":1986,"ĠMot":1987,"Ġmight":1988,"Ġ16":1989,"ĠIndian":1990,"att":1991,"Ġmod":1992,"aving":1993,"Ġca":1994,"Ġdespite":1995,"ĠDem":1996,"ung":1997,"ĠGame":1998,"Ġsuccess":1999,"Ġ13":2000,"top":2001,"Ġschool":2002,"Ġ30":2003,"ĠDarfur":2004,"Ġprom":2005,"Ġsmall":2006,"ĠPeopleSoft":2007,"abor":2008,"ĠFrench":2009,"Ġleading":2010,"ĠFlorida":2011,"ĠPhil":2012,"ergy":2013,"Ġcase":2014,"idence":2015,"Ġversion":2016,"ĠItal":2017,"Ġpat":2018,"ĠSeptember":2019,"Ġalso":2020,"orthern":2021,"by":2022,"artment":2023,"ij":2024,"outhern":2025,"alk":2026,"Ġchamp":2027,"Ġremain":2028,"ĠElect":2029,"Ġfollowing":2030,"adr":2031,"Ġvideo":2032,"ĠKerry":2033,"ĠCommission":2034,"Ġbroad":2035,"get":2036,"Ġhol":2037,"ait":2038,"lam":2039,"ites":2040,"Ġ17":2041,"Ġappl":2042,"TH":2043,"Ġanal":2044,"Ġdom":2045,"ensive":2046,"Ġarrest":2047,"Ġagreement":2048,"ener":2049,"ĠAc":2050,"itt":2051,"Ġbest":2052,"uman":2053,"Oil":2054,"ont":2055,"Ġgood":2056,"ĠNews":2057,"Sp":2058,"Ġtax":2059,"Ġnational":2060,"ĠMark":2061,"ances":2062,"igned":2063,"Ġrise":2064,"ĠOctober":2065,"ĠSte":2066,"Ġbreak":2067,"amed":2068,"Ġstar":2069,"eth":2070,"ĠPar":2071,"ished":2072,"Ġtrans":2073,"ugg":2074,"Ġshe":2075,"Ġed":2076,"Ġpropos":2077,"Ġcapital":2078,"Ġfore":2079,"ute":2080,"Ġcond":2081,"anada":2082,"ornia":2083,"uce":2084,"mber":2085,"Ġste":2086,"ession":2087,"Ġproducts":2088,"sc":2089,"ĠOver":2090,"uro":2091,"ved":2092,"Ġeas":2093,"ystems":2094,"orts":2095,"time":2096,"Ġcre":2097,"ĠRep":2098,"Ġbegin":2099,"ĠPlay":2100,"rove":2101,"ĠTV":2102,"owed":2103,"Ġboth":2104,"Ġfamil":2105,"Ġwhe":2106,"ovember":2107,"ways":2108,"Ġfootball":2109,"ĠCourt":2110,"ĠBy":2111,"Ġcustomers":2112,"),":2113,"Ġsol":2114,"ler":2115,"Ġcurr":2116,"ape":2117,"ads":2118,"imb":2119,"Ġregul":2120,"aster":2121,"Ġgive":2122,"Ġlik":2123,"Ġaway":2124,"ole":2125,"ĠUK":2126,"Ġtouch":2127,"ooks":2128,"Ġinst":2129,"Ġminister":2130,"Ġdecision":2131,"Ġwell":2132,"ĠArafat":2133,"ners":2134,"Ġforec":2135,"ĠIv":2136,"ĠNot":2137,"aseball":2138,"Ġouts":2139,"GH":2140,"Ġwireless":2141,"Ġstep":2142,"Ġfuture":2143,"erman":2144,"ocr":2145,"esc":2146,"Ġplayer":2147,"iversity":2148,"thers":2149,"Ġperson":2150,"Ġbattle":2151,"Ġhere":2152,"ĠAustralian":2153,"Ġmar":2154,"Ġfinancial":2155,"Ġpolitical":2156,"ĠGeor":2157,"iants":2158,"Ġapprov":2159,"Ġcharges":2160,"Ġsuch":2161,"ĠYankees":2162,"Ġcrit":2163,"As":2164,"Ġequ":2165,"Ġresp":2166,"Ġmeeting":2167,"MS":2168,"ney":2169,"Ġur":2170,"Ġrace":2171,"umb":2172,"ren":2173,"Ġmanager":2174,"Ġforeign":2175,"Ġdue":2176,"ĠRec":2177,"RAN":2178,"Ġemploy":2179,"ĠJapanese":2180,"UN":2181,"uf":2182,"Ġmatch":2183,"Ġscored":2184,"ension":2185,"Ġchampion":2186,"go":2187,"of":2188,"Ġdigital":2189,"Ġemb":2190,"Ġexper":2191,"Ġtold":2192,"Ġ:":2193,"Ġcell":2194,"ĠCr":2195,"ĠSl":2196,"Ġengine":2197,"Ġbeh":2198,"ago":2199,"urt":2200,"Pod":2201,"Ġlist":2202,"Ġlife":2203,"Ġproble":2204,"ming":2205,"Ġpull":2206,"raz":2207,"Ġresults":2208,"ric":2209,"Ġdiv":2210,"ĠFederal":2211,"inese":2212,"iams":2213,"ering":2214,"Ġloc":2215,"ĠProfit":2216,"OL":2217,"airman":2218,"acy":2219,"Ġreven":2220,"ours":2221,"exas":2222,"rows":2223,"ern":2224,"formation":2225,"Ġmor":2226,"adio":2227,"Ġissu":2228,"Ġchip":2229,"Ġunveil":2230,"ĠTest":2231,"Ġwithout":2232,"oid":2233,"ĠSy":2234,"ston":2235,"prise":2236,"Ġstraight":2237,"Ġseveral":2238,"Ġmer":2239,"ĠHam":2240,"Google":2241,"hens":2242,"Ġwhether":2243,"Ġcosts":2244,"we":2245,"enal":2246,"ĠProfile":2247,"Canadian":2248,"ĠCEO":2249,"Ġevery":2250,"Ġsite":2251,"Ġsaying":2252,"Ġauthor":2253,"ift":2254,"Ġtrial":2255,"estern":2256,"ĠFir":2257,"Ġob":2258,"ĠIntel":2259,"ett":2260,"Ġelections":2261,"Ġest":2262,"osp":2263,"ĠQuote":2264,"ential":2265,"ĠEU":2266,"ĠDef":2267,"Ġsettle":2268,"most":2269,"ĠOne":2270,"aps":2271,"Ġchampions":2272,"Ġperform":2273,"ana":2274,"ody":2275,"Ġbecome":2276,"view":2277,"ĠChampionship":2278,"idnapp":2279,"ĠSeries":2280,"IL":2281,"Com":2282,"for":2283,"Ġfew":2284,"rown":2285,"Ġ100":2286,"Ġlittle":2287,"ker":2288,"alth":2289,"Ġexpect":2290,"etworks":2291,"retary":2292,"ĠShar":2293,"ID":2294,"ermany":2295,"ĠCalifornia":2296,"FL":2297,"ĠPost":2298,"ĠNovember":2299,"IA":2300,"Ġreach":2301,"Ġeight":2302,"ĠFrance":2303,"Ġmedia":2304,"ministr":2305,"era":2306,"Ġlaunched":2307,"Ġsk":2308,"ktop":2309,"Ġopt":2310,"Ġtrad":2311,"ĠMus":2312,"Ġacross":2313,"look":2314,"rist":2315,"ĠPe":2316,"Ġplace":2317,"Ġweekend":2318,"Ġmaking":2319,"Israel":2320,"Russ":2321,"WASHINGTON":2322,"ĠGl":2323,"change":2324,"Ġpolic":2325,"the":2326,"Ġgreat":2327,"Ġagency":2328,"Ġdoes":2329,"Ġstrike":2330,"Ġbetter":2331,"aff":2332,"Ġwinning":2333,"Ġrock":2334,"China":2335,"Ġbankrupt":2336,"Bl":2337,"Ġlost":2338,"ĠBig":2339,"AC":2340,"Ġ25":2341,"Ġincrease":2342,"ĠAugust":2343,"ĠSch":2344,"avy":2345,"Ġtelev":2346,"isk":2347,"Ġshar":2348,"ahoo":2349,"SE":2350,"Ġrunning":2351,"Ġ0":2352,"Ex":2353,"ection":2354,"Ġquarterly":2355,"Ġneg":2356,"Ġwomen":2357,"icket":2358,"ues":2359,"ĠEl":2360,"ele":2361,"Wh":2362,"Ġhistory":2363,"ane":2364,"ĠPat":2365,"Ġanalyst":2366,"iet":2367,"Ġfire":2368,"Ġwound":2369,"aper":2370,"vers":2371,"enior":2372,"lex":2373,"Ġcontrol":2374,"ĠFin":2375,"akers":2376,"Ġusing":2377,"ĠWin":2378,"Ġreac":2379,"ived":2380,"Ġhealth":2381,"Ġclear":2382,"asts":2383,"Ġconsumer":2384,"ĠPol":2385,"News":2386,"Ġhostage":2387,"\\\\":2388,"Ġvote":2389,"Ġanti":2390,"Ġlikely":2391,"pected":2392,"Brit":2393,"Iraq":2394,"Ġpriv":2395,"icans":2396,"ĠMa":2397,"Ġtaking":2398,"Ġhopes":2399,"field":2400,"Ġchall":2401,"ĠAm":2402,"ather":2403,"ĠCanada":2404,"ĠCont":2405,"oint":2406,"Ġfield":2407,"ode":2408,"ousands":2409,"ories":2410,"Ġcome":2411,"Ġmanagement":2412,"Ġbelie":2413,"iles":2414,"Ġstat":2415,"Ġfans":2416,"reen":2417,"Ġless":2418,"ament":2419,"irus":2420,"Ġpoll":2421,"ĠTexas":2422,"Ġsame":2423,"Ġattem":2424,"ĠMed":2425,"urance":2426,"Ġwarned":2427,"ĠiPod":2428,"ufact":2429,"Ġsee":2430,"lier":2431,"adium":2432,"ience":2433,"rip":2434,"ondon":2435,"Ġ24":2436,"ona":2437,"--":2438,"ĠNet":2439,"ĠSpace":2440,"ĠAfghanistan":2441,"Ġjump":2442,"itz":2443,"ĠWireless":2444,"oti":2445,"Ġboard":2446,"Ġbarrel":2447,"Ġmembers":2448,"ĠBritain":2449,"ganiz":2450,"ĠDepartment":2451,"td":2452,"Ġlawsu":2453,"Ġsum":2454,"Ġfeat":2455,"Ġchild":2456,"Ġshot":2457,"Ġfar":2458,"Ġaccused":2459,"Ġshowed":2460,"Fr":2461,"lant":2462,"Ġtoward":2463,"Ġdr":2464,"Ġamong":2465,"Ġtouchdown":2466,"Ġdist":2467,"etro":2468,"Ġmorning":2469,"Austral":2470,"ication":2471,"SP":2472,"ĠWilliams":2473,"ule":2474,"Ġve":2475,"Ġdid":2476,"Ġled":2477,"ified":2478,"Ġoperating":2479,"Ġrates":2480,"Ġask":2481,"cil":2482,"Ġconfir":2483,"Ġposted":2484,"ev":2485,"ĠPer":2486,"irgin":2487,"Ġent":2488,"Ġpo":2489,"Ġ21":2490,"Ġexplos":2491,"ĠDel":2492,"Ġfull":2493,"leged":2494,"Ġdrop":2495,"Ġseek":2496,"aking":2497,"ĠMichael":2498,"ĠPart":2499,"Ġaction":2500,"itive":2501,"Ġgas":2502,"Ġclub":2503,"set":2504,"Ġfuel":2505,"ĠAtt":2506,"olution":2507,"ocus":2508,"Ġbehind":2509,"Un":2510,"ared":2511,"Ġprison":2512,"Ġmedal":2513,"Ġamid":2514,"Ġaccess":2515,"ĠIslam":2516,"Ġtakes":2517,"ĠDemocr":2518,"Ġmilitants":2519,"Ġpossible":2520,"porate":2521,"ĠChief":2522,"ĠSing":2523,"que":2524,"ino":2525,"Ġball":2526,"ota":2527,"vey":2528,"Ġvisit":2529,"icago":2530,"ĠIT":2531,"ĠGeneral":2532,"Ġgoing":2533,"Ġwithd":2534,"Ġrate":2535,"ĠNations":2536,"Ġviolence":2537,"Ġtoo":2538,"Ġwins":2539,"Ġclaims":2540,"EM":2541,"yo":2542,"ĠChinese":2543,"razil":2544,"ately":2545,"ges":2546,"amb":2547,"ĠTal":2548,"osing":2549,"band":2550,"ined":2551,"itions":2552,"Ġbring":2553,"Ġmid":2554,"Ġtrading":2555,"reas":2556,"ĠBay":2557,"ĠUniversity":2558,"Ġappear":2559,"ĠEast":2560,"Ġsem":2561,"Ġinformation":2562,"ĠHol":2563,"Ġwatch":2564,"Ġrepl":2565,"raud":2566,"Ġemer":2567,"Ġvot":2568,"Ġactiv":2569,"Ar":2570,"No":2571,"Ġcash":2572,"ready":2573,"LE":2574,"Ġhuman":2575,"ONT":2576,"GO":2577,"ald":2578,"ĠFranc":2579,"ENS":2580,"aced":2581,"Ġbegan":2582,"ĠAfrica":2583,"ening":2584,"ĠCong":2585,"Ġland":2586,"Ġcrude":2587,"ĠComputer":2588,"asser":2589,"Ġphones":2590,"AD":2591,"ena":2592,"cast":2593,"Ġtool":2594,"ouston":2595,"oes":2596,"Ġcame":2597,"ĠJe":2598,"ĠJan":2599,"Ġinjured":2600,"inc":2601,"Ġchang":2602,"Ġel":2603,"Ġdoc":2604,"ĠGermany":2605,"ourn":2606,"Ġsim":2607,"ama":2608,"ĠLtd":2609,"ouncil":2610,"Ġinfl":2611,"andid":2612,"Ġalmost":2613,"Ġscientists":2614,"BS":2615,"Ġgot":2616,"Ġvo":2617,"ivil":2618,"Ġsigned":2619,"Ġtakeover":2620,"ĠFalluj":2621,"Ġbankruptcy":2622,"ining":2623,"Ġpopular":2624,"ĠMore":2625,"ption":2626,"run":2627,"Ġmass":2628,"Ġchange":2629,"Ġdoub":2630,"ĠLou":2631,"UR":2632,"raph":2633,"Ġprofits":2634,"Ġhelped":2635,"6666":2636,"ministration":2637,"World":2638,"ĠLead":2639,"Ġsenior":2640,"owl":2641,"Ġoffering":2642,"Ġtelevision":2643,"Ġmess":2644,"ĠNASA":2645,"Ġpush":2646,"Ġreal":2647,"Ġsoldiers":2648,"Ġsaf":2649,"Ġthose":2650,"Ġrequ":2651,"ĠHurricane":2652,"App":2653,"ĠSearch":2654,"ĠJones":2655,"ources":2656,"oring":2657,"Ġnine":2658,"Ġalleged":2659,"Ġcontin":2660,"One":2661,"ĠMart":2662,"ĠRet":2663,"Ġconfer":2664,"Ġold":2665,"Ġdied":2666,"ĠFed":2667,"ĠMuslim":2668,"wan":2669,"wide":2670,"Ġhot":2671,"Ġenergy":2672,"Pr":2673,"eg":2674,"Ġpres":2675,"apons":2676,"Ġlevel":2677,"Ġended":2678,"icks":2679,"urch":2680,"ĠMo":2681,"ĠBill":2682,"Ġintrod":2683,"Ġcarri":2684,"ĠSen":2685,"ĠDes":2686,"ecutive":2687,"Pal":2688,"VD":2689,"Ġsoon":2690,"rust":2691,"asing":2692,"ĠSm":2693,"ĠGold":2694,"Ġjudge":2695,"Ġ199":2696,"ring":2697,"Ġmet":2698,"ece":2699,"ĠHouse":2700,"Ġunit":2701,"Japan":2702,"Ġproduct":2703,"Ġcareer":2704,"yn":2705,"Ġsource":2706,"ĠDeal":2707,"gypt":2708,"Al":2709,"ĠChe":2710,"ĠFRAN":2711,"Ġunt":2712,"okes":2713,"151":2714,"Ġver":2715,"anks":2716,"UP":2717,"vious":2718,"Ġsing":2719,"Ġfact":2720,"Stocks":2721,"ym":2722,"Ġstorm":2723,"Ġearlier":2724,"Ġproduction":2725,"Ġstudy":2726,"Ġparty":2727,"ĠDavid":2728,"Ġnegoti":2729,"icide":2730,"ĠWe":2731,"LONDON":2732,"Two":2733,"Ġnorthern":2734,"ĠSu":2735,"ream":2736,"ĠPaul":2737,"Ġkidnapp":2738,"ĠTur":2739,"aces":2740,"ronics":2741,"isc":2742,"ĠJu":2743,"Ġcuts":2744,"resh":2745,"Ġgain":2746,"Ġfur":2747,"Ġmoney":2748,"ĠSales":2749,"ĠAirways":2750,"Amer":2751,"ĠChar":2752,"comm":2753,"Ġrevenue":2754,"At":2755,"Ġheart":2756,"anches":2757,"Ġmanufact":2758,"senal":2759,"Ġsouthern":2760,"ĠGames":2761,"ealth":2762,"Ġopening":2763,"Ġbill":2764,"utch":2765,"Ġyet":2766,"Ġcapt":2767,"ĠAthens":2768,"YO":2769,"ashed":2770,"ĠStocks":2771,"Intel":2772,"Ġmust":2773,"ander":2774,"Ġpitch":2775,"Ġgets":2776,"isis":2777,"ĠRy":2778,"ĠSecretary":2779,"urd":2780,"Ġsuff":2781,"Ġefforts":2782,"iron":2783,"ĠHar":2784,"undred":2785,"Ġlet":2786,"Mart":2787,"Ġinit":2788,"Ġalready":2789,"ĠOlympics":2790,"Ġple":2791,"Ġpubl":2792,"ĠDown":2793,"expected":2794,"Ġannounce":2795,"press":2796,"ospital":2797,"eing":2798,"unt":2799,"Ph":2800,"Ġfre":2801,"Ġweb":2802,"ĠAfrican":2803,"Ġter":2804,"ety":2805,"ĠHouston":2806,"Ġperformance":2807,"ĠFRANC":2808,"Ġfast":2809,"Ġpot":2810,"Ġmat":2811,"Ġshut":2812,"Ġconcerns":2813,"Ġforce":2814,"Ġdefense":2815,"asket":2816,"ISCO":2817,"On":2818,"Ġmult":2819,"Ġsched":2820,"Ġcalls":2821,"ĠService":2822,"Ġconference":2823,"Bush":2824,"Ġfe":2825,"Ġgave":2826,"Ġcountries":2827,"ĠAtlant":2828,"Ġcorporate":2829,"ĠAssociation":2830,"Ġpersonal":2831,"Ġrej":2832,"ĠRo":2833,"enger":2834,"ille":2835,"Ġgeneral":2836,"Ġaccount":2837,"reme":2838,"ya":2839,"Ġhours":2840,"ĠHow":2841,"ĠChicago":2842,"ĠCub":2843,"Ġseem":2844,"ĠFRANCISCO":2845,"wood":2846,"vert":2847,"Ġmakes":2848,"ĠAngel":2849,"Ġforecast":2850,"Ġnet":2851,"Ġrecover":2852,"KYO":2853,"une":2854,"okyo":2855,"Ġtrying":2856,"Ġmarkets":2857,"olf":2858,"Ġconv":2859,"iance":2860,"ĠReserve":2861,"Ġcurrent":2862,"mir":2863,"Ġcivil":2864,"Ġenough":2865,"anced":2866,"Ġaid":2867,"ĠGerman":2868,"Ġsug":2869,"ĠSpain":2870,"Ġoutside":2871,"unity":2872,"ĠAmericans":2873,"Ġconsider":2874,"ĠCommunications":2875,"Ġlegal":2876,"Ġexpand":2877,"ris":2878,"Ġsn":2879,"ĠSystems":2880,"Ġgrowing":2881,"Ġsale":2882,"ĠMer":2883,"ĠRob":2884,"iddle":2885,"Ġport":2886,"Ġden":2887,"Ġqualif":2888,"Ġcomputers":2889,").":2890,"Ġyards":2891,"aq":2892,"Ġready":2893,"rap":2894,"Ġwithin":2895,"rial":2896,"rong":2897,"ily":2898,"Ġleague":2899,"ĠCouncil":2900,"ront":2901,"ĠNext":2902,"ĠBlack":2903,"Sc":2904,"ayed":2905,"Ġstake":2906,"ĠHold":2907,"occer":2908,"ds":2909,"utin":2910,"Ġstop":2911,"ĠLouis":2912,"tor":2913,"ually":2914,"Ġunion":2915,"ically":2916,"Ġreached":2917,"Ġcontinue":2918,"ĠShares":2919,"Ġavail":2920,"Ġaimed":2921,"Ġteams":2922,"Ġreve":2923,"Ġarrested":2924,"14":2925,"Ġcandid":2926,"Ġairline":2927,"Ġuntil":2928,"Ġothers":2929,"utes":2930,"ĠNFL":2931,"ĠJust":2932,"Ġben":2933,"Ġrebels":2934,"Ġ23":2935,"Ġopposition":2936,"ender":2937,"Ġlift":2938,"CH":2939,"IR":2940,"ĠKill":2941,"Ġdefeat":2942,"Ġlocal":2943,"CP":2944,"FONT":2945,"lege":2946,"ĠMars":2947,"Ġsystems":2948,"Ġfile":2949,"Ġcoll":2950,"ĠTO":2951,"Ġlo":2952,"Ġrep":2953,"rian":2954,"Ġprepar":2955,"Ġcop":2956,"ĠMac":2957,"Ġweapons":2958,"ĠCle":2959,"ulation":2960,"Ġslow":2961,"ertain":2962,"iami":2963,"Ġtaken":2964,"Ġcharged":2965,"Ġinvol":2966,"Col":2967,"Ġanalysts":2968,"ead":2969,"ĠEnd":2970,"Ġ22":2971,"ishing":2972,"ĠIndones":2973,"ĠAsia":2974,"Ġeffort":2975,"anchester":2976,"bus":2977,"Ġcompetition":2978,"inks":2979,"Ġrally":2980,"ĠLondon":2981,"12":2982,"enge":2983,"Ġwrit":2984,"aud":2985,"Ġinsurg":2986,"orage":2987,"ĠTra":2988,"ĠWASHINGTON":2989,"Ġquestion":2990,"ĠGeorge":2991,"oung":2992,"Ġstarting":2993,"Ġcontinued":2994,"ĠGrand":2995,"ĠAnn":2996,"Ġfailed":2997,"Ġauthorities":2998,"ault":2999,"ĠMiss":3000,"Ġspokes":3001,"Ġblock":3002,"Ġsuppl":3003,"asketball":3004,"Ġfocus":3005,"aled":3006,"Ġchampionship":3007,"ĠGiants":3008,"Ġsuper":3009,"ĠArab":3010,"Apple":3011,"uary":3012,"Ġfav":3013,"Ġwants":3014,"ĠTwo":3015,"Ġeach":3016,"Ġcentral":3017,"iven":3018,"Ġarriv":3019,"ipped":3020,"Ġcoun":3021,"Ġonce":3022,"iffer":3023,"ĠAirlines":3024,"Ġprevious":3025,"Ġpract":3026,"Ġretailer":3027,"mar":3028,"Ġdeliver":3029,"oto":3030,"Ġoffice":3031,"uge":3032,"held":3033,"Ġdouble":3034,"Ġeuro":3035,"ability":3036,"Ġfinally":3037,"Ġpos":3038,"Ġdisput":3039,"Ġevent":3040,"Ġaff":3041,"adrid":3042,"Ġsuggest":3043,"ĠVirgin":3044,"ĠAst":3045,"ĠChrist":3046,"ails":3047,"ĠAgain":3048,"Ġspending":3049,"bit":3050,"Ġfresh":3051,"Ġthousands":3052,"Ġdomin":3053,"icip":3054,"comp":3055,"Ġdownlo":3056,"Ġfiled":3057,"ĠOnline":3058,"Ġspecial":3059,"Ġfurther":3060,"ĠLONDON":3061,"Ġinvestment":3062,"ATE":3063,"UK":3064,"ĠDVD":3065,"Ġraised":3066,"SAN":3067,"Ġfig":3068,"ims":3069,"imate":3070,"Ġrebel":3071,"DAD":3072,"ournal":3073,"UL":3074,"Ġquarterback":3075,"tered":3076,"gers":3077,"han":3078,"Ġseen":3079,"Ġexecutives":3080,"GHDAD":3081,"kins":3082,"Ġpack":3083,"Ġhands":3084,"Ġdraw":3085,"ellite":3086,"ĠDavis":3087,"ĠFrancisco":3088,"30":3089,"right":3090,"Ġcenter":3091,"Ġsat":3092,"Ġdam":3093,"rich":3094,"Ġgun":3095,"onds":3096,"cing":3097,"ĠSony":3098,"ĠCons":3099,"Ġey":3100,"ple":3101,"Ġoperations":3102,"Ġpressure":3103,"ĠIvan":3104,"11":3105,"phone":3106,"Ġfamily":3107,"ĠSet":3108,"Ġroll":3109,"sue":3110,"Ġside":3111,"Ġpred":3112,"order":3113,"ĠYasser":3114,"Ġ2006":3115,"ollars":3116,"Ġcred":3117,"Ġstrugg":3118,"mark":3119,"ĠBack":3120,"Ġcrisis":3121,"Ġdesigned":3122,"Ġ50":3123,"Ġinjury":3124,"Ġlooking":3125,"FT":3126,"add":3127,"Ġenv":3128,"Ġpotential":3129,"ĠCanadian":3130,"ĠTit":3131,"ĠTro":3132,"ĠStadium":3133,"rovers":3134,"Ġground":3135,"ounds":3136,"With":3137,"Ġmon":3138,"Ġhits":3139,"aded":3140,"ĠLos":3141,"Ġ27":3142,"Ġtravel":3143,"unes":3144,"Ġdrive":3145,"icted":3146,"asters":3147,"Ġcoming":3148,"Ġspeed":3149,"ĠReal":3150,"cc":3151,"Ġsize":3152,"entral":3153,"illeg":3154,"ĠMadrid":3155,"liam":3156,"ĠBowl":3157,".'":3158,"acing":3159,"Ġcomb":3160,"okia":3161,"Ġ,":3162,"Ġwent":3163,"Ġgains":3164,"obe":3165,"Ġwithdraw":3166,"hib":3167,"Ġfraud":3168,"ico":3169,"liament":3170,"After":3171,"ini":3172,"irc":3173,"Ġrisk":3174,"ĠArmy":3175,"ĠXP":3176,"HL":3177,"lom":3178,"part":3179,"ural":3180,"Ġgener":3181,"Ġrights":3182,"Ġtrack":3183,"anked":3184,"Ġruling":3185,"ĠInter":3186,"Ġallow":3187,"undreds":3188,"Ġow":3189,"Ġdon":3190,"Ġval":3191,"ipment":3192,"hest":3193,"iding":3194,"ĠHel":3195,"Ġtalk":3196,"ilt":3197,"eck":3198,"ĠPrices":3199,"Ġgoal":3200,"Ġlarge":3201,"Ġpolicy":3202,"urities":3203,"ĠMos":3204,"Ġdesktop":3205,"Ġdollars":3206,"ĠNiger":3207,"Ġgetting":3208,"post":3209,"verage":3210,"Ġchairman":3211,"men":3212,"ĠGreen":3213,"ĠEarth":3214,"Oracle":3215,"aged":3216,"Ġchips":3217,"ĠCoast":3218,"Ġinsurance":3219,"Ġpil":3220,"ĠCenter":3221,"Ġstore":3222,"NA":3223,"ashes":3224,"aves":3225,"Ġsupply":3226,"opping":3227,"ĠItalian":3228,"Ġchildren":3229,"arz":3230,"Ġthen":3231,"ention":3232,"aging":3233,"porters":3234,"itor":3235,"ĠExchange":3236,"rowser":3237,"DATE":3238,"Ġtown":3239,"oman":3240,"thlet":3241,"Ġspot":3242,"Ġprotest":3243,"tors":3244,"roll":3245,"ells":3246,"Ġspam":3247,"ĠThis":3248,"Ġbenef":3249,"cept":3250,"ably":3251,"uced":3252,"Ġcharge":3253,"month":3254,"elta":3255,"Ġholiday":3256,"CC":3257,"Ġname":3258,"Ġannual":3259,"Ġnever":3260,"Ġpowerful":3261,"Red":3262,"Ġfears":3263,"Ġwant":3264,"icit":3265,"ĠMiami":3266,"Ġstrate":3267,"ĠWhite":3268,"En":3269,"uff":3270,"Ġtw":3271,"reland":3272,"Ġbeg":3273,"ĠBlair":3274,"IM":3275,"Ġworking":3276,"Ġproblems":3277,"Ġtreat":3278,"CA":3279,"ĠBrazil":3280,"illa":3281,"anger":3282,"Ġdiscuss":3283,"Ġinvestigation":3284,"elebr":3285,"icial":3286,"ĠPrem":3287,"ĠEgypt":3288,"oper":3289,"alled":3290,"Ġprime":3291,"Ġprovide":3292,"iber":3293,"Ġilleg":3294,"Ġcanc":3295,"Ġpick":3296,"ĠIP":3297,"Ġfighting":3298,"urning":3299,"using":3300,"illing":3301,"ĠJob":3302,"EU":3303,"Iran":3304,"Ġident":3305,"me":3306,"itness":3307,"Ġ28":3308,"Ġfired":3309,"By":3310,"rief":3311,"Ġbusinesses":3312,"kra":3313,"ĠBel":3314,"ula":3315,"Ġvol":3316,"Ġselling":3317,"ĠAngeles":3318,"maker":3319,"ype":3320,"Ġplayoff":3321,"500":3322,"Europe":3323,"GA":3324,"ceed":3325,"osed":3326,"Ġtimes":3327,"ailed":3328,"IP":3329,"game":3330,"Ġdriv":3331,"Ġsurvey":3332,"arra":3333,"Ġtour":3334,"ĠPower":3335,"ze":3336,"Ġheavy":3337,"rize":3338,"Ġattempt":3339,"Sun":3340,"Ġdisapp":3341,"aiwan":3342,"Ġrivals":3343,"ĠPark":3344,"ĠBro":3345,"ria":3346,"ronic":3347,"Ġplanned":3348,"Ġhope":3349,"ĠAT":3350,"Ġweak":3351,"Ġexpectations":3352,"Ġavailable":3353,"ED":3354,"ĠPac":3355,"Ġarmy":3356,"ATH":3357,"ploy":3358,"Cr":3359,"Ġcour":3360,"Ġchance":3361,"ĠTrade":3362,";,":3363,"OM":3364,"onald":3365,"ennis":3366,"miss":3367,"sw":3368,"ifth":3369,"Ġrules":3370,"Ġsom":3371,"Ġbaseball":3372,"ference":3373,"ukos":3374,"ĠFirst":3375,"Ġprivate":3376,"ctions":3377,"anish":3378,"Ġdro":3379,"oming":3380,"ĠWins":3381,"Ġconsumers":3382,"merc":3383,"Ġdecided":3384,"Ġpoint":3385,"ĠAut":3386,"ords":3387,"eattle":3388,"Ġknown":3389,"ĠPM":3390,"ĠBusiness":3391,"echnologies":3392,"ruct":3393,"overed":3394,"Ġblast":3395,"asd":3396,"PC":3397,"ĠTor":3398,"Ġnamed":3399,"Ġflight":3400,"Ġruns":3401,"Ġdevelopment":3402,"asdaq":3403,"Ġterm":3404,"Ġhospital":3405,"Ġstores":3406,"ĠFrom":3407,"UPDATE":3408,"Ġdiffer":3409,"Ġimport":3410,"ixed":3411,"Ġorder":3412,"TS":3413,"ĠSoftware":3414,"ĠAN":3415,"ĠMe":3416,"ackers":3417,"Ġworth":3418,"Ġimprove":3419,"Ġmissing":3420,"ume":3421,"ĠVi":3422,"awi":3423,"ĠTour":3424,"ĠMor":3425,"Ġradio":3426,"oys":3427,"ĠPlan":3428,"ever":3429,"stit":3430,"agu":3431,"oreign":3432,"Ġabove":3433,"India":3434,"Ġapproved":3435,"Ġunveiled":3436,"Ġconfirmed":3437,"ĠRyder":3438,"mo":3439,"anium":3440,"owell":3441,"Ġappeal":3442,"ĠIslamic":3443,"Mac":3444,"ĠMusic":3445,"Af":3446,"Ġknow":3447,"mercial":3448,"Mar":3449,"actor":3450,"Ġasked":3451,"NY":3452,"Ġbody":3453,"ĠCard":3454,"Ġwarning":3455,"irt":3456,"ope":3457,"Ġprob":3458,"ĠExpl":3459,"egr":3460,"Ġcrow":3461,"ĠCap":3462,"Ġleave":3463,"vention":3464,"Ġregulators":3465,"Ġtourn":3466,"Ġmort":3467,"ction":3468,"Ġhouse":3469,"ashmir":3470,"20":3471,"atives":3472,"Ġbird":3473,"ĠSP":3474,"Ġsepar":3475,"ĠAsian":3476,"ĠEnter":3477,"ĠPalestinians":3478,"ently":3479,"uit":3480,"ushed":3481,"illions":3482,"ĠEc":3483,"ĠThey":3484,"ĠTech":3485,"ained":3486,"Ġsuicide":3487,"term":3488,"Ġconn":3489,"MW":3490,"che":3491,"ĠMil":3492,"olph":3493,"Ġrising":3494,"Ġview":3495,"Ġcontrovers":3496,"elph":3497,"uses":3498,"Ġ26":3499,"ĠThat":3500,"ĠExp":3501,"hic":3502,"Ġprobe":3503,"Ġarea":3504,"rought":3505,"Ġshows":3506,"ĠSharon":3507,"Ġlawsuit":3508,"light":3509,"ĠFire":3510,"Ġspe":3511,"Ġsuspected":3512,"Ġcolor":3513,"ving":3514,"Ġgra":3515,"uments":3516,"Ġcard":3517,"ĠShe":3518,"Ġissue":3519,"Ġsharehold":3520,"Ġfirms":3521,"Ġ2003":3522,"ination":3523,"Ġlight":3524,"ĠNow":3525,"ĠTalks":3526,"MC":3527,"beat":3528,"Ġcelebr":3529,"ĠInvest":3530,"Ġ40":3531,"ĠProt":3532,"Ġcaptain":3533,"Ġemployees":3534,"ĠMal":3535,"NASA":3536,"Ġthink":3537,"Ġdebt":3538,"ganization":3539,"200":3540,"ĠPay":3541,"alls":3542,"Ġacquis":3543,"Ġmerger":3544,"Ġposition":3545,"Ġmag":3546,"ĠPort":3547,"ively":3548,"ify":3549,"season":3550,"Ġlater":3551,"Ġclaimed":3552,"Ġturned":3553,"innes":3554,"ST":3555,"itors":3556,"Ġvirus":3557,"Ġcomplet":3558,"Ġincreased":3559,"ĠBuy":3560,".\"":3561,"HP":3562,"Ġsqu":3563,"Ġstay":3564,"ĠDrug":3565,"ĠLaun":3566,"innesota":3567,"ĠTom":3568,"Ġoffers":3569,"ĠTop":3570,"ĠMin":3571,"pan":3572,"Ġhapp":3573,"andal":3574,"kes":3575,"ocked":3576,"Ġnewsp":3577,"Ġsites":3578,"Ġbad":3579,"Ġmoved":3580,"Ġcloser":3581,"British":3582,"etroit":3583,"ironment":3584,"ease":3585,"Ġgroups":3586,"Ġserver":3587,"Ġissues":3588,"Ġlink":3589,"ĠStock":3590,"Ġeffect":3591,"Ġadded":3592,"bo":3593,"Ġmission":3594,"Ġprop":3595,"ĠKen":3596,"Ġappro":3597,"Ġgiven":3598,"ĠLaw":3599,"istry":3600,"Ġadministration":3601,"Ġequipment":3602,"ĠTeam":3603,"iracy":3604,"Ġalong":3605,"Ġrow":3606,"Ġlosses":3607,"Comp":3608,"NE":3609,"Ġgiving":3610,"ĠKashmir":3611,"ibility":3612,"itional":3613,"ilities":3614,"Ġdevices":3615,"Australia":3616,"CBS":3617,"Pakistan":3618,"ĠIreland":3619,"ires":3620,"sea":3621,"Ġurged":3622,"Ġspokesman":3623,"elphia":3624,"anted":3625,"inger":3626,"Ġwater":3627,"ĠStrip":3628,"Ġopened":3629,"Ġoutlook":3630,"Ġroad":3631,"iplom":3632,"Ġupgr":3633,"odd":3634,"coming":3635,"ĠSur":3636,"ĠNBA":3637,"Ġproject":3638,"ten":3639,"uting":3640,"Ġappar":3641,"Ġfront":3642,"eath":3643,"Ġreceived":3644,"ICA":3645,"ĠParis":3646,"ĠFallujah":3647,"uries":3648,"wards":3649,"new":3650,"yle":3651,"ilty":3652,"Ġdest":3653,"ĠTony":3654,"lywood":3655,"ockey":3656,"ĠYahoo":3657,"Ġslight":3658,"ĠDecember":3659,"Ġapplications":3660,"ATHENS":3661,"eric":3662,"ĠRock":3663,"ĠDay":3664,"Ġcomes":3665,"ĠAnt":3666,"iring":3667,"Ġrole":3668,"ĠMont":3669,"Ġlim":3670,"Ġstation":3671,"Ġstaff":3672,"ĠRise":3673,"eather":3674,"Ġdivision":3675,"LAN":3676,"Ġpurch":3677,"ĠData":3678,"ashingtonpost":3679,"Ġcreate":3680,"Sony":3681,"bn":3682,"craft":3683,"hy":3684,"washingtonpost":3685,"Ġthough":3686,"Ġwinter":3687,"Ġavoid":3688,"yc":3689,"ĠMex":3690,"Ġpartners":3691,"Ġmilitant":3692,"atory":3693,"Ġcou":3694,"ĠAM":3695,"ĠField":3696,"lection":3697,"Ġimprov":3698,"helsea":3699,"Ġtournament":3700,"AK":3701,"rish":3702,"Ġbased":3703,"stron":3704,"ĠLa":3705,"Ġunc":3706,"Former":3707,"Russia":3708,"Ġdidn":3709,"uled":3710,"orney":3711,"ford":3712,"Ġbrowser":3713,"ĠWork":3714,"ova":3715,"Ġresearchers":3716,"ĠTokyo":3717,"ĠPri":3718,"oma":3719,"ĠManchester":3720,"Ġautom":3721,"THE":3722,"Ġtot":3723,"Ġterrorism":3724,"ĠSingh":3725,"ĠCongress":3726,"lish":3727,"Ġwid":3728,"ids":3729,"Ġpros":3730,"ences":3731,"ajaf":3732,"strong":3733,"Ġdrugs":3734,"Ġwounded":3735,"BER":3736,"enez":3737,"ĠDemocratic":3738,"west":3739,"Ġcommercial":3740,"assic":3741,"Ġjoint":3742,"Ġsingle":3743,"ĠJuly":3744,"Ġpri":3745,"Ġstorage":3746,"ĠForeign":3747,"Ġcarry":3748,"tainment":3749,"Ġfaces":3750,"ĠCan":3751,"Ġforward":3752,"ĠWi":3753,"Ġcompl":3754,"igns":3755,"Factor":3756,"wa":3757,"onto":3758,"iller":3759,"play":3760,"ĠAdv":3761,"elling":3762,"25":3763,"Ġfifth":3764,"Ġovers":3765,"read":3766,"ĠMinnesota":3767,"ĠBomb":3768,"ĠArsenal":3769,"ĠMotor":3770,"Ġnetworks":3771,"Ġdecl":3772,"NewsFactor":3773,"ĠJanuary":3774,"Ġable":3775,"Ġserious":3776,"Ġestim":3777,"ny":3778,"unk":3779,"pres":3780,"Ġsigns":3781,"ĠZeal":3782,"ijing":3783,"arzai":3784,"ICAGO":3785,"gage":3786,"Ġton":3787,"Ġstreak":3788,"Ġexperts":3789,"vet":3790,"aches":3791,"ĠIts":3792,"ĠWoods":3793,"ĠFootball":3794,"Ġplayed":3795,"Ġcheck":3796,"Ġtight":3797,"ellig":3798,"ittee":3799,"ĠAstros":3800,"ĠSeattle":3801,"igan":3802,"than":3803,"kn":3804,"pro":3805,"urb":3806,"Ġlosing":3807,"ĠHen":3808,"ĠHait":3809,"Ġquick":3810,"ĠCharg":3811,"ĠIndust":3812,"Ġdistrib":3813,"American":3814,"Pl":3815,"ps":3816,"Ġsouth":3817,"Ġbasketball":3818,"ĠRich":3819,"Ġsex":3820,"Ġsurv":3821,"ĠAcc":3822,"Ġwild":3823,"Ġclin":3824,"ĠSteve":3825,"Ġcritic":3826,"Ġinitial":3827,"ĠZealand":3828,"ĠDetroit":3829,"ager":3830,"ĠShi":3831,"ĠGreece":3832,"atform":3833,"ental":3834,"ĠMS":3835,"Ġblood":3836,"Ġmeas":3837,"Ġcam":3838,"Ġmach":3839,"olina":3840,"ĠWal":3841,"Ġminutes":3842,"yan":3843,"ival":3844,"Ġwoman":3845,"Ġproposed":3846,"mas":3847,"Ġsources":3848,"ĠForm":3849,"ALL":3850,"ĠJohnson":3851,"ĠSol":3852,"ĠItaly":3853,"Ġlooks":3854,"epend":3855,"Ġincreasing":3856,"Ġvehic":3857,"anel":3858,"ĠNajaf":3859,"ĠHew":3860,"ĠLabor":3861,"Ġalleg":3862,"Ġadvert":3863,"Ġstarted":3864,"Fi":3865,"ĠMike":3866,"riots":3867,".\\":3868,"Bay":3869,"Ġq":3870,"Ġshoot":3871,"Ġwhose":3872,"oyal":3873,"Ġruled":3874,"Ġacquire":3875,"Ġprosecut":3876,"Ġaud":3877,"Ġmom":3878,"adelphia":3879,"ĠAtlanta":3880,"ĠDutch":3881,"Ġprotect":3882,"eda":3883,"acked":3884,"Ġoffensive":3885,"Ġplaying":3886,"Ġreview":3887,"Ġstatement":3888,"Ġboss":3889,"istic":3890,"Ġholding":3891,"ĠBoeing":3892,"iot":3893,"uz":3894,"Ġty":3895,"Ġforced":3896,"Ġren":3897,"Ġcho":3898,"Ġdebate":3899,"Ġevidence":3900,"orrow":3901,"Ġnorth":3902,"Ġrocket":3903,"ĠVirginia":3904,"Ġsit":3905,"Ġinning":3906,"oles":3907,"ewart":3908,"ĠVal":3909,"Ġart":3910,"Ġofficer":3911,"ĠReport":3912,"Ġbuilding":3913,"Ġaverage":3914,"ĠPre":3915,"ĠDiv":3916,"Ġisland":3917,"onduct":3918,"angers":3919,"Ġaccounting":3920,"ĠUs":3921,"Ġguard":3922,"ĠDisney":3923,"When":3924,"ville":3925,"ĠDeb":3926,"Ġhomes":3927,"Ġfood":3928,"Sec":3929,"Ġfri":3930,"ĠMic":3931,"ada":3932,"dog":3933,"fox":3934,"assy":3935,"ength":3936,"Ġsuccessful":3937,"ĠMarket":3938,"Ġour":3939,"ĠBang":3940,"Ġdeep":3941,"Ġleaving":3942,"udy":3943,"ĠDev":3944,"Ġdoesn":3945,"kraine":3946,"aeda":3947,"ster":3948,"Ġsan":3949,"Ġwestern":3950,"ĠDo":3951,"ĠLong":3952,"Ġremains":3953,"Ġsuspended":3954,"Ġreturned":3955,"South":3956,"irl":3957,"ĠKorean":3958,"Ġkidnapped":3959,";.":3960,"icon":3961,"Ġhuge":3962,"Ġhundreds":3963,"ighest":3964,"ĠBrown":3965,"ĠReb":3966,"Ġbecame":3967,"Ġoffered":3968,"Ġthreatened":3969,"Ġdebut":3970,"fl":3971,"Ġtem":3972,"ari":3973,"ĠMobile":3974,"ĠGo":3975,"ĠSuper":3976,"Tunes":3977,"ĠTim":3978,"Ġreform":3979,"ĠVer":3980,"medi":3981,"BAGHDAD":3982,"Ġbus":3983,"Ġsett":3984,"Ġseeking":3985,"Ġacquisition":3986,"FA":3987,"Ġwitness":3988,"ĠTime":3989,"Ġnon":3990,"udd":3991,"Ġcrash":3992,"Ġrejected":3993,"gent":3994,"Ġhaving":3995,"agles":3996,"Ġearth":3997,"Ġfilm":3998,"Ġdropped":3999,"net":4000,"ati":4001,"aming":4002,"Ġmedical":4003,"hio":4004,"ipping":4005,";-":4006,"come":4007,"ĠMasters":4008,"Ġreason":4009,"Ġbeating":4010,"Ġcleric":4011,"This":4012,"Israeli":4013,"augh":4014,"ĠCount":4015,"Ġread":4016,"ulf":4017,"Ġvend":4018,"Ġwinner":4019,"Ġdevice":4020,"bed":4021,"self":4022,"Dollar":4023,"ko":4024,"enture":4025,"ĠTaiwan":4026,"ĠPit":4027,"Ġrepres":4028,"Ġgen":4029,"Ġagree":4030,"Ġprovider":4031,"ĠSo":4032,"Ġ29":4033,"ĠYukos":4034,"Ġparliament":4035,"ranked":4036,"Ġcode":4037,"iders":4038,"urder":4039,".&":4040,"iar":4041,"serv":4042,"ented":4043,"ĠBer":4044,"Ġinterim":4045,"Ġhostages":4046,"Ġchallenge":4047,"Ġsafety":4048,"ĠTOKYO":4049,"ĠBob":4050,"ansas":4051,"Ġscandal":4052,"ĠBlue":4053,"Ġconfl":4054,"ĠParty":4055,"Ġcarrier":4056,"Ġcrowd":4057,"ux":4058,"Ġsoccer":4059,"Ġfear":4060,"Ġretire":4061,"Ġtroubl":4062,"Ġdirector":4063,"Ġsupplies":4064,"Ġdispute":4065,"elligence":4066,"ients":4067,"Ġfly":4068,"astern":4069,"acec":4070,"thing":4071,"pping":4072,"Ġraise":4073,"ĠWarner":4074,"Ġcourse":4075,"NN":4076,"aut":4077,"riel":4078,"Ġrob":4079,"ograph":4080,"Ġvery":4081,"olphins":4082,"house":4083,"oud":4084,"ĠMilit":4085,"Ġexpects":4086,"gery":4087,"ĠTw":4088,"Ġstage":4089,"Ġresult":4090,"Ġdecline":4091,"Ġcontinues":4092,"Ġcounter":4093,"Ġtotal":4094,"Con":4095,"larg":4096,"source":4097,"arn":4098,"Ġmillions":4099,"Ġthought":4100,"ĠCarolina":4101,"Ġfutures":4102,"lined":4103,"ĠToronto":4104,"AB":4105,"Co":4106,"GEL":4107,"ma":4108,"Ġpain":4109,"though":4110,"Ġcontent":4111,"Ġconfidence":4112,"Ġinternet":4113,"acecraft":4114,"CS":4115,"yware":4116,"Ġz":4117,"idel":4118,"ĠHealth":4119,"Ġsave":4120,"Ġship":4121,"Ġplant":4122,"Ġcomple":4123,"ĠSAN":4124,"Ġdiplom":4125,"urer":4126,"Ġlic":4127,"reek":4128,"Ġdoz":4129,"ĠPCs":4130,"ĠANGEL":4131,"chen":4132,"iest":4133,"ĠBeat":4134,"endo":4135,"Ġdeficit":4136,"Ġexplosion":4137,"ĠANGELES":4138,",\\":4139,"Ġsend":4140,"Ġwanted":4141,"ĠTreas":4142,"ĠNear":4143,"PEC":4144,"Ġbrought":4145,"tery":4146,"ĠTechnology":4147,"ĠID":4148,"Ġenc":4149,"ĠServer":4150,"Ġsummer":4151,"Ġbit":4152,"Ġpled":4153,"ATO":4154,"Ġrecently":4155,"ĠCardinals":4156,"ĠEconom":4157,"iling":4158,"oping":4159,"Ġ35":4160,"Intern":4161,"Ġgoes":4162,"ificant":4163,"ĠNextel":4164,"Yahoo":4165,"ĠCut":4166,"ĠFound":4167,"ailand":4168,"ĠRecord":4169,"ĠFund":4170,"Ġclimb":4171,"Ġending":4172,"ĠIndonesia":4173,"Ad":4174,"point":4175,"Ġastron":4176,"Ġocc":4177,"isl":4178,"Ġrain":4179,"verd":4180,"Ġproposal":4181,"Ġchanges":4182,"Cl":4183,"Tr":4184,"ĠMass":4185,"Ġkept":4186,"EI":4187,"iod":4188,"tr":4189,"Ġaward":4190,"ado":4191,"ĠWhen":4192,"Ġplane":4193,"Ġclosed":4194,"ray":4195,"ĠSil":4196,"ĠAlex":4197,"Ġstates":4198,"Ġchain":4199,"racy":4200,"ĠOffice":4201,"yl":4202,"idents":4203,"ĠSpanish":4204,"ĠiTunes":4205,"lad":4206,"Ġwalk":4207,"Ġborder":4208,"Ġillegal":4209,"More":4210,"Ġpace":4211,"Ġnations":4212,"Ġarch":4213,"Ġconsecutive":4214,"Ġdesign":4215,"Ġproblem":4216,"audi":4217,"Ġslightly":4218,",\"":4219,"bur":4220,"oned":4221,"ority":4222,"alo":4223,"Ġservers":4224,"Ġelectronics":4225,"Ġapplication":4226,"Pro":4227,"cel":4228,"ky":4229,"Ġwa":4230,"ĠConference":4231,"ĠSupreme":4232,"NL":4233,"Ġer":4234,"Ġsending":4235,"Ġciting":4236,"ĠDie":4237,"ĠHall":4238,"apore":4239,"izon":4240,"Ġaircraft":4241,"Ġlawy":4242,"ĠPhiladelphia":4243,"ĠPrix":4244,"enezuel":4245,"makers":4246,"noon":4247,"estic":4248,"rag":4249,"ĠOak":4250,"umm":4251,"Ġguilty":4252,"ĠServices":4253,"Ġissued":4254,"Ġsharply":4255,"13":4256,"100":4257,"Ġsil":4258,"Ġfun":4259,"Ġmy":4260,"Ġdep":4261,"udget":4262,"Ġcoal":4263,"Ġcommission":4264,"ĠHoward":4265,"Ġund":4266,"onstr":4267,"ĠAriz":4268,"owers":4269,"Ġfinance":4270,"eban":4271,"ĠPhilipp":4272,"Ġscheduled":4273,"ĠSans":4274,"ĠCentral":4275,"ĠGrow":4276,"ĠVo":4277,"Ġlonger":4278,"Ġsubs":4279,"Ġesc":4280,"igning":4281,"encies":4282,"Ġcommit":4283,"ĠBeijing":4284,"Ġbelow":4285,"itzer":4286,"ĠAgainst":4287,"ĠCH":4288,"unch":4289,"Ġyoung":4290,"Ġconcern":4291,"Ġsettlement":4292,"Russian":4293,"ara":4294,"Ġkick":4295,"ansion":4296,"Ġimmedi":4297,"inds":4298,"Ġstriker":4299,"ĠChristmas":4300,"Ġnewspaper":4301,"ĠMexico":4302,"hing":4303,"Ġ.":4304,"inary":4305,"ĠTrop":4306,"ĠPutin":4307,"oses":4308,"ĠStar":4309,"Ġurg":4310,"arial":4311,"iconduct":4312,"Ġmoon":4313,"oul":4314,"Ġrange":4315,"Report":4316,"Ġterrorist":4317,"Ġneeds":4318,"Pol":4319,"high":4320,"rain":4321,"Ġbuying":4322,"erer":4323,"Ġsets":4324,"Ġbas":4325,"ĠAriel":4326,"ĠTimes":4327,"ĠOS":4328,"Ġhimself":4329,"ĠAgency":4330,"Ġpoor":4331,"ĠSenate":4332,"16":4333,"inet":4334,"ĠHost":4335,"ĠStores":4336,"Ġdesc":4337,"force":4338,"Ġimportant":4339,"ET":4340,"PeopleSoft":4341,"heast":4342,"enced":4343,"Ġcertain":4344,"Ġplatform":4345,"ĠYear":4346,"Ġroom":4347,"oxx":4348,"=\"#":4349,"=\"-":4350,"ĠSerif":4351,"helvet":4352,"666666":4353,"verdana":4354,"helvetica":4355,"BR":4356,"omin":4357,"ĠBen":4358,"ĠElection":4359,"Ġfeatures":4360,"Ġsanctions":4361,"Ġcover":4362,"Ġhighest":4363,"Ġthrew":4364,"Ġlabor":4365,"Ġblow":4366,"Ġmemory":4367,"ĠTele":4368,"ĠRog":4369,"ĠGen":4370,"ĠStewart":4371,"Ġcrim":4372,"Ġcopy":4373,"Ġtonight":4374,"17":4375,"80":4376,"Air":4377,"Fed":4378,"We":4379,"night":4380,"ĠAL":4381,"ĠClassic":4382,"ĠReds":4383,"iation":4384,"ĠSaf":4385,"earing":4386,"ags":4387,"Ġconc":4388,"Ġvac":4389,"Ġflu":4390,"Ġhostile":4391,"Man":4392,"idge":4393,"ĠJames":4394,"ublican":4395,"Ġbroadband":4396,"kl":4397,"Ġrad":4398,"ĠUr":4399,"Ġsector":4400,"Ġwind":4401,"ĠSecurities":4402,"Ġtools":4403,"Ġinflation":4404,"Ġsports":4405,"Ġsaw":4406,"ikely":4407,"ething":4408,"Ġvoters":4409,"Ġrequest":4410,"Ġcredit":4411,"Ġthese":4412,"ĠTy":4413,"aily":4414,"con":4415,"ĠSant":4416,"Ġran":4417,"ĠNets":4418,"Ġafternoon":4419,"Ġjournal":4420,"usharra":4421,"angu":4422,"ĠAbu":4423,"ĠHigher":4424,"usharraf":4425,"Web":4426,"Ġcirc":4427,"Ġwel":4428,"Ġinvent":4429,"ORON":4430,"Ġ60":4431,"Ġdeveloped":4432,"Ġcaused":4433,"Ġcandidate":4434,"Ġtough":4435,"ĠMicros":4436,"ĠMajor":4437,"ĠInt":4438,"Three":4439,"Ġsweep":4440,"Ġneeded":4441,"ĠRepublic":4442,"Ġnegotiations":4443,"Ġrevealed":4444,"Ġfigures":4445,"jects":4446,"Ġwat":4447,"ĠCase":4448,"ĠHis":4449,"lands":4450,"scri":4451,"Ġpilots":4452,"rint":4453,"Ġtoll":4454,"ĠNHL":4455,"ĠDen":4456,"Ġsees":4457,"ava":4458,"ĠMichigan":4459,"Ġpublished":4460,"Ġtech":4461,"Ġap":4462,"urers":4463,"ĠWay":4464,"Ġspacecraft":4465,"overs":4466,"Ġ400":4467,"Ġexplod":4468,"intendo":4469,"ORONTO":4470,"fect":4471,"Ġseeks":4472,"oric":4473,"ani":4474,"Ġbox":4475,"stand":4476,"Ġstruck":4477,"Ġmoves":4478,"TER":4479,"ingular":4480,"omber":4481,"Ġgives":4482,"ĠRam":4483,"Ġdeploy":4484,"umer":4485,"ĠIns":4486,"Ġflaw":4487,"Ġsignificant":4488,"Ġfunds":4489,"If":4490,"lett":4491,"Ġlab":4492,"Ġ31":4493,"ĠExt":4494,"inisters":4495,"Ġuranium":4496,"Car":4497,"Ġmurder":4498,"Ġvs":4499,"ĠPeace":4500,"ĠMedia":4501,"Ġfavor":4502,"ration":4503,"Ġplanning":4504,"Ġtraining":4505,"Ġowners":4506,"adesh":4507,"ĠJean":4508,"Palestinian":4509,"MP":4510,"Mc":4511,"OU":4512,"uation":4513,"Ġcreat":4514,"Ġtoget":4515,"ĠIf":4516,"odgers":4517,"Ġexpress":4518,"Ġperiod":4519,"Ġbuilt":4520,"Ġtogether":4521,"mers":4522,"Ġweather":4523,"addam":4524,"ĠNigeria":4525,"yard":4526,"Ġtie":4527,"orer":4528,"ĠIm":4529,"ĠOK":4530,"kei":4531,"ikkei":4532,"Ġreduce":4533,"ĠRepublican":4534,"ki":4535,"Ġcal":4536,"Ġhurt":4537,"ĠCamp":4538,"Ġitself":4539,"ĠThailand":4540,"going":4541,"ĠMP":4542,"gress":4543,"Ġdecades":4544,"Ġinsurgents":4545,"Ġinnings":4546,"ĠAv":4547,"ĠNor":4548,"ĠDell":4549,"cep":4550,"Ġworst":4551,"ffic":4552,"Ġbombing":4553,"Ġfiles":4554,"Ġbanks":4555,"mitted":4556,"Ġcontroversial":4557,"here":4558,"alv":4559,"Ġrule":4560,"ĠHus":4561,"ĠOhio":4562,"isted":4563,"Ġgoals":4564,"Ġinterview":4565,"Ġconflict":4566,"Mo":4567,"cow":4568,"Ġsong":4569,"Ġmis":4570,"ĠGets":4571,"Ġ80":4572,"Ġeasy":4573,"Ġpulled":4574,"ĠVioxx":4575,"ĠHaiti":4576,"Ġbook":4577,"allas":4578,"Ġupdate":4579,"Ġlaunches":4580,"Ġmissile":4581,"Ġmovie":4582,"Ġfreed":4583,"Ġshareholders":4584,"Ġlay":4585,"ĠLoss":4586,"Ġresol":4587,"Ġprograms":4588,"iscal":4589,"Ġpractice":4590,"ĠJobs":4591,"Ġsubsid":4592,"CAR":4593,"mart":4594,"Ġintegr":4595,"Ġhelping":4596,"Ġoperator":4597,"Ġappeared":4598,"Ġenvironment":4599,"Crude":4600,"iconductor":4601,"Ġtechn":4602,"ĠIN":4603,"ĠHome":4604,"Ġshopping":4605,"Ġclass":4606,"NYSE":4607,"largest":4608,"Ġwide":4609,"ĠAre":4610,"ĠDou":4611,"ĠYou":4612,"Ġsecure":4613,"oteb":4614,"veland":4615,"Ġrelations":4616,"annie":4617,"Ġintroduced":4618,"Ġmember":4619,"ĠIrish":4620,"Ġ(\\$":4621,"imir":4622,"ĠUt":4623,"ĠKong":4624,"Ġbroker":4625,"Ġquestions":4626,"ĠMotors":4627,"Ġrespons":4628,"ĠPatriots":4629,"Ġstrategy":4630,"rig":4631,"ĠDame":4632,"ifts":4633,"Ġdismiss":4634,"ORE":4635,"ĠHollywood":4636,"ĠOakland":4637,"WA":4638,"pool":4639,"ror":4640,"icult":4641,"Ġexc":4642,"Ġtouchdowns":4643,"Ġtack":4644,"ĠThree":4645,"Iraqi":4646,"United":4647,"):":4648,"ĠRadio":4649,"ĠLab":4650,"Ġspent":4651,"merce":4652,"izing":4653,"ancing":4654,"Ġprotection":4655,"ification":4656,"ĠJeff":4657,"OT":4658,"ounts":4659,"Ġworries":4660,"ounded":4661,"Ġinsp":4662,"ĠTurkey":4663,"ladimir":4664,"rees":4665,"reed":4666,"ĠCisco":4667,"Ġlock":4668,"ĠKills":4669,"Ġmakers":4670,"Ġprogress":4671,"urricanes":4672,"Ġsatellite":4673,"ĠTiger":4674,"ĠMem":4675,"ĠBry":4676,"illed":4677,"Ġcalling":4678,"Ġparts":4679,"uke":4680,"Ġthings":4681,"ĠRa":4682,"ĠStri":4683,"ĠChairman":4684,"Ġshowing":4685,"iverpool":4686,"ĠCompany":4687,"Ġrecovery":4688,"Fl":4689,"Gl":4690,"RA":4691,"ĠGet":4692,"Ġprosp":4693,"Ġhel":4694,"Ġenterprise":4695,"Ġdifferent":4696,"ladesh":4697,"Ġauction":4698,"aris":4699,"ĠFormer":4700,"Ġassault":4701,"Ġpasses":4702,"Ġdamage":4703,"ĠArizona":4704,"Tech":4705,"war":4706,"Ġsport":4707,"ĠTake":4708,"ĠBonds":4709,"agement":4710,"Ġ2000":4711,"Ġdecade":4712,"ĠReg":4713,"Ġsurgery":4714,"Ġphot":4715,"Ġbatt":4716,"ĠCarl":4717,"EA":4718,"Ġfix":4719,"ulner":4720,"ried":4721,"ements":4722,"ĠInto":4723,"Ġjail":4724,"ĠEnron":4725,"Ġsurf":4726,"Ġsurpr":4727,"ĠDead":4728,"burgh":4729,"Jo":4730,"VER":4731,"iny":4732,"irst":4733,"ĠDrop":4734,"ĠOf":4735,"ensions":4736,"Ġwarns":4737,"azon":4738,"ranch":4739,"ĠEngine":4740,"Ġordered":4741,"Ġdownload":4742,"Ġprobably":4743,"backs":4744,"ios":4745,"arry":4746,"Ġcle":4747,"Ġwhy":4748,"ĠKing":4749,"venth":4750,"Ġpassed":4751,"ĠFinancial":4752,"Ġowner":4753,"Ġmoment":4754,"ery":4755,"emb":4756,"Ġisn":4757,"ibr":4758,"ĠProd":4759,"Ġtargets":4760,"ĠFla":4761,"Ġoperation":4762,"Ġproducer":4763,"ĠGeorg":4764,"Ġterms":4765,"ĠIPO":4766,"ĠDivision":4767,"rad":4768,"Ġpair":4769,"ĠTarg":4770,"Ġlose":4771,"Ġgather":4772,"uted":4773,"ĠKy":4774,"ucks":4775,"Ġindepend":4776,"Ġarrived":4777,"zilla":4778,"Ġpit":4779,"poration":4780,"Ġprocessor":4781,"Ġremained":4782,"week":4783,"Ġcatch":4784,"phoon":4785,"Ġseconds":4786,"ĠForce":4787,"Ġbroke":4788,"Ġextended":4789,"Ġdomestic":4790,"Ġapproval":4791,"ĠDefense":4792,"Ġrepresent":4793,"Nokia":4794,"ĠPan":4795,"ola":4796,"ighb":4797,"action":4798,"Ġprep":4799,"Ġlegisl":4800,"Ġbeginning":4801,"Ġbelieve":4802,"ĠSouthern":4803,"ĠCost":4804,"ĠFord":4805,"raves":4806,"ques":4807,"Ġcricket":4808,"enness":4809,"ĠFormula":4810,"ality":4811,"ĠHit":4812,"ĠJets":4813,"ĠKarzai":4814,"Ġrenew":4815,"Nasdaq":4816,"gu":4817,"itrust":4818,"Ġyen":4819,"Ġsurprise":4820,"Ġprevent":4821,"Ġextra":4822,"Ġsharp":4823,"ĠPolice":4824,"ĠMicrosystems":4825,"Ġ\\":4826,"Ġpict":4827,"ĠSusp":4828,"nder":4829,"ĠCy":4830,"ĠMiddle":4831,"ĠThere":4832,"ĠPlans":4833,"Ġmassive":4834,"Ġsomething":4835,"Ġcomplete":4836,"fire":4837,"aterial":4838,"Ġadvertising":4839,"Ġwrong":4840,"isions":4841,"ackard":4842,"enspan":4843,"Ġ49":4844,"Ġ64":4845,"Ġtrain":4846,"Ġrefug":4847,"ĠSwed":4848,"amsung":4849,"ĠGlobal":4850,"ĠCubs":4851,"Cisco":4852,"Ġshr":4853,"ĠVladimir":4854,"au":4855,"break":4856,"onents":4857,"Ġcrew":4858,"ĠSir":4859,"utions":4860,"iment":4861,"ĠRel":4862,"Ġblack":4863,"print":4864,"Ġimpact":4865,"Ġrelief":4866,"Ġhoping":4867,"Ġreplace":4868,"CL":4869,"reg":4870,"ĠTechnologies":4871,"ĠPowell":4872,"ĠBaseball":4873,"ĠNAS":4874,"ĠEr":4875,"ocracy":4876,"Ġblue":4877,"Ġindic":4878,"Ġbrok":4879,"Ġearthqu":4880,"Am":4881,"box":4882,"gency":4883,"heim":4884,"ĠSaddam":4885,"oura":4886,"ĠCuts":4887,"Ġrank":4888,"ĠOs":4889,"abinet":4890,"Ġdelay":4891,"ĠSees":4892,"oor":4893,"ĠMets":4894,"raig":4895,"ĠHits":4896,"ĠLow":4897,"Ġarm":4898,"Ġcoast":4899,"ackson":4900,"Ġknee":4901,"computer":4902,"Ġdisappoin":4903,"inh":4904,"erem":4905,"oshib":4906,"ĠThom":4907,"Ġresc":4908,"ĠMartin":4909,"Ġtroubled":4910,"Dell":4911,"Ġide":4912,"Ġfiscal":4913,"ĠDallas":4914,"tsburgh":4915,"Ġflat":4916,"Ġ500":4917,"ĠClub":4918,"Ġdiscovered":4919,"Shar":4920,"essional":4921,"arters":4922,"Ġcas":4923,"igers":4924,"otion":4925,"ĠGovernment":4926,"Ġarms":4927,"Ġlawsuits":4928,"President":4929,"oshiba":4930,"RO":4931,"ĠAust":4932,"eling":4933,"ĠKn":4934,"Ġcool":4935,"Ġtrip":4936,"Ġcommon":4937,"Ġdeadline":4938,"Ġpositive":4939,"finals":4940,"Ġcause":4941,"ĠEagles":4942,"Ġpromp":4943,"Ġoutput":4944,"Ġamb":4945,"Ġsubscri":4946,"Ġstandard":4947,"ĠEarnings":4948,"richment":4949,"ĠSome":4950,"ĠChelsea":4951,"ĠBA":4952,"ĠSteel":4953,"ĠHamas":4954,"ĠCleveland":4955,"HE":4956,"bes":4957,"Ġathlet":4958,"arian":4959,"Ġboy":4960,"Ġdone":4961,"ĠMillion":4962,"ĠFree":4963,"ĠNorthern":4964,"Ġ2002":4965,"Ġworldwide":4966,"ĠEnergy":4967,"athon":4968,"Ġtried":4969,"Ġfacing":4970,"ĠAngels":4971,"Ġstruggling":4972,"Packard":4973,"eals":4974,"Ġdanger":4975,"elves":4976,"ĠBid":4977,"ĠRises":4978,"awks":4979,"Ġsuit":4980,"ĠIvory":4981,"Eng":4982,"ĠFirefox":4983,"Ġexploded":4984,"GE":4985,"ature":4986,"Ġcross":4987,"ĠHat":4988,"ĠKh":4989,"Ġintelligence":4990,"Ġmarketing":4991,"Ġfalling":4992,"Ġwounding":4993,"Ġmortgage":4994,"24":4995,"aur":4996,"ht":4997,"ĠVict":4998,"odies":4999,"ĠPosts":5000,"ĠMae":5001,"Ġveter":5002,"Le":5003,"ecial":5004,"irac":5005,"ĠStep":5006,"Ġappears":5007,"ĠSprint":5008,"atings":5009,"ĠExpress":5010,"DAY":5011,"ĠPercent":5012,"NBA":5013,"Ġties":5014,"Ġsession":5015,"Ġpers":5016,"lew":5017,"ĠLank":5018,"ĠRele":5019,"Ġdemands":5020,"There":5021,"Ġcollege":5022,"AMD":5023,"klah":5024,"Net":5025,"ao":5026,"orado":5027,"Ġpaid":5028,"Ġpension":5029,"Ġbase":5030,"ighth":5031,"ĠKansas":5032,"ĠExpos":5033,"Ġcommun":5034,"Ġmoving":5035,"Ġbenefits":5036,"oddick":5037,"GM":5038,"omic":5039,"Ġlot":5040,"ĠUkraine":5041,"usted":5042,"Ġfinish":5043,"Ġadop":5044,"Ġsurge":5045,"Ġaddress":5046,"ACE":5047,"Ġannouncement":5048,"ĠExplorer":5049,"klahoma":5050,"ĠImp":5051,"Ġgreen":5052,"ĠWestern":5053,"ĠDolphins":5054,"Ġventure":5055,"Ġspark":5056,"ization":5057,"Ġimage":5058,"ĠExecutive":5059,"ĠScott":5060,"Ġdetails":5061,"Ġwatchdog":5062,"Ġsuffered":5063,"Scientists":5064,"Ġapproach":5065,"eman":5066,"ocial":5067,"Ġscore":5068,"Ġhighs":5069,"ARIS":5070,"Ġdeveloping":5071,"Ġdeadly":5072,"imbab":5073,"ĠJustice":5074,"BI":5075,"ĠEver":5076,"ĠBoard":5077,"ias":5078,"ĠFour":5079,"ĠLeban":5080,"ums":5081,"ucial":5082,"efore":5083,"imbabwe":5084,"half":5085,"eded":5086,"Ġmiles":5087,"ĠAct":5088,"ĠFood":5089,"tha":5090,"ĠDelta":5091,"ĠHot":5092,"rive":5093,"istance":5094,"Ġresign":5095,"Ġ2001":5096,"Ġallowed":5097,"Ġneighb":5098,"erty":5099,"Ġfiling":5100,"Ġsoldier":5101,"altim":5102,"ĠDisc":5103,"Ġcriminal":5104,"PH":5105,"inth":5106,"erg":5107,"attle":5108,"Ġhun":5109,"ĠJune":5110,"awn":5111,"speed":5112,"OSCO":5113,"European":5114,"altimore":5115,"roke":5116,"Ġrap":5117,"ĠGulf":5118,"Ġunl":5119,"Ġ34":5120,"Australian":5121,"ĠDesktop":5122,"Ġpitcher":5123,"ĠMSN":5124,"ION":5125,"real":5126,"Ġdeter":5127,"ĠCorporation":5128,"mselves":5129,"ĠGrowth":5130,"Ġcable":5131,"aly":5132,"ĠSam":5133,"ĠMusharraf":5134,"Ġstem":5135,"ĠIraqis":5136,"acher":5137,"Ġbombs":5138,"Ġtelephone":5139,"Ġrestruct":5140,"Ġallegations":5141,"OSCOW":5142,"ĠStart":5143,"Ġplot":5144,"enses":5145,"Ġscr":5146,"Ġflights":5147,"Shares":5148,"Ġtwice":5149,"Sing":5150,"oke":5151,"atab":5152,"ĠPent":5153,"Ġlack":5154,"ĠLower":5155,"avens":5156,"Ġorig":5157,"ucted":5158,"ĠArgent":5159,"Ġvictims":5160,"Ġoptim":5161,"ennessee":5162,"Dow":5163,"Ġthemselves":5164,"Ġgirl":5165,"Ġnumbers":5166,"Ġgrand":5167,"Ġmessage":5168,"ĠDiego":5169,"eated":5170,"not":5171,"Ġsoft":5172,"edia":5173,"Ġtom":5174,"Ġministers":5175,"teroid":5176,"eline":5177,"ĠOld":5178,"awa":5179,"Ġinside":5180,"ĠConn":5181,"ĠColin":5182,"Ġorders":5183,"Ġlevels":5184,"communications":5185,"ĠUtah":5186,"Off":5187,"ĠSn":5188,"ĠCam":5189,"ĠNetworks":5190,"ĠGar":5191,"ĠHas":5192,"ĠJava":5193,"Ġvulner":5194,"Ġbecoming":5195,"ĠSmith":5196,"board":5197,"Ġpurchase":5198,"All":5199,"ni":5200,"Ġhy":5201,"Ġhous":5202,"Ġcrack":5203,"Ġraising":5204,"Ġhistoric":5205,"Ġattemp":5206,"ĠMoscow":5207,"General":5208,"fin":5209,"aries":5210,"ĠSaudi":5211,"ami":5212,"Ġcommunity":5213,"Ġthreats":5214,"ĠDevelop":5215,"Ġspecies":5216,"weight":5217,"Ġpolls":5218,"ĠCHICAGO":5219,"ĠTrophy":5220,"Ara":5221,"edd":5222,"ĠAG":5223,"Ġansw":5224,"Ġseventh":5225,"Ġreportedly":5226,"ĠOutlook":5227,"Look":5228,"fe":5229,"help":5230,"iled":5231,"Ġnames":5232,"ĠPrize":5233,"Ġoffense":5234,"Ġtraders":5235,"Ġqualifying":5236,"Ġvalue":5237,"75":5238,"bs":5239,"Ġbudget":5240,"Ġareas":5241,"ortel":5242,"Ġassets":5243,"ĠEnglish":5244,"tering":5245,"oting":5246,"ĠDon":5247,"ĠJose":5248,"Ġexchange":5249,"Ġsixth":5250,"Ġdriver":5251,"Ġwebs":5252,"Ġestimates":5253,"ius":5254,"keep":5255,"nam":5256,"ano":5257,"Ġchar":5258,"ĠThreat":5259,"urns":5260,"Ġ70":5261,"news":5262,"ĠAMD":5263,"rate":5264,"Ġsure":5265,"Ġmut":5266,"etary":5267,"ĠHom":5268,"ĠJim":5269,"Ġupset":5270,"Ġscient":5271,"Ġdisplay":5272,"Ġadvanced":5273,"ĠPakistani":5274,"ĠAssociates":5275,"35":5276,"Will":5277,"Ġdraft":5278,"ither":5279,"Ġshift":5280,"Ġprovince":5281,"Ġtests":5282,"Ġpatent":5283,"French":5284,"'re":5285,".-":5286,"gener":5287,"arrow":5288,"Ġpanel":5289,"Ġbrief":5290,"ĠMount":5291,"Ġgrew":5292,"ĠJason":5293,"ĠStill":5294,"istrict":5295,"Ġinstead":5296,"Ġcritical":5297,"ĠKilled":5298,"ĠPittsburgh":5299,"cat":5300,"eer":5301,"eas":5302,"atural":5303,"Ġpurs":5304,"ctic":5305,"Ġheating":5306,"ickets":5307,"Ġexpansion":5308,"Ġresolution":5309,"Ġkills":5310,"Ġmean":5311,"Ġbegins":5312,"ĠPremier":5313,"Ġtennis":5314,"ĠWeek":5315,"Ġhear":5316,"ĠStand":5317,"ĠVenezuel":5318,"ulls":5319,"Ġprem":5320,"ruption":5321,"ifficult":5322,"ĠHoldings":5323,"ĠMicro":5324,"ĠBangladesh":5325,"ĠMary":5326,"Ġstory":5327,"ĠStation":5328,"ĠChall":5329,"Ġaccept":5330,"Ġsecret":5331,"Ġregular":5332,"Ġairport":5333,"Ġlooked":5334,"ĠQuarter":5335,"ĠTreasury":5336,"ĠRoger":5337,"Ġmount":5338,"ĠSem":5339,"otype":5340,"ĠOw":5341,"oph":5342,"iction":5343,"Ġopener":5344,"Ġsummit":5345,"Ġfastest":5346,"otebook":5347,"ĠBryant":5348,"ero":5349,"Ġlands":5350,"ĠIll":5351,"Ġspl":5352,"ĠFalls":5353,"Ġfamiliar":5354,"Ġvoting":5355,"Ġseems":5356,"Ġupgrade":5357,"Ġcompleted":5358,"Ġbur":5359,"Ġmiddle":5360,"ĠTel":5361,"ules":5362,"anda":5363,"Ġvar":5364,"Ġquit":5365,"Ġrelated":5366,"Phil":5367,"Ġcars":5368,"iced":5369,"omen":5370,"olis":5371,"ĠDodgers":5372,"ĠLad":5373,"Ġvirt":5374,"Ġexports":5375,"ĠPrice":5376,"ĠAbb":5377,"Ġcurrency":5378,"LC":5379,"za":5380,"edro":5381,"Ġfoot":5382,"ĠMag":5383,"Ġninth":5384,"Ġlines":5385,"Ġgolf":5386,"imin":5387,"ĠEy":5388,"ument":5389,"ivity":5390,"ordan":5391,"ogn":5392,"aze":5393,"range":5394,"ĠMarch":5395,"ĠColorado":5396,"ĠNotre":5397,"eckham":5398,"ĠMinistry":5399,"Ġthing":5400,"Ġrall":5401,"quir":5402,"anded":5403,"aining":5404,"Ġunexpected":5405,"Ġstrength":5406,"Ġdefensive":5407,"ĠOfficial":5408,"Ġantitrust":5409,"Ġcollect":5410,"ĠAssociated":5411,"Se":5412,"van":5413,"erate":5414,"Ġreally":5415,"ĠLast":5416,"ĠJackson":5417,"ĠFrank":5418,"Ġcrucial":5419,"Ġindustrial":5420,"ĠTrans":5421,"Ġstudents":5422,"Ġforecasts":5423,"Britain":5424,"Ġhotel":5425,"iro":5426,"ĠSeen":5427,"ĠFight":5428,"ĠEmb":5429,"Ġupd":5430,"portunity":5431,"azine":5432,"Ġrecords":5433,"Ġhandheld":5434,"ITY":5435,"ĠFalluja":5436,"Ġpackage":5437,"long":5438,"hell":5439,"icop":5440,"road":5441,"Ġoften":5442,"ĠChen":5443,"ĠBaltimore":5444,"aks":5445,"elled":5446,"Ġseed":5447,"ĠCoach":5448,"Ġdemonstr":5449,"ĠAbout":5450,"Ġtreatment":5451,"ĠGeorgia":5452,"rick":5453,"te":5454,"itig":5455,"Ġlive":5456,"Ġstun":5457,"Ġclimate":5458,"ĠSaturn":5459,"ĠClaim":5460,"ĠCommittee":5461,"ĠScot":5462,"ĠShiite":5463,"LOS":5464,"Ġhurricane":5465,"ĠNob":5466,"ĠLines":5467,"uble":5468,"Ġfinished":5469,"izer":5470,"overnor":5471,"Ġorganiz":5472,"struction":5473,"Ġchalleng":5474,"Ġentire":5475,"Ġsemif":5476,"Ġconsidering":5477,"Ġtomorrow":5478,"PS":5479,"onse":5480,"Ġcy":5481,"Ġhon":5482,"Ġhor":5483,"Ġincome":5484,"Ġends":5485,"Ġheaded":5486,"Ġjoined":5487,"Ġmatter":5488,"Ġpreviously":5489,"Gr":5490,"Ver":5491,"bury":5492,"ique":5493,"pre":5494,"usion":5495,"ĠRem":5496,"aine":5497,"Ġallows":5498,"Ġtesting":5499,"Ġformat":5500,"Ġdram":5501,"Ġprepared":5502,"ĠIndustry":5503,"Delta":5504,"rd":5505,"uan":5506,"iners":5507,"asc":5508,"acity":5509,"isting":5510,"ivid":5511,"sein":5512,"Ġarmed":5513,"apping":5514,"Ġjumped":5515,"SPACE":5516,"HO":5517,"Top":5518,"engt":5519,"ĠOklahoma":5520,"Ġenrichment":5521,"ĠAirbus":5522,"Ġmissed":5523,"Ġmanufacturing":5524,"Ġpartnership":5525,"Ġdeclared":5526,"Des":5527,"How":5528,"Sudan":5529,"gen":5530,"Ġways":5531,"Ġbought":5532,"ĠCould":5533,"Ġring":5534,"Ġvia":5535,"Ġclash":5536,"ĠVote":5537,"Ġleads":5538,"iban":5539,"ALEM":5540,"Ġinclude":5541,"evin":5542,"Internet":5543,"Wal":5544,"Ġrefer":5545,"ĠJew":5546,"inez":5547,"Ġaccep":5548,"Ġresume":5549,"Ġresidents":5550,"ously":5551,"Ġindex":5552,"Ġcreated":5553,"Ġvoted":5554,"ĠLeader":5555,"Ġschedule":5556,"stitution":5557,"Cons":5558,"Ġfaster":5559,"Ġhalt":5560,"ĠBall":5561,"ĠWales":5562,"Ġstars":5563,"Ġjud":5564,"antage":5565,"Ġwarming":5566,"Star":5567,"Ġretailers":5568,"ĠMerck":5569,"Ġdenied":5570,"Ġquickly":5571,"He":5572,"Res":5573,"hard":5574,"kish":5575,"Ġdate":5576,"ĠRangers":5577,"ogs":5578,"Ġteen":5579,"TOKYO":5580,"Ġoptions":5581,"Ġmaterial":5582,"Ġdifficult":5583,"ĠBell":5584,"ĠDow":5585,"umble":5586,"ĠKeep":5587,"abilities":5588,"Ġcustomer":5589,"ĠSudanese":5590,"Ġbringing":5591,"ĠPacific":5592,"19":5593,"Ġill":5594,"ĠSEC":5595,"Ġnothing":5596,"Ġthanks":5597,"Ġclosing":5598,"Ġhomer":5599,"icipated":5600,"Ġeyes":5601,"beaten":5602,"Ser":5603,"Ticker":5604,"TORONTO":5605,"horn":5606,"itiz":5607,"Ġcents":5608,"Ġcards":5609,"ali":5610,"ĠWrap":5611,"ĠNokia":5612,"ĠStorm":5613,"aval":5614,"assini":5615,"Ġelectronic":5616,"Ġconditions":5617,"fielder":5618,"Ġdocuments":5619,"Ġwitnesses":5620,"Ġcopyright":5621,"VI":5622,"ĠSay":5623,"ocol":5624,"ĠVol":5625,"bean":5626,"ĠManning":5627,"Ġmodel":5628,"What":5629,"ĠMarsh":5630,"helps":5631,"ml":5632,"mates":5633,"ĠTennessee":5634,"ĠGood":5635,"eway":5636,"ĠHong":5637,"ĠVik":5638,"Ġrecall":5639,"Ġdisease":5640,"Ġtraffic":5641,"Ġbanking":5642,"Ġextend":5643,"Ġdelayed":5644,"Ġeastern":5645,"itigroup":5646,"lers":5647,"ĠPGA":5648,"ĠLat":5649,"odaf":5650,"USATO":5651,"Ġdiscl":5652,"Ġadding":5653,"ĠOrganization":5654,"USATODAY":5655,"oom":5656,"Ġfigh":5657,"ĠBern":5658,"ĠRoman":5659,"Ġdeals":5660,"rys":5661,"ushing":5662,"Ġdecide":5663,"Ġchanged":5664,"Ġdoubt":5665,"Ġgeneration":5666,"ĠMalays":5667,"odafone":5668,"Ġmixed":5669,"Ġeighth":5670,"apolis":5671,"Ġorgan":5672,"USALEM":5673,"Ġsetting":5674,"eful":5675,"ERUSALEM":5676,"ĠAnnan":5677,"atabase":5678,"JING":5679,"ĠHP":5680,"Ġcomputing":5681,"Ġjet":5682,"Ġscience":5683,"Ġstrengt":5684,"Ġcutting":5685,"EIJING":5686,"html":5687,"generation":5688,"40":5689,"400":5690,"First":5691,"ĠSystem":5692,"enty":5693,"aint":5694,"Ġwasn":5695,"Ġsmart":5696,"Ġreturns":5697,"Ġpreparing":5698,"Ġlinked":5699,"ĠPhilippines":5700,"ĠHussein":5701,"AU":5702,"To":5703,"hi":5704,"Ġson":5705,"Ġbodies":5706,"ĠTakes":5707,"ription":5708,"ampa":5709,"Ġsteps":5710,"Ġemergency":5711,"castle":5712,"Ġinflu":5713,"Ġinvolved":5714,"ĠLanka":5715,"Business":5716,"Sch":5717,"Ġfr":5718,"olic":5719,"ĠBraves":5720,"ĠUnder":5721,"Ġ300":5722,"ĠRobert":5723,"Sadr":5724,"bl":5725,"Ġthr":5726,"ĠPack":5727,"ĠBet":5728,"porter":5729,"Ġ32":5730,"ĠFederer":5731,"Ġcandidates":5732,"Ġpriority":5733,"ĠLaden":5734,"Ziff":5735,"lins":5736,"ĠSim":5737,"otor":5738,"ĠGreek":5739,"ewis":5740,"Ġscores":5741,"ught":5742,"Ġadvance":5743,"ĠQaeda":5744,"Ġdoctors":5745,"Ġeye":5746,"Ġcancer":5747,"Ġapparently":5748,"ĠRichard":5749,"Bar":5750,"ued":5751,"rec":5752,"ilar":5753,"ĠTigers":5754,"ador":5755,"ĠJac":5756,"Ġupcoming":5757,"ONG":5758,"Ġcrashed":5759,"Ġmovies":5760,"ĠElectronics":5761,"Ġoption":5762,"Ġbelieves":5763,"Vo":5764,"ĠCA":5765,"ĠPenn":5766,"Ġrare":5767,"ĠDam":5768,"ĠLook":5769,"izes":5770,"errill":5771,"Ġboosted":5772,"Ġsolid":5773,"ĠHamid":5774,"Ġbelieved":5775,"ĠAttack":5776,"ymn":5777,"ĠTitan":5778,"ĠNASCAR":5779,"ĠSchool":5780,"ĠNY":5781,"ĠRally":5782,"uburn":5783,"ibly":5784,"ĠAllawi":5785,"Ġreceiver":5786,"Space":5787,"ĠHelp":5788,"Ġcoalition":5789,"55":5790,"TV":5791,"oning":5792,"Ġsought":5793,"Ġband":5794,"ĠCelt":5795,"ĠArt":5796,"France":5797,"quiry":5798,"Bank":5799,"ein":5800,"inning":5801,"ĠTerror":5802,"ersey":5803,"ĠHug":5804,"apse":5805,"anging":5806,"ĠCollege":5807,"Ġactivities":5808,"Ġbegun":5809,"Ġcarrying":5810,"rysler":5811,"Ġsens":5812,"Ġstre":5813,"ĠDonald":5814,"Ġalways":5815,"aven":5816,"ierce":5817,"Ġincludes":5818,"Ġallegedly":5819,"ĠCell":5820,"ĠGM":5821,"Ġanim":5822,"ĠLiverpool":5823,"Ġhearing":5824,"Ġ33":5825,"Ġmanagers":5826,"Ġputs":5827,"Ġcentury":5828,"Ġiniti":5829,"John":5830,"Ed":5831,"Nov":5832,"Some":5833,"aheim":5834,"Ġbott":5835,"aceut":5836,"ĠFrances":5837,"Ins":5838,"racts":5839,"Ġtrib":5840,"ĠAdministration":5841,"Ġaims":5842,"ĠBroad":5843,"PA":5844,"Ġut":5845,"inter":5846,"Ġpun":5847,"ils":5848,"ĠCraig":5849,"ĠNep":5850,"ĠNikkei":5851,"Ġabd":5852,"rowing":5853,"Ġpartner":5854,"Ġsurged":5855,"armaceut":5856,"Ġestab":5857,"Ġretirement":5858,"49":5859,"Ġwife":5860,"stant":5861,"ĠMatt":5862,"ĠPoll":5863,"Ġgone":5864,"Ġgoods":5865,"ĠDS":5866,"ĠDeath":5867,"umn":5868,"Ġshock":5869,"Ġterrorists":5870,"iership":5871,"Ġsmaller":5872,"Ġactivity":5873,"Ġconnect":5874,"Ġfriend":5875,"Ġhelicop":5876,"Big":5877,"LO":5878,"Not":5879,"TE":5880,"gic":5881,"iary":5882,"ĠCITY":5883,"ĠMov":5884,"irth":5885,"Ġunions":5886,"Ġflood":5887,"Ġconfident":5888,"Ġspeculation":5889,"Ġentered":5890,"ĠIndiana":5891,"Ġbroadcast":5892,"Ġindependent":5893,"22":5894,"65":5895,"Gold":5896,"million":5897,"mission":5898,"oe":5899,"Ġturning":5900,"usive":5901,"Ġadmitted":5902,"Ġmajority":5903,"ĠBigley":5904,"England":5905,")--":5906,"ĠAz":5907,"ĠTer":5908,"ĠLife":5909,"Ġalthough":5910,"ucing":5911,"Ġuns":5912,"ĠAlan":5913,"Ġbuys":5914,"Ġputting":5915,"ĠHewitt":5916,"Four":5917,"Ġtext":5918,"Ġwait":5919,"Ġbooks":5920,"ĠCal":5921,"ubble":5922,"Ġdeveloper":5923,"Ġshooting":5924,"UM":5925,"Ġens":5926,"Ġpushed":5927,"Ġhal":5928,"Ġvice":5929,"Ġspend":5930,"Ġspect":5931,"isher":5932,"bert":5933,"Ġregional":5934,"attled":5935,"Ġsteel":5936,"ĠPlayer":5937,"RM":5938,"Sw":5939,"Ġawa":5940,"asion":5941,"Ġmys":5942,"osen":5943,"istons":5944,"Ġage":5945,"Ġscreen":5946,"Ġdevast":5947,"ĠCongo":5948,"ĠMartinez":5949,"Ġimproved":5950,"finance":5951,"BO":5952,"Bo":5953,"Kerry":5954,"eration":5955,"Ġbol":5956,"ĠMess":5957,"Ġliving":5958,"Ġele":5959,"Ġease":5960,"Ġagent":5961,"Ġresigned":5962,"rawl":5963,"type":5964,"Ġstarts":5965,"ĠCharles":5966,"operation":5967,"ĠLaunch":5968,"Ġmachines":5969,"Ġmutual":5970,"PM":5971,"rast":5972,"uild":5973,"heastern":5974,"Ġcities":5975,"Ġpatch":5976,"terror":5977,"ĠBur":5978,"ĠBillion":5979,"chie":5980,"iana":5981,"Ġrook":5982,"place":5983,"Ġ45":5984,"Ġdefending":5985,"Ġparties":5986,"Ġpromised":5987,"Ġremaining":5988,"ĠHamm":5989,"ĠAttorney":5990,"ĠSingapore":5991,"Ġwithdrawal":5992,"hit":5993,"hman":5994,"erc":5995,"esl":5996,"esis":5997,"Ġmist":5998,"ushes":5999,"ĠWatch":6000,"Ġstadium":6001,"ĠNuclear":6002,"ĠRoddick":6003,"ĠEv":6004,"Ġbehead":6005,"Ġovertime":6006,"Ġofficers":6007,"ĠSatellite":6008,"ĠConf":6009,"Ġremote":6010,"Ġresponse":6011,"Ġembassy":6012,"Ġprisoners":6013,"Afghan":6014,"ĠAnti":6015,"Ġveteran":6016,"AOL":6017,"HI":6018,"wait":6019,"init":6020,"ĠMy":6021,"ĠBears":6022,"ĠWil":6023,"rier":6024,"Ġflash":6025,"Ġstronger":6026,"othing":6027,"innati":6028,"THENS":6029,"ĠTaliban":6030,"incinnati":6031,"ĠDespite":6032,"ĠMeet":6033,"Ġimmediately":6034,"room":6035,"Ġnarrow":6036,"ĠII":6037,"Ġvill":6038,"iple":6039,"icky":6040,"ĠShow":6041,"ĠProbe":6042,"Ġindivid":6043,"Ġtrouble":6044,"Ġ90":6045,"ysis":6046,"Ġstandards":6047,"Ġedge":6048,"Ġsimilar":6049,"Ġdestro":6050,"60":6051,"cape":6052,"election":6053,"onent":6054,"ĠCall":6055,"ĠJr":6056,"assi":6057,"ĠSpeed":6058,"Ġdeclined":6059,"Ġassist":6060,"ELS":6061,"Ġhanded":6062,"Ġfinding":6063,"Ġvotes":6064,"ĠCuba":6065,"IE":6066,"LS":6067,"jan":6068,"Ġhum":6069,"Ġlog":6070,"uster":6071,"ĠChris":6072,"Ġabuse":6073,"ĠAndy":6074,"Ġhardware":6075,"ĠLaunches":6076,"yanmar":6077,"FO":6078,"MAN":6079,"Ġcast":6080,"ĠJournal":6081,"argo":6082,"Ġattend":6083,"Ġadvantage":6084,"Ġvoice":6085,"Ġmatches":6086,"Ġwidely":6087,"Just":6088,"ca":6089,"hran":6090,"ĠLib":6091,"odak":6092,"Ġattention":6093,"phere":6094,"Ġstrikes":6095,"ĠGreenspan":6096,"ĠMcL":6097,"Ġinvestigating":6098,"ĠSyria":6099,"Ġshuttle":6100,"ĠPremiership":6101,"Ġincreasingly":6102,"Ġsituation":6103,"Police":6104,"Kore":6105,"ped":6106,"Ġsides":6107,"Ġfine":6108,"Ġdual":6109,"ĠGreat":6110,"abul":6111,"Ġovernight":6112,"Ġ38":6113,"Ġprelim":6114,"ĠColomb":6115,"otten":6116,"Ġentertainment":6117,"Ġterrit":6118,"Ġdescrib":6119,"Ġbroken":6120,"Mich":6121,"Op":6122,"Time":6123,"arq":6124,"Ġword":6125,"Ġpur":6126,"ĠProp":6127,"Ġrecomm":6128,"ĠThan":6129,"Ġunbeaten":6130,"ĠBoost":6131,"annel":6132,"Ġfinds":6133,"ĠAtlantic":6134,"ĠTwins":6135,"ĠTarget":6136,"Ġrenewed":6137,"cons":6138,"ĠRaid":6139,"apova":6140,"Ġleaves":6141,"Ġkind":6142,"Ġ41":6143,"Ġplanet":6144,"Ġdoing":6145,"iversary":6146,"minent":6147,"Ġacquired":6148,"Ġunveils":6149,"Ġmagazine":6150,"prof":6151,"Ġvehicle":6152,"yond":6153,"Ġtent":6154,"Ġwave":6155,"Ġhole":6156,"ĠRun":6157,"ĠHeat":6158,"ĠLewis":6159,"Ġbeyond":6160,"Ġquiet":6161,"ointed":6162,"opped":6163,"Ġsemi":6164,"Ġseparate":6165,"Ġspeech":6166,"Computer":6167,"ABUL":6168,"05":6169,"BUR":6170,"aver":6171,"bel":6172,"inch":6173,"outs":6174,"ĠATHENS":6175,"ĠMost":6176,"ests":6177,"Ġvowed":6178,"Ġspir":6179,"Ġovert":6180,"Ġreserv":6181,"Ġdisaster":6182,"USS":6183,"ĠPalm":6184,"Ġparent":6185,"ĠSwiss":6186,"ietnam":6187,"ĠMozilla":6188,"ĠPacers":6189,"ĠStrike":6190,"Ġdisappointing":6191,"Bomb":6192,"PT":6193,"Ship":6194,"cks":6195,"Ġbin":6196,"Ġinn":6197,"Ġmine":6198,"state":6199,"ĠBas":6200,"ĠKey":6201,"Ġaband":6202,"Ġscoring":6203,"Ġremov":6204,"ĠPhone":6205,"Ġadds":6206,"Ġtelecommunications":6207,"Ġdeaths":6208,"buster":6209,"arqawi":6210,".;":6211,"Brazil":6212,"North":6213,"feld":6214,"Ġcat":6215,"ĠSk":6216,"ĠCingular":6217,"ĠNL":6218,"rav":6219,"antec":6220,"ĠLeg":6221,"Ġdefence":6222,"Ġmeans":6223,"ĠBlu":6224,"Ġfeature":6225,"Ġsupercomputer":6226,"FOR":6227,"Ġcorn":6228,"Ġprize":6229,"ĠTampa":6230,"ĠMakes":6231,"ĠRon":6232,"ĠDigital":6233,"ĠOPEC":6234,"opes":6235,"ĠChile":6236,"Ġopens":6237,"Ġimages":6238,"Ġheading":6239,"Ġlaws":6240,"Ġbrand":6241,"Ġfailure":6242,"Ġcontinuing":6243,"Ġdirectors":6244,"Ġmaintain":6245,"escription":6246,"ĠIndonesian":6247,"Ġclean":6248,"Ġearthquake":6249,"ĠJewish":6250,"OC":6251,"TC":6252,"fort":6253,"iece":6254,"jhtml":6255,"iter":6256,"atist":6257,"Ġfranch":6258,"Ġmic":6259,"ĠMid":6260,"Ġrac":6261,"ĠRand":6262,"ĠHer":6263,"ĠEuro":6264,"ĠStan":6265,"ĠKevin":6266,"arta":6267,"Ġcontrib":6268,"Ġappeals":6269,"ĠRev":6270,"Ġsued":6271,"Ġbombings":6272,"Ġleadership":6273,"Ġtraditional":6274,"ĠRooney":6275,"ĠMontreal":6276,"Ġwebsite":6277,"21":6278,"sym":6279,"Ġwords":6280,"ĠPedro":6281,"igious":6282,"illy":6283,"Ġrather":6284,"owb":6285,"ĠRod":6286,"oca":6287,"Ġworm":6288,"seeded":6289,"ĠVideo":6290,"anged":6291,"ooth":6292,"ĠForec":6293,"Ġassass":6294,"Ġpostp":6295,"oppers":6296,"ijay":6297,"ofi":6298,"Ġgrab":6299,"Ġrallied":6300,"aug":6301,"cient":6302,"gian":6303,"Ġtiny":6304,"Ġbarg":6305,"star":6306,"ĠMach":6307,"ĠPT":6308,"ĠHockey":6309,"ĠLiber":6310,"ĠJordan":6311,"ordon":6312,"Ġcrimes":6313,"Ġ700":6314,"QuoteLook":6315,"ĠZimbabwe":6316,"Ġsuspects":6317,"Ġinfotype":6318,"Ġkeeping":6319,"Ġnationwide":6320,"Ġqcat":6321,"Ġqtype":6322,"financeQuoteLook":6323,"financeQuoteLookup":6324,"Ab":6325,"CE":6326,"inos":6327,"anes":6328,"Ġbacks":6329,"icious":6330,"ĠSeeks":6331,"Ġder":6332,"Ġdie":6333,"ĠTax":6334,"Ġlives":6335,"ĠBron":6336,"ĠDollar":6337,"Ġplays":6338,"Ġplaced":6339,"ĠChart":6340,"aby":6341,"apped":6342,"umped":6343,"Ġincreases":6344,"Ġdiscover":6345,"ĠColumb":6346,"Ġcompete":6347,"Ġcaptured":6348,"Ġtackle":6349,"fizer":6350,"arily":6351,"Ġfan":6352,"Ġcitiz":6353,"icts":6354,"rob":6355,"Ġdies":6356,"idered":6357,"Ġreject":6358,"ĠRiver":6359,"ĠRoyal":6360,"Ġlear":6361,"ĠVis":6362,"Ġalliance":6363,"Ġslam":6364,"INE":6365,"Ġknock":6366,"umps":6367,"Ġrebounds":6368,"Ġclaiming":6369,"Ġsucceed":6370,"ĠNovell":6371,"Indones":6372,"Ġinstant":6373,"stitute":6374,"Ġcamera":6375,"Ġdozens":6376,"celona":6377,"ymnast":6378,"va":6379,"well":6380,"Ġten":6381,"Ġfair":6382,"Ġham":6383,"Ġnatural":6384,"ĠFannie":6385,"Ġrises":6386,"apers":6387,"ĠJon":6388,"berg":6389,"rowns":6390,"Ġallowing":6391,"Ġattorney":6392,"Ġofficially":6393,"Ġsupporters":6394,"Ġextension":6395,"ĠOffer":6396,"ĠBarry":6397,"Ġrookie":6398,"Card":6399,"Ear":6400,"Sup":6401,"cine":6402,"Ġbell":6403,"ĠMove":6404,"ĠWalk":6405,"estone":6406,"Real":6407,"ubs":6408,"Ġabs":6409,"anges":6410,"ĠJoe":6411,"Ġlineup":6412,"Ġlaunching":6413,"ĠGuard":6414,"Ġsentenced":6415,"Ġcaught":6416,"ĠCharl":6417,"Ġpredict":6418,"Ġvehicles":6419,"cos":6420,"mond":6421,"yad":6422,"Ġsun":6423,"Ġwest":6424,"ĠMet":6425,"igger":6426,"ĠGun":6427,"agon":6428,"aints":6429,"ĠIsland":6430,"Ġcapacity":6431,"Ġattacked":6432,"Ġevening":6433,"ĠRedskins":6434,"70":6435,"Def":6436,"iem":6437,"Ġtechnologies":6438,"het":6439,"Ġsal":6440,"ĠAid":6441,"urton":6442,"Ġstret":6443,"lying":6444,"Ġrout":6445,"Ġperfect":6446,"iburton":6447,"ĠAnaheim":6448,"Ġkeeps":6449,"Ġedged":6450,"Ġsolution":6451,"Ġelimin":6452,"LAND":6453,"Ġrestructuring":6454,"German":6455,"SA":6456,"had":6457,"kle":6458,"Ġsy":6459,"Ġpip":6460,"ĠMake":6461,"Ġrein":6462,"Ġcomeb":6463,"ĠYour":6464,"Ġoverall":6465,"ucation":6466,"ĠSha":6467,"Ġdefeated":6468,"Study":6469,"Ġdemocracy":6470,"Ġholds":6471,"ervez":6472,"ĠTroops":6473,"Ġprosecutors":6474,"ĠCarlos":6475,"El":6476,"Sm":6477,"Source":6478,"TLE":6479,"Ġbi":6480,"Ġdatabase":6481,"adem":6482,"ĠRavens":6483,"Ġability":6484,"Ġproviders":6485,"Ġreporting":6486,"Ġauto":6487,"ĠPlayers":6488,"Arsenal":6489,"Ġfeel":6490,"ĠMorgan":6491,"ĠCapital":6492,"Ġcoup":6493,"ĠNobel":6494,"High":6495,"Ġtell":6496,"Ġwake":6497,"ĠIM":6498,"ĠBreak":6499,"Ġemail":6500,"Ġcomments":6501,"ĠInf":6502,"Ġwhite":6503,"Ġking":6504,"venue":6505,"ĠEntertainment":6506,"Ġchoice":6507,"Ġexpressed":6508,"Ġsongs":6509,"Ġrapid":6510,"ĠScotland":6511,"18":6512,"Boston":6513,"JA":6514,"Ġwond":6515,"Ġpra":6516,"ĠSri":6517,"ĠMr":6518,"ĠPervez":6519,"Ġgiants":6520,"ĠeBay":6521,"ĠRad":6522,"Ġchances":6523,"Ġagencies":6524,"iege":6525,"Ġunless":6526,"Ġassoci":6527,"Ġviolent":6528,"engers":6529,"Ġtowards":6530,"ĠMilan":6531,"Ġapolog":6532,"Hol":6533,"hood":6534,"Ġachie":6535,"arks":6536,"icals":6537,"ĠCincinnati":6538,"owled":6539,"aked":6540,"ĠJack":6541,"Ġvan":6542,"enders":6543,"ounce":6544,"ĠChip":6545,"Ġenj":6546,"Ġraises":6547,"Ġthreatening":6548,"Ġobserv":6549,"Ġcomeback":6550,"04":6551,"29":6552,"haps":6553,"Ġonto":6554,"Ġeased":6555,"thrit":6556,"ourcing":6557,"Ġseized":6558,"ĠUnveil":6559,"Ġbacked":6560,"Info":6561,"ĠAli":6562,"Ġtelecom":6563,"Ġadvis":6564,"Ġpoised":6565,"Ġtempor":6566,"Ġvendor":6567,"ĠWayne":6568,"Ġpreliminary":6569,"Gu":6570,"reens":6571,"Ġpen":6572,"Ġbomber":6573,"icing":6574,"Ġdrove":6575,"ĠCent":6576,"ecess":6577,"ĠWor":6578,"ĠDun":6579,"ĠGates":6580,"ĠHass":6581,"Ġimm":6582,"Ġcommand":6583,"sule":6584,"rolled":6585,"CAA":6586,"ĠEgyptian":6587,"Ġzone":6588,"Olymp":6589,"Sy":6590,"SBC":6591,"met":6592,"och":6593,"Ġult":6594,"Ġmal":6595,"ĠBeckham":6596,"ĠInj":6597,"ĠStore":6598,"APORE":6599,"Ġblasts":6600,"gram":6601,"ĠLeads":6602,"ĠReports":6603,"pril":6604,"elson":6605,"INGAPORE":6606,"posed":6607,"Ġprocessors":6608,"Ġevents":6609,"Ġlifted":6610,"Ġdrives":6611,"udden":6612,"Ġvendors":6613,"Ġwelcom":6614,"ShipOne":6615,"And":6616,"Central":6617,"Tokyo":6618,"Ġfees":6619,"Ġcerem":6620,"aling":6621,"Ġpiracy":6622,"Ġdream":6623,"ached":6624,"ĠHear":6625,"Ġtruck":6626,"raphics":6627,"Ġinvolving":6628,"ĠChallenge":6629,"ĠClaims":6630,"thritis":6631,"Tur":6632,"ae":6633,"born":6634,"sters":6635,"Ġtur":6636,"Ġsidel":6637,"Ġfort":6638,"ĠHard":6639,"ĠLee":6640,"osh":6641,"ĠEqu":6642,"umph":6643,"Ġannounces":6644,"Ġfailing":6645,"Ġemerged":6646,"Ġcriticism":6647,"ĠEconomic":6648,"EG":6649,"itude":6650,"ĠSum":6651,"ĠGh":6652,"Ġspr":6653,"Ġworks":6654,"ĠUnit":6655,"Ġgovernments":6656,"ĠManagement":6657,"Ġrefused":6658,"Ġcondem":6659,"ĠSchilling":6660,"EMBER":6661,"Ġsafe":6662,"Palm":6663,"Ġportable":6664,"Ġunlikely":6665,"PR":6666,"SEC":6667,"YD":6668,"Ġice":6669,"eras":6670,"Ġbul":6671,"ĠAthlet":6672,"eland":6673,"Ġlap":6674,"rawn":6675,"unich":6676,"Ġaltern":6677,"Ġwinds":6678,"Ġarg":6679,"arsh":6680,"ĠColts":6681,"Ġdelays":6682,"ĠTehran":6683,"ĠAuto":6684,"ĠSteelers":6685,"Ġstreets":6686,"MOSCOW":6687,"aida":6688,"auts":6689,"ru":6690,"wh":6691,"ĠMel":6692,"agers":6693,"Ġshipping":6694,"uggle":6695,"Ġnewly":6696,"Ġjury":6697,"ebr":6698,"Ġplanes":6699,"Ġpartic":6700,"Ġsurround":6701,"ĠForces":6702,"ĠSeason":6703,"Indian":6704,"Ġinstall":6705,"Ġdoubled":6706,"Ġproperty":6707,"Security":6708,"Ġencoura":6709,"Ġwaiting":6710,"ĠArgentina":6711,"Ġdramatic":6712,"Hurricane":6713,"PARIS":6714,"SS":6715,"power":6716,"esp":6717,"ĠCarter":6718,"ĠAOL":6719,"etts":6720,"amous":6721,"Ġplun":6722,"Ġoffset":6723,"Ġalive":6724,"ĠVietnam":6725,"ĠUSA":6726,"Ġresum":6727,"Ġanniversary":6728,"ĠPlc":6729,"Ġpassenger":6730,"Ġdeadl":6731,"ĠWhat":6732,"Ġturns":6733,"Ġpeacekeep":6734,"sharing":6735,"Ġbreaking":6736,"Blair":6737,"Ġmanufacturer":6738,"ĠHewlett":6739,"haul":6740,"Ġself":6741,"ĠPhelps":6742,"ĠBus":6743,"ĠNintendo":6744,"emen":6745,"Ġheat":6746,"Ġconsidered":6747,"Ġrevers":6748,"ĠHead":6749,"Ġbanned":6750,"Ġcollapse":6751,"Ġpicked":6752,"NEY":6753,"Ġoccup":6754,"Ġerup":6755,"anguage":6756,"Ġtechnical":6757,"47":6758,"Hew":6759,"Ġcurb":6760,"ĠApril":6761,"Ġris":6762,"quarters":6763,"ĠGra":6764,"ĠLions":6765,"ables":6766,"ĠThird":6767,"Ġtrigger":6768,"oya":6769,"Ġ65":6770,"Ġannouncing":6771,"italia":6772,"Ġsoaring":6773,"Ġraid":6774,"inois":6775,"ĠAuthor":6776,"known":6777,"ĠThomas":6778,"owboys":6779,"InfoWorld":6780,"FC":6781,"sun":6782,"Ġcold":6783,"usetts":6784,"Ġstreet":6785,"ĠLarry":6786,"achusetts":6787,"oyota":6788,"Ġfalls":6789,"ĠAmazon":6790,"ummary":6791,"De":6792,"FI":6793,"aire":6794,"tada":6795,"Ġinquiry":6796,"Ġhurricanes":6797,"lement":6798,"Ġongoing":6799,"ĠPet":6800,"ĠFinal":6801,"ĠDirect":6802,"ĠJersey":6803,"Ġquite":6804,"Ġuser":6805,"Ġseasons":6806,"Ġheads":6807,"eseason":6808,"Ġpostseason":6809,"ĠBuild":6810,"ĠQue":6811,"Ġpatients":6812,"Ġtraded":6813,"Ġmessages":6814,"Ġpushing":6815,"Ġlawyers":6816,"Ġcreating":6817,"Ġidea":6818,"LA":6819,"cont":6820,"side":6821,"ister":6822,"ĠSA":6823,"irates":6824,"imp":6825,"ĠHave":6826,"ĠJays":6827,"Ġsecurities":6828,"ector":6829,"Ġcontracts":6830,"ĠĠĠĠ":6831,"Ġtries":6832,"ĠAcqu":6833,"Ġconvicted":6834,"ĠJeanne":6835,"Ġfranchise":6836,"Che":6837,"Val":6838,"ĠSign":6839,"Ġeither":6840,"ĠGolf":6841,"aped":6842,"Ġclashes":6843,"Ġunf":6844,"Ġliqu":6845,"ĠAndre":6846,"Ġschools":6847,"Ġcivilians":6848,"Ġimproving":6849,"Ġuncertain":6850,"Ġsurprising":6851,"IAN":6852,"bar":6853,"dollar":6854,"Ġdial":6855,"ĠCD":6856,"ĠGov":6857,"Ġinjuring":6858,"related":6859,"Ġpossibly":6860,"While":6861,"Ġstatus":6862,"Ġfavour":6863,"Ġdismissed":6864,"San":6865,"pass":6866,"Ġpact":6867,"aying":6868,"ĠRap":6869,"ĠRoy":6870,"ĠGary":6871,"Ġconvention":6872,"ĠYoung":6873,"Ġcontest":6874,"lected":6875,"atcher":6876,"ennan":6877,"Ġposts":6878,"Ġdevelopers":6879,"arming":6880,"ĠRetail":6881,"Ġmeasures":6882,"Arafat":6883,"\"\\":6884,"Do":6885,"IG":6886,"Mobile":6887,"Pac":6888,"cost":6889,"Ġsigning":6890,"aret":6891,"Ġfit":6892,"Ġbirth":6893,"ĠPackers":6894,"Ġshots":6895,"Ġexam":6896,"acking":6897,"Ġunits":6898,"ibbean":6899,"Ġslide":6900,"Ġconserv":6901,"airs":6902,"Ġinsisted":6903,"ĠSecond":6904,"Ġexplosives":6905,"ĠSettle":6906,"Ġradical":6907,"Ġrefugee":6908,"YDNEY":6909,"EFA":6910,"burg":6911,"ground":6912,"Ġmos":6913,"Ġlows":6914,"ĠBrian":6915,"akarta":6916,"arden":6917,"outheast":6918,"herlands":6919,"Ġworker":6920,"Ġcommunications":6921,"Ġweight":6922,"iversal":6923,"shot":6924,"Ġreceive":6925,"Ġcondition":6926,"Online":6927,"Ġpractices":6928,"Ġfigure":6929,"ĠConsumer":6930,"Ġmachine":6931,"London":6932,"Mer":6933,"Ġera":6934,"Ġsound":6935,"ĠMiller":6936,"ĠDaily":6937,"ĠHoll":6938,"Ġatomic":6939,"ĠKofi":6940,"ĠCommerce":6941,"azer":6942,"Ġswitch":6943,"ĠOffers":6944,"MSFT":6945,"Japanese":6946,"ĠTurkish":6947,"Ġmulti":6948,"Ġdriving":6949,"Ġlawyer":6950,"Sharon":6951,"CD":6952,"Canada":6953,"Neal":6954,"Qaida":6955,"isation":6956,"ayer":6957,"ĠSource":6958,"Ġhockey":6959,"ĠPast":6960,"ĠPass":6961,"olm":6962,"ĠId":6963,"ĠHD":6964,"ĠLo":6965,"endum":6966,"ĠNewcastle":6967,"Ġimpress":6968,"ĠWarns":6969,"Ġgreater":6970,"ĠDelhi":6971,"ĠChechen":6972,"Ġgained":6973,"ĠArabia":6974,"Ġsquad":6975,"Ġlegislation":6976,"ĠVenezuela":6977,"Cont":6978,"Judge":6979,"ez":6980,"uros":6981,"esh":6982,"Ġbench":6983,"ĠPistons":6984,"Ġracing":6985,"cher":6986,"Ġrecogn":6987,"Ġstruggle":6988,"Ġinfring":6989,"ructure":6990,"standing":6991,"embly":6992,"Ġrescue":6993,"ĠLebanon":6994,"ergus":6995,"ĠMcLennan":6996,"AA":6997,"Donald":6998,"Sil":6999,"final":7000,"itect":7001,"lee":7002,"oline":7003,"employ":7004,"Ġopportunity":7005,"ashion":7006,"Ġholy":7007,"ĠDemocrats":7008,"ĠEnterprise":7009,"ĠCounty":7010,"ĠBAGHDAD":7011,"Sprint":7012,"ban":7013,"mate":7014,"ĠSqu":7015,"ĠWalt":7016,"ĠKenn":7017,"Ġspread":7018,"Ġ48":7019,"Ġreleases":7020,"Ġevac":7021,"ĠIndianapolis":7022,"Ġviruses":7023,"ĠRebels":7024,"ĠDenver":7025,"ĠJacques":7026,"USSELS":7027,"300":7028,"Calif":7029,"Ret":7030,"Ġ)":7031,"esters":7032,"arr":7033,"Ġcur":7034,"Ġnotebook":7035,"Ġlibr":7036,"ĠDEL":7037,"ĠLim":7038,"ĠJagu":7039,"Ġheard":7040,"ĠKobe":7041,"ĠKabul":7042,"artner":7043,"Ġattract":7044,"Ġprovided":7045,"Ġpassengers":7046,"AMA":7047,"Ġdriven":7048,"ĠNigerian":7049,"ĠFields":7050,"Ġdozen":7051,"Ġconclud":7052,"Washington":7053,"mits":7054,"Ġshel":7055,"rett":7056,"ĠSold":7057,"ĠSix":7058,"Ġdi":7059,"stra":7060,"ĠTre":7061,"ĠTurn":7062,"ĠPle":7063,"ĠNe":7064,"Ġprove":7065,"iamond":7066,"Ġpromises":7067,"Ġsolar":7068,"Ġeverything":7069,"Ġsemiconductor":7070,"Ġplayoffs":7071,"90":7072,"OP":7073,"ĠWon":7074,"ĠOpt":7075,"Ġconstruction":7076,"ĠStud":7077,"ĠStudy":7078,"ĠKim":7079,"Ġspring":7080,"Ġenh":7081,"Ġorganization":7082,"ĠAnton":7083,"Ġ76":7084,"Ġthroughout":7085,"ĠWhile":7086,"Ġfellow":7087,"Ġtaxes":7088,"MacCentral":7089,"ĠInvestors":7090,"Ġfriends":7091,"Ġsplit":7092,"45":7093,"Virgin":7094,"You":7095,"mens":7096,"Ġbal":7097,"ĠBefore":7098,"Ġstopped":7099,"ĠNeed":7100,"Ġdeleg":7101,"ĠKar":7102,"avez":7103,"ortheast":7104,"uresmo":7105,"ĠMariners":7106,"Ġadditional":7107,"Ġsells":7108,"armony":7109,"iolence":7110,"ĠCaribbean":7111,"Ġbeta":7112,"Ġconnection":7113,"ĠBobby":7114,"Ġbitter":7115,"ĠKyoto":7116,"Ġbottom":7117,"erguson":7118,"inters":7119,"rell":7120,"ĠAuburn":7121,"ĠTrial":7122,"ĠToshiba":7123,"ĠMah":7124,"Ġgear":7125,"Ġaggress":7126,"ipe":7127,"ashing":7128,"Ġaren":7129,"Ġbeats":7130,"ĠMcC":7131,"ĠSunni":7132,"Ġbreaks":7133,"Ġsteady":7134,"Ġmessaging":7135,"Ġpresent":7136,"Ġcombat":7137,"Ġclimbed":7138,"Ġresolve":7139,"Ġenvironmental":7140,"Global":7141,"Berry":7142,"Can":7143,"TR":7144,"like":7145,"Ġbre":7146,"Ġhour":7147,"ĠCos":7148,"ĠPen":7149,"cean":7150,"ĠOv":7151,"ocal":7152,"ocket":7153,"Ġcommittee":7154,"Ġrelie":7155,"ĠSeven":7156,"Ġjoining":7157,"Ġidentity":7158,"Ġpledged":7159,"ĠVoIP":7160,"Ġsemifinals":7161,"Ġcorner":7162,"28":7163,"Be":7164,"Nortel":7165,"oen":7166,"ua":7167,"zy":7168,"Ġfrust":7169,"alyst":7170,"Ġmaster":7171,"ĠWild":7172,"ovo":7173,"ĠSpam":7174,"Ġphys":7175,"ĠBlock":7176,"Ġairlines":7177,"Ġmanaged":7178,"Ġinjuries":7179,"Ġfounder":7180,"azaa":7181,"Ġpredicted":7182,"Ġsubscribers":7183,"Research":7184,"Ġfighters":7185,"46":7186,"Ġtable":7187,"Ġtied":7188,"Ġsudden":7189,"icated":7190,"leans":7191,"omer":7192,"ĠTri":7193,"eled":7194,"ĠRay":7195,"ĠGas":7196,"ĠJam":7197,"Ġdeput":7198,"enda":7199,"ifying":7200,"Ġspyware":7201,"ossible":7202,"Ġsuspension":7203,"redit":7204,"Ġpolitic":7205,"Ġmodels":7206,"CoMo":7207,"ĠMassachusetts":7208,"Ġresignation":7209,"rastructure":7210,"iemens":7211,"Zarqawi":7212,"bor":7213,"eter":7214,"Ġcease":7215,"ĠAhead":7216,"ĠPad":7217,"ĠGe":7218,"ĠLyn":7219,"ocused":7220,"Ġdepart":7221,"ensing":7222,"Ġregard":7223,"Ġmilitia":7224,"Station":7225,"ATION":7226,"inking":7227,"Ġanything":7228,"Ġsky":7229,"ĠSchw":7230,"ĠNetherlands":7231,"Ġclinch":7232,"Ġjournalists":7233,"Ġprepare":7234,"Ġdangerous":7235,"awaited":7236,"Ġenjoy":7237,"qtada":7238,"Ġsteroid":7239,"ĠSalv":7240,"omes":7241,"omers":7242,"amo":7243,"ĠBBC":7244,"ounces":7245,"Ġalert":7246,"antas":7247,"Ġbacking":7248,"Ġflags":7249,"ĠArrest":7250,"Ġbigger":7251,"athan":7252,"Ġknew":7253,"Ġextrem":7254,"eneg":7255,"Ġfaced":7256,"enalty":7257,"Ġcarried":7258,"Ġpleaded":7259,"Ġseemed":7260,"Ġbenefit":7261,"Ġapparent":7262,"Ġdetermin":7263,"ĠConnect":7264,"Ġhousing":7265,"lor":7266,"oil":7267,"wich":7268,"zz":7269,"ĠPhoto":7270,"ĠEdition":7271,"Ġstepped":7272,"Ġmarathon":7273,"Ġrespond":7274,"Ġintroduce":7275,"Despite":7276,"Ġstrengthen":7277,"BOS":7278,"Fire":7279,"Qaeda":7280,"Ġfather":7281,"ĠCassini":7282,"owa":7283,"Ġankle":7284,"Ġvide":7285,"ORTS":7286,"Ġaccident":7287,"Ġaccounts":7288,"ĠSpitzer":7289,"USTON":7290,"Ġlawmakers":7291,"Ġshowdown":7292,"Ġserve":7293,"Ġminute":7294,"ĠOrleans":7295,"ĠEdwards":7296,"Ġcleared":7297,"Ġexpanding":7298,"Ġdominated":7299,"Ġpotentially":7300,"Michael":7301,"Ġceremony":7302,"Court":7303,"DS":7304,"rated":7305,"ĠSeek":7306,"ĠSports":7307,"ĠFoods":7308,"ĠGordon":7309,"iab":7310,"Ġsharing":7311,"They":7312,"Ġhighly":7313,"ĠAnother":7314,"Ġmedals":7315,"ĠAirport":7316,"Ġclosely":7317,"Ġopponents":7318,"iffe":7319,"mohan":7320,"ĠDevices":7321,"ĠLonghorn":7322,"Ġwatched":7323,"ĠRaises":7324,"Ġdestroy":7325,"ĠLibya":7326,"Ag":7327,"LIN":7328,"Mon":7329,"NFL":7330,"Su":7331,"can":7332,"king":7333,"Ġsust":7334,"around":7335,"Ġpion":7336,"Ġpaper":7337,"Ġmind":7338,"ĠSadr":7339,"uty":7340,"apter":7341,"anson":7342,"urned":7343,"Ġinvestor":7344,"ERS":7345,"Ġstronghold":7346,"utsche":7347,"Cor":7348,"piracy":7349,"work":7350,"ĠSite":7351,"ĠDr":7352,"Ġaside":7353,"Ġearn":7354,"Ġslipped":7355,"Ġdefend":7356,"Invest":7357,"Ġanticipated":7358,"cliffe":7359,"Ġvisiting":7360,"ĠQuest":7361,"TAWA":7362,"uggish":7363,"Ġreaching":7364,"ambod":7365,"Ġlandmark":7366,"Ġqualifier":7367,"ĠHassan":7368,"Br":7369,"FID":7370,"VIL":7371,"ZA":7372,"Ġfarm":7373,"Ġcore":7374,"Ġporn":7375,"omet":7376,"olid":7377,"ĠRoll":7378,"Ġcompens":7379,"Ġoffices":7380,"uces":7381,"Ġarthritis":7382,"Ġcannot":7383,"Ġheadquarters":7384,"Ġcorruption":7385,"Ġreduced":7386,"Ġholes":7387,"ĠFirm":7388,"Ġsuffering":7389,"Ġrejects":7390,"Ġpicture":7391,"ĠEmbassy":7392,"Verizon":7393,"54":7394,"AG":7395,"Brief":7396,"Ham":7397,"SU":7398,"TT":7399,"Wall":7400,"Ġir":7401,"Ġfat":7402,"ili":7403,"ĠWomen":7404,"Ġagents":7405,"Ġworry":7406,"Quarter":7407,"azz":7408,"Inter":7409,"Ġproduce":7410,"Ġlargely":7411,"Ġ198":7412,"umping":7413,"Ġhitting":7414,"Ġchem":7415,"Ġrequire":7416,"Ġpresence":7417,"Ġsuggests":7418,"Dis":7419,"Dav":7420,"Federal":7421,"OK":7422,"Yankees":7423,"def":7424,"arant":7425,"ittle":7426,"Ġbrawl":7427,"Ġmus":7428,"level":7429,"acco":7430,"ĠBattle":7431,"Ġgran":7432,"Ġprojects":7433,"lando":7434,"Ġcouldn":7435,"ahawks":7436,"Ġparticip":7437,"Ġbids":7438,"amilton":7439,"Ġsuccessor":7440,"Cola":7441,"ĠRockets":7442,"ĠCharges":7443,"Ġassistant":7444,"ĠColumbia":7445,"IV":7446,"Manchester":7447,"SH":7448,"mes":7449,"tops":7450,"Ġcart":7451,"ĠCanc":7452,"ulate":7453,"ĠStrong":7454,"uccess":7455,"onda":7456,"Ġ55":7457,"Ġtriumph":7458,"ĠFlat":7459,"ĠSerb":7460,"Ġpaying":7461,"ĠBuff":7462,"Ġmodest":7463,"Ġeasier":7464,"Ġcritics":7465,"ĠEls":7466,"ĠHelens":7467,"Ġcameras":7468,"Ġpitched":7469,"ĠGarc":7470,"azeera":7471,"ĠAntonio":7472,"den":7473,"giving":7474,"ĠSub":7475,"Ġdig":7476,"stone":7477,"ĠMour":7478,"ĠWenger":7479,"ĠFerr":7480,"ĠHy":7481,"ĠJakarta":7482,"umacher":7483,"ounced":7484,"ĠTheft":7485,"arket":7486,"Ġexpert":7487,"izards":7488,"Ġads":7489,"grade":7490,"urred":7491,"ĠClin":7492,"Ġamount":7493,"Ġexplo":7494,"Ġproduced":7495,"Ġanyone":7496,"ĠIranian":7497,"ĠMotion":7498,"Ġconduct":7499,"ĠPeter":7500,"ĠLeaders":7501,"Ġmanufacturers":7502,"Ġwrites":7503,"ĠTitans":7504,"ĠMosul":7505,"Ġurges":7506,"ĠGenesis":7507,"Ġranking":7508,"ĠAustria":7509,"Korea":7510,"ĠForecast":7511,".\\\\":7512,"CI":7513,"OG":7514,"fall":7515,"life":7516,"rone":7517,"Ġign":7518,"Ġhur":7519,"leet":7520,"Ġdoping":7521,"idend":7522,"ĠCurt":7523,"ĠRules":7524,"through":7525,"Ġsav":7526,"ĠKmart":7527,"inea":7528,"ĠThanks":7529,"ĠArctic":7530,"Ġimplement":7531,"Ġsuspect":7532,"ĠApprov":7533,"BAD":7534,"Ġcausing":7535,"Ġkidnappers":7536,"Ġmeasure":7537,"ĠVerizon":7538,"Ġinventories":7539,"Ġresponsible":7540,"ĠLabour":7541,"Ġdescribed":7542,"sunami":7543,"Ford":7544,"LD":7545,"ien":7546,"ss":7547,"woman":7548,"ateway":7549,"ĠCalls":7550,"ĠMut":7551,"ĠOT":7552,"Ġproceed":7553,"aching":7554,"Ġimpl":7555,"Ġorbit":7556,"Ġproviding":7557,"ikes":7558,"Ġjoins":7559,"ucky":7560,"Forbes":7561,"Ġpossibility":7562,"ĠMuslims":7563,"Ġsuccessfully":7564,"Ġchallenges":7565,"GB":7566,"Law":7567,"Search":7568,"Ty":7569,"dney":7570,"nel":7571,"tech":7572,"Ġcases":7573,"alem":7574,"ĠColl":7575,"ĠTHE":7576,"Ġlinks":7577,"Ġgro":7578,"ĠFace":7579,"ĠDan":7580,"Ġseat":7581,"icken":7582,"ologists":7583,"Ġagrees":7584,"ĠAppl":7585,"Ġcentre":7586,"Ġnetworking":7587,"ĠEdge":7588,"ĠSharapova":7589,"Ġsubsidiary":7590,"ĠOsama":7591,"Ġhelicopter":7592,"Milit":7593,"Oct":7594,"Pat":7595,"hill":7596,"mon":7597,"oral":7598,"atively":7599,"Ġousted":7600,"Ġbull":7601,"Ġmarg":7602,"Ġhike":7603,"Ġdaily":7604,"ache":7605,"ĠPeople":7606,"Ġgam":7607,"ĠFar":7608,"Ġrat":7609,"umber":7610,"abled":7611,"ective":7612,"Ġearned":7613,"Ġworlds":7614,"ĠEnv":7615,"ĠPhill":7616,"ĠAdd":7617,"minute":7618,"ĠSea":7619,"ĠBrad":7620,"Ġexperim":7621,"Ġobtain":7622,"Ġentry":7623,"Ġinsurgent":7624,"Ġsuggested":7625,"Ġillegally":7626,"missions":7627,"ĠWorkers":7628,"ĠSolaris":7629,"ĠHostage":7630,"Ġanswer":7631,"Ġvirtual":7632,"Ġcitizens":7633,"ĠDELHI":7634,"Don":7635,"ln":7636,"reck":7637,"isner":7638,"aser":7639,"ĠTool":7640,"acement":7641,"Ġnorm":7642,"ĠBan":7643,"Ġgraphics":7644,"thony":7645,"ĠHand":7646,"Ġsecretary":7647,"enson":7648,"active":7649,"away":7650,"Ġblamed":7651,"Ġweaker":7652,"ĠForest":7653,"ĠMarlins":7654,"remlin":7655,"EST":7656,"Ġexpanded":7657,"Ġdelivered":7658,"Ġtalking":7659,"ycos":7660,"Ġcouple":7661,"Ġreforms":7662,"Novell":7663,"UT":7664,"lon":7665,"Ġ/":7666,"Ġtre":7667,"itches":7668,"Ġfate":7669,"alks":7670,"ĠCowboys":7671,"Ġem":7672,"Ġeuros":7673,"ĠWants":7674,"aste":7675,"Ġoverhaul":7676,"Ġintens":7677,"ample":7678,"Ġ2008":7679,"Ġdisrupt":7680,"ĠShare":7681,"Ġ42":7682,"Ġstring":7683,"Ġwarnings":7684,"Ġrecording":7685,"Ġhelps":7686,"Ġinfrastructure":7687,"Ġversions":7688,"Ġdemanding":7689,"ĠToday":7690,"ĠPlayStation":7691,"etrole":7692,"CHICAGO":7693,"Ġaffect":7694,"ĠTitle":7695,"Ġoverseas":7696,"ĠMilitants":7697,"umsfeld":7698,"ĠUnveils":7699,"Acc":7700,"DP":7701,"MT":7702,"Networks":7703,"Nintendo":7704,"burn":7705,"cott":7706,"zech":7707,"Ġpowers":7708,"Ġbreat":7709,"Ġinaug":7710,"Ġmil":7711,"ĠSocial":7712,"olves":7713,"ĠBrowns":7714,"Ġep":7715,"ĠFox":7716,"ĠRw":7717,"ĠOb":7718,"obb":7719,"Ġjailed":7720,"Ġ2007":7721,"Ġ66":7722,"Ġ600":7723,"ĠReuters":7724,"Ġplants":7725,"ĠAbd":7726,"SPN":7727,"ĠCharley":7728,"Ġestimated":7729,"Ġfeared":7730,"Ġfavorite":7731,"Ġlockout":7732,"inho":7733,"ĠStandard":7734,"ĠMalaysia":7735,"employment":7736,"VILLE":7737,"99":7738,"Egypt":7739,"Gre":7740,"best":7741,"cle":7742,"tion":7743,"Ġtim":7744,"ĠSears":7745,"ĠSamsung":7746,"ĠMarg":7747,"ecurity":7748,"Ġlove":7749,"ĠGains":7750,"ĠLine":7751,"rif":7752,"Ġ150":7753,"ĠKodak":7754,"fford":7755,"Ġscreens":7756,"ĠIndians":7757,"Ġreturning":7758,"Ġcapsule":7759,"Ste":7760,"ATTLE":7761,"ĠClose":7762,"Ġtargeting":7763,"Ġeveryone":7764,"Ġemerging":7765,"Ġpositions":7766,"Ġdownloads":7767,"Ġhappy":7768,"Ġflying":7769,"ecially":7770,"CNN":7771,"House":7772,"Samsung":7773,"dem":7774,"Ġesp":7775,"ĠMad":7776,"ĠPil":7777,"ĠFind":7778,"ĠESPN":7779,"ĠJoin":7780,"ordin":7781,"icking":7782,"Ġperhaps":7783,"Ġ36":7784,"Ġfined":7785,"Ġdispl":7786,"ortium":7787,"Ġlarger":7788,"Ġrebound":7789,"Ġprogramme":7790,"ĠAgassi":7791,"ĠXbox":7792,"Ġtitles":7793,"Ġlowest":7794,"ĠPartners":7795,"ĠEnds":7796,"Ġrolled":7797,"ĠEconomy":7798,"Ġsilver":7799,"ymnastics":7800,"etroleum":7801,"BEIJING":7802,"Chelsea":7803,"Per":7804,"billion":7805,"hour":7806,"na":7807,"nya":7808,"race":7809,"western":7810,"ĠStern":7811,"Ġhired":7812,"stroke":7813,"stein":7814,"ĠFal":7815,"ĠFut":7816,"chnya":7817,"astic":7818,"ĠStaff":7819,"ĠTheir":7820,"ipse":7821,"ĠYears":7822,"ĠProv":7823,"ĠConvention":7824,"Ġremember":7825,"Ġmeetings":7826,"ĠOrd":7827,"ĠChampionships":7828,"Ġcollabor":7829,"ĠUsers":7830,"Ġdepartment":7831,"Ġensure":7832,"53":7833,"oard":7834,"vic":7835,"Ġcyc":7836,"olen":7837,"ĠDC":7838,"ĠDick":7839,"Ġcomplex":7840,"Ġcompared":7841,"ĠVs":7842,"Ġunpre":7843,"Ġmonthly":7844,"ĠScience":7845,"Ġfollow":7846,"Ġfollowed":7847,"ĠGuinea":7848,"egas":7849,"Ġheavyweight":7850,"ĠProtocol":7851,"ography":7852,"Ġcommissioner":7853,"avaliers":7854,"Ġterritory":7855,"JERUSALEM":7856,"West":7857,"eet":7858,"no":7859,"Ġet":7860,"Ġdark":7861,"ĠBasketball":7862,"Ġstands":7863,"ĠFav":7864,"ĠFerguson":7865,"ĠUEFA":7866,"ĠLOS":7867,"ĠInstitute":7868,"Ġackn":7869,"cedented":7870,"Ġelectric":7871,"ĠItanium":7872,"Ġofferings":7873,"Ġbrother":7874,"ĠBarcelona":7875,"Ġinstit":7876,"umbled":7877,"Ġspammers":7878,"Ġdiplomats":7879,"Ġastronauts":7880,"Ġreferendum":7881,"48":7882,"card":7883,"making":7884,"nie":7885,"Ġpole":7886,"Ġbron":7887,"Ġhunt":7888,"ĠCross":7889,"ĠPublic":7890,"ĠBR":7891,"ĠBuc":7892,"Ġasks":7893,"ĠStra":7894,"Ġexec":7895,"Ġexact":7896,"Ġpreseason":7897,"Ġwilling":7898,"Ġsea":7899,"oints":7900,"Ġshoulder":7901,"Ġformally":7902,"Ġinvasion":7903,"Ġoutsourcing":7904,"escope":7905,"ĠBlackBerry":7906,"Ġdistribution":7907,"Ġaccepted":7908,"Ġparticular":7909,"Ġdeputy":7910,"MB":7911,"dom":7912,"ga":7913,"sized":7914,"vard":7915,"Ġsiege":7916,"Ġcabinet":7917,"Ġpan":7918,"ayers":7919,"Ġrich":7920,"ĠEri":7921,"Ġprim":7922,"abe":7923,"Ġworried":7924,"ĠVijay":7925,"ANA":7926,"Ġmarked":7927,"Ġdesert":7928,"Ġprofessional":7929,"Ġdoor":7930,"ĠAdrian":7931,"urgents":7932,"ĠSupply":7933,"ITED":7934,"Ġsentiment":7935,"Ġdrivers":7936,"Ġarchitect":7937,"ĠMaryland":7938,"Ġacknowled":7939,"'ve":7940,"23":7941,"43":7942,"Cong":7943,"itas":7944,"ĠSell":7945,"teries":7946,"ĠTay":7947,"ĠWater":7948,"ĠFive":7949,"ĠFOR":7950,"Ġrushed":7951,"abil":7952,"Ġclient":7953,"portation":7954,"ANG":7955,"Ġmostly":7956,"inked":7957,"ENNA":7958,"offs":7959,"Ġcompetitive":7960,"Ġcompetitors":7961,"aska":7962,"ĠElectric":7963,"Ġwatching":7964,"Ġcapture":7965,"Ġsupplier":7966,"Ġstruggled":7967,"ĠBrazilian":7968,"ĠHenman":7969,"Ġsurface":7970,"ĠNepal":7971,"Ġmosque":7972,"Group":7973,"Rec":7974,"SYDNEY":7975,"WOR":7976,"fol":7977,"gs":7978,"inoc":7979,"attered":7980,"ĠSBC":7981,"ouble":7982,"ĠDistrict":7983,"ĠHills":7984,"ĠONL":7985,"riend":7986,"Ġvast":7987,"usts":7988,"ĠChase":7989,"ĠChavez":7990,"Ġapprove":7991,"Ġappointed":7992,"Ġaccusing":7993,"ĠShort":7994,"Ġelected":7995,"Ġparents":7996,"Ġpolitics":7997,"Ġengineers":7998,"ĠSmart":7999,"Ġgunmen":8000,"Ġvaccine":8001,"ĠUrges":8002,"Ġrelationship":8003,"Ġprospects":8004,"Ġshrine":8005,"vania":8006,"LAMA":8007,"big":8008,"core":8009,"dro":8010,"foot":8011,"worth":8012,"ych":8013,"Ġtrop":8014,"hew":8015,"itarian":8016,"Ġbrain":8017,"ĠSE":8018,"imming":8019,"emale":8020,"Ġadj":8021,"Ġcru":8022,"ĠBlast":8023,"Chinese":8024,"ippi":8025,"ĠScientists":8026,"ĠiMac":8027,"ĠManmohan":8028,"Ġexperience":8029,"Black":8030,"Prime":8031,"Ġfactory":8032,"ĠWeigh":8033,"ĠTrafford":8034,"market":8035,"Ġbusy":8036,"Ġupdates":8037,"Ġbronze":8038,"LAMABAD":8039,"CBC":8040,"Germany":8041,"Shell":8042,"cut":8043,"ka":8044,"Ġ39":8045,"Ġtells":8046,"inner":8047,"Ġapart":8048,"rect":8049,"ĠCat":8050,"eless":8051,"ĠMoon":8052,"ĠMeg":8053,"ĠPict":8054,"otes":8055,"oted":8056,"ĠFile":8057,"aken":8058,"ĠEst":8059,"ugby":8060,"ĠVa":8061,"ĠRef":8062,"Ġflo":8063,"inson":8064,"Ġprovides":8065,"Ġincluded":8066,"ĠOffic":8067,"EOUL":8068,"Ġtransfer":8069,"ĠCricket":8070,"ĠSPORTS":8071,"Ġshareholder":8072,"LANTA":8073,"ĠFoundation":8074,"Ġawarded":8075,"ĠIllinois":8076,"ĠONLINE":8077,"'ll":8078,"85":8079,"Gen":8080,"Week":8081,"Ġtap":8082,"onics":8083,"atically":8084,"Ġfelt":8085,"Ġcult":8086,"ĠWood":8087,"ĠRace":8088,"ĠDet":8089,"ĠLand":8090,"ĠJP":8091,"ĠJer":8092,"umers":8093,"ĠVegas":8094,"eps":8095,"achi":8096,"Ġfinancing":8097,"ANN":8098,"Ġblame":8099,"oking":8100,"phis":8101,"ĠFlight":8102,"Ġoperators":8103,"Ġtargeted":8104,"ipper":8105,"Ġpayments":8106,"ĠParliament":8107,"ĠControl":8108,"Ġcurrently":8109,"Ġlimit":8110,"Ġreasons":8111,"Singapore":8112,"Ġattempts":8113,"Ġindividual":8114,"FCC":8115,"Mal":8116,"Putin":8117,"sl":8118,"Ġfamous":8119,"ader":8120,"ĠPct":8121,"vement":8122,"ĠRest":8123,"rah":8124,"ĠLakers":8125,"osn":8126,"ully":8127,"ems":8128,"Ġlets":8129,"Ġcooperation":8130,"ĠPlus":8131,"ĠCommun":8132,"ĠZone":8133,"Ġinternal":8134,"Ġsubject":8135,"ĠOrlando":8136,"alties":8137,"Ġpatents":8138,"Ġmultiple":8139,"Ġeffective":8140,"ĠNetscape":8141,"ĠCampaign":8142,"ĠSweden":8143,"Ġunprecedented":8144,"OPEC":8145,"angh":8146,"Ġpet":8147,"Ġtoug":8148,"ishes":8149,"icut":8150,"Ġhackers":8151,"ĠBol":8152,"uth":8153,"Ġang":8154,"ĠEastern":8155,"ĠOpp":8156,"Ġhasn":8157,"ĠUniversal":8158,"Ġ37":8159,"Ġuses":8160,"Ġaccel":8161,"ĠAnthony":8162,"Ġsupposed":8163,"Ġprec":8164,"Ġsentence":8165,"Ġconvoy":8166,"Ġrobot":8167,"ĠVictory":8168,"ĠRelease":8169,"ĠPentium":8170,"Fin":8171,"Linux":8172,"ding":8173,"inition":8174,"Ġpounds":8175,"ĠMyanmar":8176,"ĠDNA":8177,"ĠHu":8178,"ĠEff":8179,"Ġbeef":8180,"ĠOl":8181,"Ġheav":8182,"ifies":8183,"Ġwhole":8184,"ĠProgram":8185,"ĠReady":8186,"Ġserving":8187,"Ġ78":8188,"Ġ800":8189,"Ġassess":8190,"Ġknows":8191,"atorial":8192,"Ġfreeze":8193,"ĠSupport":8194,"Ġhomered":8195,"anny":8196,"ĠPeters":8197,"Ġmembership":8198,"Ġlanding":8199,"Ġcopies":8200,"Ġseparatist":8201,"Ġcontroversy":8202,"uxury":8203,"Ġshipments":8204,"Life":8205,"Ġfocused":8206,"Ġpenalty":8207,"Ġblew":8208,"ĠSets":8209,"iga":8210,"ĠNCAA":8211,"unar":8212,"ulated":8213,"Ġ43":8214,"Ġphoto":8215,"ĠConcer":8216,"Ġboom":8217,"ĠMartha":8218,"Ġbright":8219,"ernand":8220,"apster":8221,"Ġprivately":8222,"ĠAttacks":8223,"Ġ1990":8224,"urdoch":8225,"ĠHarr":8226,"ĠClemens":8227,"Ġstrategic":8228,"Ġimmediate":8229,"armaceutical":8230,"anghai":8231,"27":8232,"Ken":8233,"War":8234,"ahead":8235,"face":8236,"Ġfish":8237,"Ġmeth":8238,"ĠCrit":8239,"ĠTops":8240,"ĠMatch":8241,"Ġdeterm":8242,"ĠPrince":8243,"Ġreserve":8244,"Ġcrime":8245,"Ġpromise":8246,"Ġembattled":8247,"Ġgreatest":8248,"ADEL":8249,"ĠReturn":8250,"ĠRyan":8251,"ĠValley":8252,"Niger":8253,"mouth":8254,"sThe":8255,"ints":8256,"Ġwides":8257,"Ġwickets":8258,"ĠST":8259,"ĠMen":8260,"ĠBills":8261,"Ġgaming":8262,"ĠDani":8263,"ception":8264,"ocide":8265,"Ġcongr":8266,"endi":8267,"Ġshown":8268,"Ġexhib":8269,"Ġuniversity":8270,"Ġmanage":8271,"Ġweigh":8272,"Ġbrings":8273,"leyton":8274,"ĠMcN":8275,"Ġregulatory":8276,"Ġrevenues":8277,"ointment":8278,"Ġappearance":8279,"Ġtyp":8280,"ĠDoCoMo":8281,"Ġresponsibility":8282,"Ġphotos":8283,"Ġgathered":8284,"Ġscientific":8285,"DT":8286,"Dutch":8287,"Five":8288,"has":8289,"said":8290,"wag":8291,"Ġmother":8292,"Ġdiss":8293,"Ġgovernor":8294,"ĠFaces":8295,"ĠDiamond":8296,"ĠHamilton":8297,"Ġspons":8298,"Ġclothing":8299,"antan":8300,"Ġallies":8301,"Ġbackup":8302,"Ġsluggish":8303,"Ġmeters":8304,"Ġcommander":8305,"ĠMaria":8306,"Ġpayment":8307,"Ġproducers":8308,"Ġfacility":8309,"Ġfamilies":8310,"ĠDefeat":8311,"Ġfeet":8312,"Ġdenies":8313,"ĠTravel":8314,"Ġprotests":8315,"Ġlimited":8316,"Ġcrackdown":8317,"ĠVikings":8318,"Ġflagship":8319,"Year":8320,"armed":8321,"Ġfought":8322,"Ġod":8323,"isf":8324,"ĠCabinet":8325,"ĠCRM":8326,"ĠFil":8327,"Ġconver":8328,"ĠInv":8329,"Ġexcl":8330,"abad":8331,"Ġaboard":8332,"roper":8333,"ossil":8334,"Ġfloods":8335,"Ġgrid":8336,"ĠChechnya":8337,"Ġcommitted":8338,"Ġsweeping":8339,"Ġbrokerage":8340,"Ġlandsl":8341,"ĠRaptors":8342,"600":8343,"gate":8344,"pread":8345,"whel":8346,"ario":8347,"Ġmig":8348,"ĠPa":8349,"ĠNic":8350,"ĠNasdaq":8351,"imately":8352,"ĠOF":8353,"agues":8354,"Ġconcess":8355,"Ġexerc":8356,"Ġfiring":8357,"amped":8358,"planes":8359,"AND":8360,"Ġreligious":8361,"Ġformal":8362,"Ġeducation":8363,"Ġemployee":8364,"ĠSydney":8365,"Ġpolicies":8366,"ĠWinter":8367,"ĠHarry":8368,"meter":8369,"Ġpictures":8370,"ĠAbbey":8371,"Consumer":8372,"Ġinitiative":8373,"oenix":8374,"Ġespecially":8375,"MO":8376,"Money":8377,"UJA":8378,"ram":8379,"ties":8380,"Ġhat":8381,"ĠProm":8382,"Ġloyal":8383,"Ġreporters":8384,"ĠNick":8385,"ksson":8386,"Ġshoppers":8387,"acker":8388,"ĠKremlin":8389,"ĠChirac":8390,"actions":8391,"Ġretired":8392,"ĠExpected":8393,"Ġcapabilities":8394,"cessor":8395,"ventus":8396,"fully":8397,"Ġthreatens":8398,"Ang":8399,"Ġstudios":8400,"Ġpopulation":8401,"ĠDepot":8402,"Ġequity":8403,"ĠPeru":8404,"Ġdrops":8405,"Ġreality":8406,"Ġslowdown":8407,"ĠAdvanced":8408,"ebruary":8409,"uwait":8410,"Ġtank":8411,"ono":8412,"Ġfierce":8413,"Ġmob":8414,"ĠCzech":8415,"Ġraces":8416,"ĠHuman":8417,"ĠHospital":8418,"Ġancient":8419,"ĠEll":8420,"ounter":8421,"Ġblog":8422,"ĠRevenue":8423,"azard":8424,"Ġsetback":8425,"prises":8426,"Ġ75":8427,"Chrysler":8428,"ĠMarines":8429,"ENT":8430,"ersonal":8431,"ĠAndrew":8432,"Ġconcerned":8433,"Ġlowered":8434,"ĠDemocrat":8435,"ĠChiefs":8436,"IRO":8437,"Ġowned":8438,"Ġcalm":8439,"Ġorigin":8440,"ĠDevelopment":8441,"Ġbolster":8442,"Ġalternative":8443,"ĠHollinger":8444,"ĠMargaret":8445,"NO":8446,"Six":8447,"Software":8448,"VP":8449,"gins":8450,"where":8451,"icle":8452,"Ġmail":8453,"stop":8454,"ĠNavy":8455,"unction":8456,"ĠLeast":8457,"Ġteammates":8458,"Ġslowing":8459,"Ġmeets":8460,"ĠIsraelis":8461,"ikh":8462,"backed":8463,"Ġrestore":8464,"Ġrevolution":8465,"ĠBuys":8466,"ĠDemand":8467,"iscons":8468,"ĠMerc":8469,"Ġsparked":8470,"Ġoptimistic":8471,"Official":8472,"Ġdetermine":8473,"cap":8474,"gling":8475,"yers":8476,"acom":8477,"Ġlif":8478,"ĠBrew":8479,"Ġgap":8480,"Ġstations":8481,"ĠRoss":8482,"third":8483,"ĠLen":8484,"rie":8485,"ryst":8486,"ĠVice":8487,"Ġimports":8488,"ĠSpurs":8489,"aimler":8490,"Ġmodern":8491,"Ġgasoline":8492,"Ġcarriers":8493,"America":8494,"Boeing":8495,"ĠColombia":8496,"Silicon":8497,"ĠKenneth":8498,"inochet":8499,"Ġwidespread":8500,"isconsin":8501,"800":8502,"Baseball":8503,"Treas":8504,"iVo":8505,"po":8506,"uate":8507,"Ġcrown":8508,"Ġpal":8509,"ĠSigns":8510,"oms":8511,"ĠMu":8512,"ĠMat":8513,"ĠIS":8514,"ĠRose":8515,"ĠDomin":8516,"ĠUse":8517,"changed":8518,"Ġquality":8519,"ogue":8520,"Ġenforce":8521,"Ġtrend":8522,"ancy":8523,"Ġadap":8524,"Ġdism":8525,"ĠShows":8526,"ology":8527,"Ġswing":8528,"string":8529,"ĠHolds":8530,"ĠSemiconductor":8531,"eslan":8532,"Ġpipeline":8533,"NHL":8534,"oren":8535,"ingham":8536,"rey":8537,"Ġhurd":8538,"Ġdrag":8539,"ĠMult":8540,"ighed":8541,"ewhere":8542,"Ġshake":8543,"osevic":8544,"ASE":8545,"ological":8546,"Ġvictim":8547,"useum":8548,"Ġmedic":8549,"Ġtrials":8550,"Ġeffects":8551,"Ġsuspend":8552,"Ġcoaching":8553,"Ġpeer":8554,"ĠSeahawks":8555,"Ġfunding":8556,"Ġdisputed":8557,"Ġmagn":8558,"chenko":8559,"Ġmomentum":8560,"ĠKnicks":8561,"Ġorganizations":8562,"Ġfriendly":8563,"Ġrisks":8564,"Ġcompensation":8565,"David":8566,"Ever":8567,"National":8568,"Rob":8569,"Ġfemale":8570,"Ġwreck":8571,"roc":8572,"ĠTD":8573,"ĠBCS":8574,"ĠNATION":8575,"ĠRaf":8576,"ĠRFID":8577,"ĠGain":8578,"eme":8579,"ĠKl":8580,"Ġally":8581,"ollowing":8582,"Ġtrue":8583,"angered":8584,"ĠReview":8585,"Thousands":8586,"Ġpassing":8587,"backer":8588,"ĠAlliance":8589,"Ġopponent":8590,"ette":8591,"Blue":8592,"Ġexplosions":8593,"Ġdelivery":8594,"Ġhandsets":8595,"ĠMilitary":8596,"ĠRepublicans":8597,"Ġstretch":8598,"Merck":8599,"ĠOfficer":8600,"antanamo":8601,"38":8602,"Cingular":8603,"Te":8604,"Taiwan":8605,"lus":8606,"prom":8607,"ui":8608,"ĠSummary":8609,"ĠMust":8610,"charg":8611,"ĠHalf":8612,"oco":8613,"ivors":8614,"ellor":8615,"Ġclients":8616,"ortheastern":8617,"ĠProject":8618,"Ġknocked":8619,"ĠAndreas":8620,"peer":8621,"Ġ1999":8622,"Ġpublisher":8623,"Ġcivilian":8624,"Ġcollaps":8625,"Ġloans":8626,"Ġguns":8627,"Martha":8628,"ĠHenry":8629,"Ġgenet":8630,"breaking":8631,"ĠPentagon":8632,"Ġscientist":8633,"Williams":8634,"Ġlearned":8635,"Ġliquid":8636,"Ġinfringement":8637,"ĠThanksgiving":8638,"WORLD":8639,"44":8640,"Motor":8641,"more":8642,"match":8643,"Ġsue":8644,"Ġtheft":8645,"Ġbowl":8646,"ĠSoon":8647,"ĠAB":8648,"adow":8649,"Ġnecess":8650,"ĠBull":8651,"ĠFebruary":8652,"ĠEm":8653,"Ġplenty":8654,"ĠKe":8655,"ounted":8656,"rosecut":8657,"Ġfled":8658,"Ġcoaches":8659,"Ġdesper":8660,"Ġ77":8661,"Ġvictories":8662,"Ġproved":8663,"Ġdiscount":8664,"ĠAllen":8665,"Ġeasily":8666,"Ġrepair":8667,"Ġhandset":8668,"ircuit":8669,"ĠLawsu":8670,"Ġlicense":8671,"Florida":8672,"Ġhumans":8673,"Day":8674,"WN":8675,"rict":8676,"world":8677,"Ġtape":8678,"Ġsense":8679,"Ġfashion":8680,"Ġbills":8681,"Ġloses":8682,"ĠIE":8683,"ĠGives":8684,"ups":8685,"ĠLas":8686,"ĠLinks":8687,"uls":8688,"ĠOri":8689,"ĠJama":8690,"iable":8691,"Ġcha":8692,"eyer":8693,"Ġconsole":8694,"encing":8695,"Ġecl":8696,"ĠBriton":8697,"Thursday":8698,"Ġextending":8699,"Ġteleph":8700,"Ġsubmar":8701,"struments":8702,"Another":8703,"Ġlegend":8704,"Ġbarely":8705,"ĠContract":8706,"Ġconfirm":8707,"Ġdominant":8708,"Ġsettled":8709,"ĠTelecom":8710,"Amazon":8711,"ĠStephen":8712,"ĠCheney":8713,"Ġinfluence":8714,"ĠRaiders":8715,"Ġtentative":8716,"Ġwelcomed":8717,"ĠAthletics":8718,"ĠConnecticut":8719,"250":8720,"Dar":8721,"Sur":8722,"Tro":8723,"lights":8724,"Ġpage":8725,"lets":8726,"ĠCa":8727,"ĠClear":8728,"ĠCavaliers":8729,"Ġlanguage":8730,"ĠGoes":8731,"ĠEmp":8732,"ĠEisner":8733,"Ġcomfort":8734,"Ġexisting":8735,"ivendi":8736,"ĠKo":8737,"Ġoverwhel":8738,"Ġunus":8739,"issippi":8740,"tty":8741,"ĠResults":8742,"Ġjustice":8743,"ĠSerena":8744,"Ġrestaur":8745,"scar":8746,"Ġdividend":8747,"Ġreaches":8748,"ambling":8749,"Ġsimple":8750,"Afr":8751,"AKAR":8752,"ĠBeats":8753,"ylvania":8754,"Ġprepares":8755,"Ġcasual":8756,"Ġunexpectedly":8757,"Ġinnov":8758,"Get":8759,"Halo":8760,"Toshiba":8761,"ruction":8762,"inion":8763,"hem":8764,"Ġpound":8765,"ĠSand":8766,"acter":8767,"ĠPy":8768,"ĠFen":8769,"ĠHill":8770,"ĠLuc":8771,"Ġagenda":8772,"ĠChamp":8773,"abb":8774,"ĠThatcher":8775,"Ġworked":8776,"Ġmovement":8777,"Ġcolumn":8778,"spam":8779,"Ġgrad":8780,"load":8781,"Ġstrained":8782,"ĠEarly":8783,"rizz":8784,"Ġpromising":8785,"Ġmarch":8786,"ĠGlazer":8787,"ĠAmid":8788,"Ġstorms":8789,"ĠSuit":8790,"Ġarrives":8791,"Ġcombined":8792,"Ġvolunt":8793,"ĠMotorola":8794,"ĠSilver":8795,"ĠMemphis":8796,"Ġbattles":8797,"ĠSwedish":8798,"Ġutility":8799,"Ġgranted":8800,"ĠClinton":8801,"Cub":8802,"Powell":8803,"Sen":8804,"pur":8805,"itical":8806,"ĠSep":8807,"leading":8808,"ĠToyota":8809,"Ġeast":8810,"Ġrum":8811,"imedia":8812,"rage":8813,"ĠGartner":8814,"sey":8815,"ĠVI":8816,"ĠVodafone":8817,"ĠIndies":8818,"ĠLehman":8819,"Ġconsolid":8820,"Ġ51":8821,"Ġhopeful":8822,"Ġrevised":8823,"Ġrounds":8824,"Ġengines":8825,"Ġboosting":8826,"Ġdetained":8827,"Ġpromote":8828,"Ġcreation":8829,"ĠSym":8830,"ĠSchumacher":8831,"Ġletter":8832,"Ġplea":8833,"Ġfrequ":8834,"Ġcrowded":8835,"itzerland":8836,"Ġwaters":8837,"ĠAuthority":8838,"ĠBuffalo":8839,"KABUL":8840,"ML":8841,"die":8842,"mos":8843,"sene":8844,"Ġsand":8845,"Ġbug":8846,"ĠSal":8847,"ĠSoccer":8848,"ĠSoutheast":8849,"ĠCast":8850,"ĠPS":8851,"ĠBeslan":8852,"ĠWisconsin":8853,"Ġrail":8854,"ĠNEC":8855,"ĠHorn":8856,"ampton":8857,"ĠPhoenix":8858,"uki":8859,"ĠGolden":8860,"flix":8861,"ĠBusch":8862,"Ast":8863,"Ec":8864,"Fannie":8865,"Giants":8866,"Karzai":8867,"Yukos":8868,"bro":8869,"font":8870,"nan":8871,"sylvania":8872,"Ġtask":8873,"orious":8874,"Ġfixed":8875,"ĠCNN":8876,"utious":8877,"rapped":8878,"aka":8879,"agn":8880,"Ġvows":8881,"Ġexceed":8882,"Ġunemployment":8883,"Ġrough":8884,"Ġroads":8885,"ĠMonetary":8886,"assador":8887,"ĠShanghai":8888,"Ġbecomes":8889,"Ġremove":8890,"Ġ2012":8891,"Ġministry":8892,"Italy":8893,"Ġcautious":8894,"Ġregulator":8895,"Ġestate":8896,"Ġdocument":8897,"ĠAccording":8898,"ĠBerlin":8899,"Ġpersu":8900,"Ġpeacekeepers":8901,"Retail":8902,"Briefly":8903,"ĠGarcia":8904,"ĠNATIONS":8905,"Citigroup":8906,"MI":8907,"bi":8908,"bank":8909,"elect":8910,"py":8911,"zen":8912,"Ġtail":8913,"Ġfal":8914,"ĠCitigroup":8915,"igation":8916,"ĠDies":8917,"ĠJul":8918,"Ġexport":8919,"Ġplaces":8920,"ĠKent":8921,"ellow":8922,"Ġdisarm":8923,"Ġ62":8924,"Ġ69":8925,"AST":8926,"Ġslowed":8927,"Ġ56":8928,"Ġimproper":8929,"Ġhero":8930,"Ġtested":8931,"ELL":8932,"otte":8933,"Ġdemanded":8934,"ĠMayor":8935,"Ġbillions":8936,"Ġwrite":8937,"Ġidentified":8938,"Ġbloody":8939,"ĠOfficials":8940,"Ġestabl":8941,"Valley":8942,"folio":8943,"AKARTA":8944,"ĠFenway":8945,"AH":8946,"Aut":8947,"Dem":8948,"Last":8949,"Sat":8950,"care":8951,"jected":8952,"prod":8953,"vin":8954,"oran":8955,"enters":8956,"Ġfully":8957,"Ġthrown":8958,"ĠBul":8959,"ĠWell":8960,"ĠGene":8961,"Ġanger":8962,"ĠChild":8963,"overning":8964,"ĠPrison":8965,"Ġscene":8966,"izz":8967,"ankee":8968,"Ġconsortium":8969,"ĠBln":8970,"nedy":8971,"Ġsoared":8972,"ĠOper":8973,"ĠCompanies":8974,"Ant":8975,"Ġinvestigators":8976,"holders":8977,"Ġcells":8978,"Ġenvoy":8979,"aughter":8980,"ĠSirius":8981,"Ġmountain":8982,"Bron":8983,"KS":8984,"RAM":8985,"gium":8986,"mad":8987,"ping":8988,"with":8989,"eder":8990,"rets":8991,"Ġpath":8992,"Ġpiece":8993,"Ġhiring":8994,"ĠTen":8995,"ĠPfizer":8996,"Ġluxury":8997,"ĠIowa":8998,"ira":8999,"ĠFinds":9000,"ĠRays":9001,"ĠLittle":9002,"ĠKazaa":9003,"ĠChange":9004,"Ġworse":9005,"Ġoutl":9006,"overty":9007,"ĠSpe":9008,"Ġhighlight":9009,"Ġmeant":9010,"Ġcapable":9011,"Ġsomeone":9012,"ĠAlso":9013,"Ġhoped":9014,"engals":9015,"Ġmerge":9016,"ĠFinance":9017,"Ġpitching":9018,"Ġpilot":9019,"krainian":9020,"Ġtyphoon":9021,"Ġcommitment":9022,"ĠDoub":9023,"Ġrefugees":9024,"PHIA":9025,"Ġpostponed":9026,"41":9027,"Now":9028,"bon":9029,"Ġticket":9030,"Ġsle":9031,"icy":9032,"Ġneck":9033,"ĠBec":9034,"ĠWake":9035,"ĠFiles":9036,"ĠRacing":9037,"ĠLCD":9038,"ĠLleyton":9039,"Ġyield":9040,"ĠVen":9041,"ĠView":9042,"Ġperman":9043,"Ġrecru":9044,"Ġdisk":9045,"Ġdefended":9046,"Ġpreview":9047,"ĠNEWS":9048,"Ġsearching":9049,"ELD":9050,"ukee":9051,"ĠGuid":9052,"ILADEL":9053,"Ġsimply":9054,"ĠLaur":9055,"Ġseriously":9056,"Ġsexual":9057,"ĠRamad":9058,"ĠOKs":9059,"ĠOwen":9060,"ĠCeltics":9061,"initely":9062,"Ġreserves":9063,"ĠBroncos":9064,"California":9065,"arrass":9066,"Ġheavily":9067,"ILADELPHIA":9068,"Dec":9069,"Next":9070,"So":9071,"aith":9072,"lies":9073,"ratings":9074,"inated":9075,"Ġwider":9076,"ĠAmb":9077,"eted":9078,"acre":9079,"Ġride":9080,"ĠHurt":9081,"ĠHopes":9082,"ĠLP":9083,"Ġconstitution":9084,"Ġspin":9085,"owned":9086,"hent":9087,"ĠIncre":9088,"Ġcoordin":9089,"ĠClimb":9090,"ĠOpens":9091,"ippers":9092,"Ġsuspic":9093,"mbol":9094,"amily":9095,"Spam":9096,"ĠAnnounces":9097,"Ġweakness":9098,"Ġcelebrate":9099,"Ġprior":9100,"Ġescal":9101,"Ġwelcome":9102,"Ġprospect":9103,"Ġprompting":9104,"Ġrecommend":9105,"aimlerChrysler":9106,"OH":9107,"Or":9108,"UA":9109,"Video":9110,"Vodafone":9111,"cats":9112,"icate":9113,"ĠSach":9114,"Ġdre":9115,"ĠCath":9116,"Ġreading":9117,"ĠWrit":9118,"ĠDi":9119,"ĠGro":9120,"ĠLu":9121,"Ġcomment":9122,"ĠStake":9123,"Ġacadem":9124,"airn":9125,"ĠPalace":9126,"ISLAMABAD":9127,"Ġfails":9128,"Ġgren":9129,"Ġaiming":9130,"Spain":9131,"Ġelse":9132,"Ġstormed":9133,"ographic":9134,"Ġdiscovery":9135,"Ġsurrounding":9136,"Hewlett":9137,"ĠSquare":9138,"Ġaggressive":9139,"Ġexactly":9140,"Job":9141,"Tw":9142,"UAL":9143,"itable":9144,"Ġfeed":9145,"Ġfinger":9146,"Ġbow":9147,"ĠSINGAPORE":9148,"Ġhar":9149,"idays":9150,"ĠAff":9151,"ĠWizards":9152,"Ġrushing":9153,"ĠNames":9154,"ĠHal":9155,"akh":9156,"agle":9157,"ĠJay":9158,"lton":9159,"Ġintended":9160,"ancellor":9161,"Ġ67":9162,"Ġflag":9163,"ĠArm":9164,"ĠDeutsche":9165,"ĠWilliam":9166,"Ġbeaten":9167,"Ġreflect":9168,"ICE":9169,"Ġdetain":9170,"Ġolder":9171,"Ġloan":9172,"Ġstruggles":9173,"OME":9174,"Ġsomet":9175,"Ġdestruction":9176,"Ġprosecutor":9177,"ĠHalliburton":9178,"coni":9179,"Ġhorse":9180,"ĠDaniel":9181,"ĠOrioles":9182,"82":9183,"Hall":9184,"Long":9185,"Ukraine":9186,"Wednesday":9187,"wall":9188,"Ġtoss":9189,"ĠSoy":9190,"Ġgovern":9191,"utt":9192,"Ġstyle":9193,"Ġrape":9194,"ĠNight":9195,"ĠHun":9196,"ĠHarmony":9197,"Reg":9198,"ĠThai":9199,"Ġupbeat":9200,"Ġsche":9201,"Ġconspiracy":9202,"Ġregime":9203,"ARL":9204,"Ġsues":9205,"ĠAdobe":9206,"Ġadvoc":9207,"Ġbreakthrough":9208,"Ġproposals":9209,"Ġrocked":9210,"ĠMauresmo":9211,"ADR":9212,"Phill":9213,"ĠJustin":9214,"waukee":9215,"Ġbaseman":9216,"Ġcommunist":9217,"ĠQuarterly":9218,"ĠHugo":9219,"Ġdeadliest":9220,"Congress":9221,"86":9222,"AV":9223,"FDA":9224,"Mass":9225,"oration":9226,"Ġcos":9227,"Ġwage":9228,"Ġbond":9229,"ĠBi":9230,"ĠBelt":9231,"irming":9232,"Ġeve":9233,"ĠWTA":9234,"Ġstood":9235,"Ġrig":9236,"ĠGil":9237,"oster":9238,"uling":9239,"Ġexit":9240,"ĠKaz":9241,"Ġroy":9242,"Ġfinals":9243,"ĠAsk":9244,"ĠPhones":9245,"ĠMusab":9246,"Ġpoison":9247,"ĠKenya":9248,"Ġaudio":9249,"uzz":9250,"Ġkicked":9251,"ĠNorway":9252,"Ġathletes":9253,"ĠEyes":9254,"ĠLynch":9255,"double":9256,"iences":9257,"Ġerr":9258,"Ġber":9259,"ĠSale":9260,"Ġded":9261,"Ġdistrict":9262,"acts":9263,"Ġthin":9264,"ĠPLC":9265,"irk":9266,"Ġgoverning":9267,"Ġstir":9268,"estyle":9269,"chip":9270,"Ġheight":9271,"ĠVill":9272,"Ġwinners":9273,"Ġargu":9274,"Ġdesk":9275,"Ġrecorded":9276,"rants":9277,"Ġsignal":9278,"Ġjobless":9279,"lining":9280,"Ital":9281,"ĠSwitzerland":9282,"Ġsteam":9283,"iety":9284,"Ġdoubts":9285,"Ġreveal":9286,"2004":9287,"ĠKennedy":9288,"newratings":9289,"ĠDebate":9290,"Ġjournalist":9291,"Ġprompted":9292,"ĠBallmer":9293,"ĠCeltic":9294,"Ġabducted":9295,"ĠRodrig":9296,"Ġassassination":9297,"ĠEnvironment":9298,"rystal":9299,"BALL":9300,"QL":9301,"cr":9302,"ta":9303,"tiz":9304,"yon":9305,"Ġaer":9306,"enport":9307,"aron":9308,"Ġpool":9309,"Ġbrew":9310,"ĠAC":9311,"ĠAward":9312,"ĠBest":9313,"uttle":9314,"Ġsteal":9315,"Ġstroke":9316,"Ġranks":9317,"ĠRams":9318,"ĠList":9319,"Ġlearn":9320,"ĠKhan":9321,"ially":9322,"ĠUSC":9323,"Ġdisp":9324,"ortgage":9325,"ĠIndex":9326,"ĠReach":9327,"Ġtops":9328,"Ġ84":9329,"ĠMarc":9330,"ociety":9331,"ĠDavenport":9332,"Ġfactories":9333,"Ġgaining":9334,"Company":9335,"Ġdiplomatic":9336,"International":9337,"Ġrepresenting":9338,"Ġregarding":9339,"ambodia":9340,"ĠTaylor":9341,"SiliconValley":9342,"51":9343,"Greek":9344,"Sl":9345,"Tor":9346,"UTER":9347,"fit":9348,"friend":9349,"iec":9350,"yang":9351,"Ġaide":9352,"Ġpark":9353,"Ġmour":9354,"ĠCour":9355,"style":9356,"Ġones":9357,"Ġforcing":9358,"Ġnomin":9359,"ĠPut":9360,"Ġla":9361,"Ġlifts":9362,"ĠBox":9363,"Ġrush":9364,"ĠDoc":9365,"ĠEric":9366,"ighter":9367,"alling":9368,"Ġshrug":9369,"Ġcomprom":9370,"ĠChips":9371,"ĠYankee":9372,"uez":9373,"Ġexpensive":9374,"Ġtrust":9375,"ORCL":9376,"ĠRejects":9377,"Ġimpose":9378,"Ġactually":9379,"iverse":9380,"Ġstudent":9381,"Ġprocessing":9382,"perts":9383,"Ġcaution":9384,"uggets":9385,"Ġballot":9386,"Ġmidfielder":9387,"Ġreplaced":9388,"Ġinsurgency":9389,"Ġsurvived":9390,"ĠSafety":9391,"OUIS":9392,"Ġmaterials":9393,"BOSTON":9394,"biggest":9395,"HAR":9396,"MA":9397,"Marsh":9398,"gment":9399,"kar":9400,"orial":9401,"Ġpushes":9402,"Ġinform":9403,"Ġhij":9404,"ĠCoca":9405,"ĠPinochet":9406,"riage":9407,"Ġpricing":9408,"ĠChad":9409,"obby":9410,"Ġexpands":9411,"ishi":9412,"ORT":9413,"Ġslip":9414,"Ġ54":9415,"Ġpretty":9416,"Ġbattered":9417,"ĠAgrees":9418,"Ġcompeting":9419,"ĠGuantanamo":9420,"ĠCrude":9421,"ĠEliot":9422,"Ġasking":9423,"Ġballots":9424,"Ġhumanitarian":9425,"olesale":9426,"Ġoriginal":9427,"ĠAbbas":9428,"Ġcyber":9429,"Ġquietly":9430,"ĠMachines":9431,"Ġdetermined":9432,"Ġdestroyed":9433,"ĠPhillies":9434,"ĠDiamondbacks":9435,"Home":9436,"Tuesday":9437,"ha":9438,"uals":9439,"Ġtelling":9440,"Ġtsunami":9441,"arus":9442,"atile":9443,"atched":9444,"ingly":9445,"Ġpm":9446,"ĠSav":9447,"ĠSues":9448,"oum":9449,"stan":9450,"ĠMod":9451,"Ġstarter":9452,"Ġramp":9453,"chiro":9454,"kswag":9455,"Ġvision":9456,"Ġcompat":9457,"Ġfires":9458,"Ġregis":9459,"Ġswept":9460,"OSE":9461,"Ġlinebacker":9462,"ĠBarb":9463,"Ġconducted":9464,"Ġrespect":9465,"OLIS":9466,"ĠRoad":9467,"146":9468,"Ġrepeat":9469,"Ġrolling":9470,"ĠProtection":9471,"Ġflaws":9472,"TechWeb":9473,"Ġoptimism":9474,"Ġconnections":9475,"ĠAziz":9476,"Open":9477,"ĠEquatorial":9478,"kswagen":9479,"MR":9480,"Sol":9481,"Sept":9482,"Tiger":9483,"fr":9484,"mind":9485,"rant":9486,"uable":9487,"ateral":9488,"icient":9489,"Ġmap":9490,"ĠTown":9491,"Ġnative":9492,"ĠBird":9493,"ĠBreed":9494,"ĠFair":9495,"ivirus":9496,"ĠKidnapp":9497,"rying":9498,"Ġresources":9499,"ookie":9500,"ĠFlu":9501,"Ġimposed":9502,"ARK":9503,"Ġrelatives":9504,"Ġextends":9505,"Ġcolle":9506,"Ġminor":9507,"Ġmining":9508,"ĠElectronic":9509,"Ġrecovered":9510,"Ġportfolio":9511,"UKOS":9512,"ĠBelgium":9513,"Ġthinking":9514,"Ġhappened":9515,"Ġlicensing":9516,"Federer":9517,"Ġdeployment":9518,"ĠDoug":9519,"PSFT":9520,"ĠEriksson":9521,"rizzlies":9522,"Music":9523,"Soccer":9524,"gets":9525,"uing":9526,"xy":9527,"eries":9528,"ĠCro":9529,"omed":9530,"ĠTrip":9531,"otive":9532,"ĠBor":9533,"irty":9534,"Ġreput":9535,"Ġgad":9536,"usalem":9537,"Ġstalled":9538,"ĠFuel":9539,"ĠFraud":9540,"raib":9541,"ĠGive":9542,"ĠJudge":9543,"oured":9544,"Ġchannel":9545,"ello":9546,"Ġjunk":9547,"ubbed":9548,"ubishi":9549,"ĠViolence":9550,"Ġadministr":9551,"Ġincent":9552,"itsubishi":9553,"Ġ44":9554,"Ġmarking":9555,"ĠConway":9556,"Ġ197":9557,"Ġbuyers":9558,"Ġ86":9559,"Ġdiscip":9560,"BAI":9561,"Ġchecks":9562,"Ġforeigners":9563,"Ġobject":9564,"ospace":9565,"Ġreplacement":9566,"ĠSmall":9567,"ĠChristian":9568,"Ġbirds":9569,"Ġnewspapers":9570,"ĠAdvance":9571,"ĠHostages":9572,"Ġsubsidies":9573,"ĠPanthers":9574,"ĠSnow":9575,"ĠHughes":9576,"ĠWalker":9577,"Ġtemporary":9578,"ĠGhraib":9579,"Ġenforcement":9580,"lusconi":9581,"Ġberth":9582,"Jazeera":9583,"Sym":9584,"Tele":9585,"ean":9586,"Ġsocial":9587,"Ġsoph":9588,"ĠSince":9589,"Ġhailed":9590,"Ġdict":9591,"ĠMunich":9592,"ĠBa":9593,"ĠFocus":9594,"andan":9595,"Ġhell":9596,"APOLIS":9597,"abs":9598,"ongyang":9599,"avi":9600,"hnic":9601,"ĠShr":9602,"uctions":9603,"ĠLeft":9604,"Ġwarn":9605,"Ġbuzz":9606,"rives":9607,"Ġbrands":9608,"Ġguarant":9609,"Ġrestrict":9610,"Ġminers":9611,"Ġsupporting":9612,"Ġboosts":9613,"ĠQB":9614,"Ġsevere":9615,"ĠElections":9616,"Ġeasing":9617,"Ġhealthy":9618,"Ġsnap":9619,"Ġsatisf":9620,"ĠChargers":9621,"Palestinians":9622,"ĠCosts":9623,"ĠOwens":9624,"Ġdisclosed":9625,"errillas":9626,"Researchers":9627,"From":9628,"Gun":9629,"Med":9630,"Mark":9631,"Major":9632,"Point":9633,"RI":9634,"Sk":9635,"WMT":9636,"body":9637,"called":9638,"size":9639,"town":9640,"anim":9641,"itoring":9642,"isse":9643,"ĠSuccess":9644,"ĠCas":9645,"ĠAh":9646,"ĠMany":9647,"ĠMln":9648,"Ġthrowing":9649,"ĠBoy":9650,"ĠRates":9651,"ĠRumsfeld":9652,"osure":9653,"ĠOcean":9654,"Ġprominent":9655,"Ġexporters":9656,"Ġalone":9657,"ĠVan":9658,"ucts":9659,"Ġresort":9660,"Ġweekly":9661,"ĠSpec":9662,"Ġdefender":9663,"racuse":9664,"Ġinsurer":9665,"Ġinsurers":9666,"Ġtrail":9667,"Ġthreaten":9668,"ĠSean":9669,"Ġembarrass":9670,"Ġvisitors":9671,"Ġwithdrew":9672,"Ġdoubles":9673,"ĠSuz":9674,"ĠLouisiana":9675,"Ġdropping":9676,"Ġcriticized":9677,"ĠRebel":9678,"Ġcoverage":9679,"Ġstunning":9680,"Ġestablish":9681,"Ġremoved":9682,"ĠWorries":9683,"Firefox":9684,"Motorola":9685,"HRAN":9686,"Irish":9687,"pond":9688,"wire":9689,"Ġailing":9690,"Ġsalv":9691,"arch":9692,"Ġpounded":9693,"terious":9694,"Ġdust":9695,"start":9696,"ĠMurdoch":9697,"Ġthrow":9698,"ĠPush":9699,"Ġlunar":9700,"ĠICC":9701,"Ġgymnastics":9702,"utton":9703,"Ġstuff":9704,"unal":9705,"ĠGib":9706,"ĠHaw":9707,"ĠHung":9708,"ĠHubble":9709,"Ġatop":9710,"ulting":9711,"essed":9712,"ĠInst":9713,"ineon":9714,"Ġresistance":9715,"aware":9716,"Ġ63":9717,"Ġslug":9718,"Ġ52":9719,"ĠBegins":9720,"claim":9721,"Ġvisits":9722,"Ġinvestigate":9723,"MSN":9724,"umbling":9725,"ĠPatrick":9726,"ĠContin":9727,"Ġhotels":9728,"ĠMoham":9729,"ĠMississippi":9730,"Ġspokeswoman":9731,"ĠMilwaukee":9732,"Ġgenocide":9733,"Adobe":9734,"Ġfunction":9735,"BRUSSELS":9736,"ĠInsurance":9737,"ĠDrops":9738,"ĠPennsylvania":9739,"ĠSpeedway":9740,"Ġmalicious":9741,"ĠJaguar":9742,"ĠFerrari":9743,"Ġexhibition":9744,"ieces":9745,"EP":9746,"Mont":9747,"Nikkei":9748,"rising":9749,"Ġtend":9750,"Ġsight":9751,"Ġfro":9752,"ĠSaid":9753,"ional":9754,"elie":9755,"ĠPirates":9756,"ĠBad":9757,"ĠBosn":9758,"Ġjun":9759,"ĠVers":9760,"Ġoutfielder":9761,"Ġroute":9762,"Ġ47":9763,"ĠAdds":9764,"Ġprotesters":9765,"DAM":9766,"ĠManager":9767,"Ġviolations":9768,"Ġevolution":9769,"ocratic":9770,"Ġpullout":9771,"Ġfewer":9772,"ĠMedical":9773,"ĠSpaceShipOne":9774,"ĠDevil":9775,"ĠSafin":9776,"ĠCyber":9777,"Ġboycott":9778,"ĠLebanese":9779,"Ġbeheaded":9780,"profile":9781,"Ġlaptop":9782,"Ġimpressive":9783,"ĠOvitz":9784,"26":9785,"Bill":9786,"BOR":9787,"Im":9788,"November":9789,"RP":9790,"ita":9791,"Ġwine":9792,"isers":9793,"Ġmotor":9794,"ĠSven":9795,"Ġhaven":9796,"ĠAlt":9797,"ĠAuss":9798,"Ġlaid":9799,"otal":9800,"ĠNC":9801,"ĠLOUIS":9802,"Ġ250":9803,"ĠKuwait":9804,"ouness":9805,"Ġrot":9806,"Ġscan":9807,"INTC":9808,"Ġcoff":9809,"Ġphase":9810,"Ġ99":9811,"ĠTrading":9812,"ĠScient":9813,"click":9814,"Ġdirectly":9815,"Ġbuildings":9816,"perform":9817,"ĠAccess":9818,"Ġsolutions":9819,"Asian":9820,"Ġemployment":9821,"Ġeventually":9822,"Ġsuggesting":9823,"ĠHelps":9824,"Ġimprovement":9825,"Ġurging":9826,"ĠScottish":9827,"ĠEverton":9828,"hardt":9829,"uilding":9830,"Ġwonder":9831,"Ġplunged":9832,"ĠOrders":9833,"Ġangry":9834,"Ġsubmarine":9835,"ĠSymantec":9836,"Cap":9837,"EV":9838,"bing":9839,"win":9840,"will":9841,"Ġbra":9842,"ouri":9843,"ĠAp":9844,"ĠTalk":9845,"ĠMick":9846,"ĠMVP":9847,"usband":9848,"Ġrental":9849,"empt":9850,"istent":9851,"Ġnewest":9852,"ĠMonth":9853,"Ġfinishing":9854,"Ġnotice":9855,"ĠAnim":9856,"ĠIssu":9857,"azi":9858,"Ġquarterfinals":9859,"rivate":9860,"ĠMarion":9861,"Ġtrapped":9862,"Ġsweet":9863,"Ġextrad":9864,"Ġexplain":9865,"Ġminority":9866,"Ġrefin":9867,"Ġversus":9868,"Ġdirection":9869,"ĠCommissioner":9870,"ĠCrash":9871,"ĠMao":9872,"Ġinvolvement":9873,"Ġtourists":9874,"ĠPortable":9875,"Ġtyco":9876,"ĠFunds":9877,"Ġwalked":9878,"Airbus":9879,"ĠCharlotte":9880,"Ġrapidly":9881,"Hollywood":9882,"omerie":9883,"Ġeclipse":9884,"mosphere":9885,"Astros":9886,"ADRID":9887,"Symantec":9888,"Drug":9889,"DVD":9890,"Elect":9891,"gomerie":9892,"iqu":9893,"person":9894,"wart":9895,"writ":9896,"Ġtickets":9897,"Ġpoverty":9898,"isive":9899,"ĠSlam":9900,"Ġharm":9901,"ĠAP":9902,"ĠATA":9903,"ĠTrib":9904,"ĠPop":9905,"ĠIr":9906,"ĠBert":9907,"Ġemissions":9908,"ĠWas":9909,"ĠRoma":9910,"Ġshook":9911,"Ġovercome":9912,"Ġcloud":9913,"Ġintense":9914,"porting":9915,"Ġenem":9916,"ĠClar":9917,"Ġbuyout":9918,"ART":9919,"ĠProfits":9920,"Ġaddition":9921,"Ġraids":9922,"COMP":9923,"ĠBeach":9924,"idden":9925,"ILL":9926,"Ġpollution":9927,"GOOG":9928,"Ġsingles":9929,"Ġcaptors":9930,"urdue":9931,"ĠPreview":9932,"Conn":9933,"Ġindicated":9934,"Ġambitions":9935,"ĠMoves":9936,"Ġgrabbed":9937,"Ġimmig":9938,"ĠTreo":9939,"ĠPyongyang":9940,"52":9941,"Hen":9942,"JAF":9943,"cts":9944,"eers":9945,"equ":9946,"hind":9947,"hander":9948,"vy":9949,"words":9950,"Ġ;":9951,"Ġtel":9952,"Ġax":9953,"organ":9954,"Ġwoes":9955,"ĠSett":9956,"ĠSender":9957,"eeves":9958,"Ġplug":9959,"istics":9960,"abit":9961,"Ġseats":9962,"Ġquoted":9963,"Ġintel":9964,"Ġwouldn":9965,"azers":9966,"encia":9967,"Ġprofession":9968,"roundup":9969,"onym":9970,"ALI":9971,"Chicago":9972,"ĠAdam":9973,"Ġmini":9974,"ĠWho":9975,"Ġstanding":9976,"shore":9977,"Ġarrests":9978,"Ġsettlements":9979,"ĠFinland":9980,"Ġseeing":9981,"Ġconfirms":9982,"Ġactivists":9983,"Ġlanded":9984,"Ġmonitor":9985,"Ġhousehold":9986,"Ġautomaker":9987,"Ġparliamentary":9988,"Ġrobust":9989,"HOUSTON":9990,"Ġdevastating":9991,"Ġvillage":9992,"ottenham":9993,"ĠRadcliffe":9994,"FIELD":9995,"ĠOTTAWA":9996,"Ġnormal":9997,"Ġconcessions":9998,"Italian":9999,"cairn":10000,"linked":10001,"Ġcrop":10002,"Ġcraft":10003,"alore":10004,"alcomm":10005,"ĠSent":10006,"ĠSee":10007,"Ġhang":10008,"urable":10009,"ĠMaster":10010,"Ġlocked":10011,"ĠBat":10012,"Ġgall":10013,"Ġgrip":10014,"ĠNortel":10015,"ĠDom":10016,"quel":10017,"ĠJen":10018,"umi":10019,"ĠStop":10020,"ĠStorage":10021,"Ġabroad":10022,"compl":10023,"Ġteammate":10024,"phones":10025,"ĠExec":10026,"Ġphishing":10027,"Char":10028,"ĠBrand":10029,"screen":10030,"ĠEli":10031,"ĠHoliday":10032,"Ġreveals":10033,"Ġquestioned":10034,"Ġvolume":10035,"Cricket":10036,"Afee":10037,"Ġviews":10038,"ĠVeritas":10039,"Ġcompleting":10040,"Ġneighbor":10041,"Ġburied":10042,"Ġvarious":10043,"Ġmystery":10044,"Ġerupted":10045,"ĠSoldiers":10046,"Ġpoliticians":10047,"Ġparticularly":10048,"Ġintellect":10049,"33":10050,"DE":10051,"Description":10052,"Port":10053,"Rock":10054,"gun":10055,"rical":10056,"Ġtun":10057,"Ġbiot":10058,"asy":10059,"idency":10060,"ĠCop":10061,"store":10062,"ĠTem":10063,"ĠPuts":10064,"ĠBE":10065,"Ġrepe":10066,"Ġstayed":10067,"ĠRain":10068,"ĠGA":10069,"ĠHere":10070,"ĠLSU":10071,"ĠEven":10072,"ĠOwn":10073,"ouring":10074,"orders":10075,"Ġoverc":10076,"Ġoutcome":10077,"Ġscare":10078,"Ġaccus":10079,"ĠSpot":10080,"Ġretreat":10081,"Ġsuperm":10082,"Ġsurr":10083,"State":10084,"ĠAlitalia":10085,"mbian":10086,"ĠOnt":10087,"Ġcheap":10088,"Ġstandings":10089,"Ġreceiving":10090,"Ġbroadc":10091,"Ġchallenger":10092,"Ġreplacing":10093,"Ġelite":10094,"Prince":10095,"Americans":10096,"ĠInvestment":10097,"Ġhappen":10098,"Ġundis":10099,"Ġcasino":10100,"record":10101,"ĠArtest":10102,"ĠRandy":10103,"Disney":10104,"Ġelectricity":10105,"Ġunusual":10106,"COMPUTER":10107,"Cal":10108,"Max":10109,"Tom":10110,"UE":10111,"Venezuel":10112,"colm":10113,"pson":10114,"rum":10115,"Ġtor":10116,"Ġfill":10117,"Ġwealth":10118,"reement":10119,"Ġmand":10120,"ĠSab":10121,"Ġhire":10122,"ĠPA":10123,"ĠPDA":10124,"Ġlure":10125,"ĠIyad":10126,"ĠBh":10127,"Ġeager":10128,"ĠFish":10129,"ĠFort":10130,"ĠDream":10131,"ĠGovernor":10132,"Ġatmosphere":10133,"Ġconced":10134,"pper":10135,"Ġprinc":10136,"irez":10137,"Ġresigns":10138,"ecting":10139,"Ġincident":10140,"itsch":10141,"erald":10142,"Ġretain":10143,"Ġslump":10144,"icsson":10145,"Ġindicted":10146,"Ġsurging":10147,"Ġcounting":10148,"ĠArch":10149,"erred":10150,"Ġinsists":10151,"ĠAlbert":10152,"Ġ88":10153,"ĠPhot":10154,"Ġrelay":10155,"Ġstripped":10156,"Ġedition":10157,"Ġeditor":10158,"eleb":10159,"ufacturing":10160,"Ġchanging":10161,"ĠJuventus":10162,"irtual":10163,"Ġmortar":10164,"Ġjointly":10165,"ĠIndustries":10166,"ĠPhilippine":10167,"Ġpremier":10168,"Ġspectac":10169,"Ġhamstring":10170,"Monday":10171,"Ġethnic":10172,"Ġacknowledged":10173,"Paul":10174,"Ġtens":10175,"Ġtrees":10176,"Ġflex":10177,"Ġfossil":10178,"Ġpicks":10179,"ĠSAP":10180,"Ġhusband":10181,"ouch":10182,"idia":10183,"ĠCrew":10184,"ĠMerrill":10185,"ĠPo":10186,"ĠFool":10187,"ĠRound":10188,"ĠGaz":10189,"ĠLet":10190,"ĠLock":10191,"Ġvital":10192,"ods":10193,"ishers":10194,"ounting":10195,"ussels":10196,"ĠProble":10197,"oked":10198,"Ġworkforce":10199,"Ġmedium":10200,"Ġeconomists":10201,"Ġweighed":10202,"Ġlongest":10203,"Ġsuite":10204,"Ġextin":10205,"Ġproducing":10206,"ĠAgree":10207,"ĠBankrupt":10208,"ĠBranson":10209,"Ġhandle":10210,"Ġpublicly":10211,"opper":10212,"Ġshortage":10213,"ĠTests":10214,"IAA":10215,"Friday":10216,"Ġemerge":10217,"rispy":10218,"Ġavailability":10219,"Colomb":10220,"Ġchampionships":10221,"Ġlimits":10222,"Ġclinched":10223,"Ġchoose":10224,"Ġteenager":10225,"ĠPadres":10226,"Suicide":10227,"Investors":10228,"October":10229,"ĠFuture":10230,"ĠGuidant":10231,"COMPUTERWORLD":10232,"Book":10233,"EX":10234,"Terror":10235,"cest":10236,"de":10237,"ture":10238,"torn":10239,"Ġtact":10240,"Ġshed":10241,"Ġflew":10242,"Ġwrap":10243,"ĠPers":10244,"Ġlon":10245,"olt":10246,"ĠBow":10247,"ĠWhe":10248,"Ġrating":10249,"ĠRicky":10250,"ĠLikely":10251,"aky":10252,"Ġcong":10253,"ĠInstruments":10254,"Ġshape":10255,"ĠKreme":10256,"udh":10257,"ĠChrysler":10258,"ĠChannel":10259,"Ġspre":10260,"Ġunh":10261,"Ġunrest":10262,"Ġroster":10263,"Ġscam":10264,"ANS":10265,"inder":10266,"onomy":10267,"atham":10268,"ĠResources":10269,"Ġrevive":10270,"ĠOrtiz":10271,"Ġcheaper":10272,"Ġentering":10273,"ĠBarrel":10274,"bridge":10275,"Ġdeton":10276,"iffs":10277,"Ġengineer":10278,"ĠPoland":10279,"Ġsuffer":10280,"Ġcourts":10281,"Ġappealed":10282,"Ġcomplaint":10283,"Ġsettlers":10284,"ĠNearly":10285,"Ġastronomers":10286,"ĠTyphoon":10287,"ĠTargets":10288,"ĠEvery":10289,"ĠMagic":10290,"ĠFighting":10291,"VIEW":10292,"Turkey":10293,"ĠPilots":10294,"ĠBrewers":10295,"Darfur":10296,"irmingham":10297,"Aug":10298,"Att":10299,"Before":10300,"DU":10301,"Deal":10302,"NAS":10303,"Texas":10304,"draw":10305,"jo":10306,"mand":10307,"sets":10308,"alysis":10309,"Ġwall":10310,"Ġtopp":10311,"Ġbaby":10312,"ischer":10313,"ĠSa":10314,"ĠSky":10315,"ĠSiemens":10316,"stam":10317,"ĠToll":10318,"ĠMission":10319,"Ġnerv":10320,"Ġgift":10321,"ripp":10322,"ateg":10323,"ĠYug":10324,"ĠThrough":10325,"iebel":10326,"ucr":10327,"Ġintr":10328,"oyono":10329,"Ġwarm":10330,"Ġslash":10331,"Ġslower":10332,"Ġplanets":10333,"Ġpharmaceutical":10334,"Ġdealers":10335,"Ġsignals":10336,"Ġassists":10337,"Ġ96":10338,"Ġadvances":10339,"ICH":10340,"brid":10341,"ĠTVs":10342,"running":10343,"ĠCuban":10344,"rolling":10345,"ĠRockies":10346,"Ġdistribut":10347,"ĠMichel":10348,"Ġintegration":10349,"ĠEye":10350,"Indonesia":10351,"Ġeliminate":10352,"Ġtriggered":10353,"ĠMutu":10354,"Treasuries":10355,"ĠJamaica":10356,"itschko":10357,"udhoyono":10358,"95":10359,"Cell":10360,"Health":10361,"do":10362,"rand":10363,"wolves":10364,"zone":10365,"Ġaf":10366,"Ġaw":10367,"Ġsear":10368,"Ġpunch":10369,"rog":10370,"ilateral":10371,"ĠSER":10372,"oup":10373,"ĠCre":10374,"ether":10375,"ĠMixed":10376,"Ġformed":10377,"irts":10378,"Ġgreet":10379,"Ġripped":10380,"ĠRut":10381,"ĠDoes":10382,"ĠOrange":10383,"agging":10384,"endul":10385,"iform":10386,"ĠChanges":10387,"Ġjets":10388,"Ġupon":10389,"kept":10390,"ĠUnix":10391,"Ġrecalled":10392,"Ġenters":10393,"ĠSpending":10394,"Ġ68":10395,"ATLANTA":10396,"ĠFlaw":10397,"Ġbidding":10398,"enna":10399,"ĠZook":10400,"Ġauthent":10401,"Ġpeak":10402,"Ġsubstant":10403,"Ġstudio":10404,"mitting":10405,"ĠPhilips":10406,"Ġnegative":10407,"Ġcontrols":10408,"enault":10409,"Ġdisappear":10410,"aguered":10411,"Ġcelebrated":10412,"ĠPrep":10413,"ĠIDC":10414,"Ġcertainly":10415,"Ġinventory":10416,"Ġboxing":10417,"Ġfreedom":10418,"Singh":10419,"ĠBroadband":10420,"Ġawaited":10421,"Ġconservative":10422,"alysts":10423,"Ġsuddenly":10424,"Ġsteroids":10425,"ĠApproves":10426,"Ġemotion":10427,"orenstam":10428,"Ġnecessary":10429,"ĠRodriguez":10430,"31":10431,"Geor":10432,"Hit":10433,"IX":10434,"Kee":10435,"WE":10436,"bec":10437,"bucks":10438,"sych":10439,"onz":10440,"edge":10441,"Ġfu":10442,"ĠCredit":10443,"ĠTennis":10444,"ĠTORONTO":10445,"ĠMig":10446,"Ġforg":10447,"ĠRate":10448,"ĠLight":10449,"ĠLuk":10450,"ĠLanger":10451,"ĠJOSE":10452,"umes":10453,"ustody":10454,"Ġchase":10455,"ĠKONG":10456,"eller":10457,"gtime":10458,"Ġunle":10459,"Ġpermission":10460,"Ġadmits":10461,"Ġusual":10462,"eyton":10463,"Ġmanned":10464,"ĠIslands":10465,"ĠArsene":10466,"ultane":10467,"Ġremark":10468,"ĠForum":10469,"Ġmanaging":10470,"ĠMarine":10471,"Ġposting":10472,"ĠUpdate":10473,"COL":10474,"Ġrivalry":10475,"Ġanalysis":10476,"ĠMarkets":10477,"Why":10478,"Ġbarrels":10479,"party":10480,"ĠPortug":10481,"Ġovershad":10482,"omberg":10483,"Ġsignificantly":10484,"Johnson":10485,"FORD":10486,"Indonesian":10487,"ĠHeart":10488,"Ġcondemned":10489,"Ġconcluded":10490,"Ġbalance":10491,"Ġvideot":10492,"Malays":10493,"Ġreputation":10494,"Ġtycoon":10495,"Ġrepeated":10496,"Mex":10497,"fax":10498,"pen":10499,"tax":10500,"Ġtensions":10501,"heed":10502,"itation":10503,"Ġbrac":10504,"Ġbases":10505,"urrier":10506,"oly":10507,"ĠFans":10508,"Ġitems":10509,"ĠGrizzlies":10510,"ĠHalo":10511,"endar":10512,"ardy":10513,"Ġkidn":10514,"abama":10515,"Ġspy":10516,"Ġunable":10517,"Ġcontact":10518,"Ġenable":10519,"Ġendors":10520,"ĠArist":10521,"ĠCooper":10522,"Ġbillionaire":10523,"Ġunderstand":10524,"Ġfinale":10525,"Ġrelatively":10526,"Ġmissiles":10527,"ĠCompet":10528,"Ġcontractor":10529,"Ġengineering":10530,"Ġauthority":10531,"Ġsimpl":10532,"Atlant":10533,"Ġfeeling":10534,"ĠLouisville":10535,"Ġdamaged":10536,"Ġtemper":10537,"Mozilla":10538,"Ġhydro":10539,"Today":10540,"Ġanimals":10541,"Ġspirit":10542,"Olympic":10543,"Ġenhance":10544,"Militants":10545,"Ġinaugural":10546,"ĠFalcons":10547,"Ġcollapsed":10548,"ĠBreeders":10549,"Works":10550,"aus":10551,"food":10552,"taking":10553,"Ġsen":10554,"Ġpages":10555,"Ġbon":10556,"ĠCash":10557,"ĠCable":10558,"ĠTerry":10559,"ĠPanel":10560,"ĠPoor":10561,"ĠWTO":10562,"ĠFDA":10563,"ĠNation":10564,"ĠRight":10565,"veral":10566,"rained":10567,"ĠHonda":10568,"Ġshop":10569,"Ġquarters":10570,"artoum":10571,"Ġexpenses":10572,"Ġbloc":10573,"Ġblade":10574,"Ġwars":10575,"Ġdefends":10576,"Ġelectoral":10577,"ierre":10578,"Ġ89":10579,"Ġactions":10580,"ĠAtomic":10581,"ĠBegin":10582,"Islam":10583,"Ġstandoff":10584,"Ġinterests":10585,"attan":10586,"scale":10587,"Ġmarks":10588,"Ġpulls":10589,"Ġpulling":10590,"Expl":10591,"White":10592,"Ġverge":10593,"Ġlifting":10594,"ĠTrojan":10595,"Ġspotlight":10596,"Ġsettles":10597,"Ġpledges":10598,"ĠAlexander":10599,"ĠProduct":10600,"Ġrankings":10601,"Ġadopted":10602,"ĠSamarra":10603,"ĠLatin":10604,"BOUR":10605,"Ġmicrop":10606,"Ġsustained":10607,"ĠCatholic":10608,"endulkar":10609,"Digital":10610,"Go":10611,"Mail":10612,"Rog":10613,"bour":10614,"free":10615,"oons":10616,"Ġtorn":10617,"alat":10618,"rex":10619,"isp":10620,"rokes":10621,"ĠSus":10622,"Ġdog":10623,"ĠAaron":10624,"ĠFast":10625,"ĠRice":10626,"riors":10627,"ĠJERUSALEM":10628,"ĠInformation":10629,"endant":10630,"argh":10631,"Ġintention":10632,"berwolves":10633,"ĠAnwar":10634,"ĠArena":10635,"appy":10636,"ĠOpter":10637,"Ġclosest":10638,"Ġfallen":10639,"Ġbelong":10640,"ĠSlip":10641,"ĠFirms":10642,"ĠMilosevic":10643,"Ġsurvivors":10644,"Ġinspect":10645,"Ġsurprised":10646,"Ġearthquakes":10647,"Ġhunting":10648,"Ġhouses":10649,"Philipp":10650,"Ġjudges":10651,"Ġobservers":10652,"Ġpenalties":10653,"Ġfarmers":10654,"doubleclick":10655,"Bel":10656,"DO":10657,"Even":10658,"Los":10659,"Lycos":10660,"OB":10661,"Over":10662,"Rel":10663,"Sir":10664,"Tel":10665,"ho":10666,"nets":10667,"inate":10668,"Ġfract":10669,"ala":10670,"Ġwaves":10671,"Ġdrew":10672,"ĠCare":10673,"ĠPARIS":10674,"Ġlying":10675,"amy":10676,"ĠBamb":10677,"ĠFA":10678,"Ġric":10679,"Ġranked":10680,"Ġchosen":10681,"outheastern":10682,"Ġdisrup":10683,"Ġaccord":10684,"Ġwarplanes":10685,"ĠAsh":10686,"ATI":10687,"Ġambit":10688,"ARD":10689,"AMI":10690,"Ġcellular":10691,"IDS":10692,"Ġrequired":10693,"ĠWeak":10694,"ĠMerger":10695,"Ġdominate":10696,"Reds":10697,"EDS":10698,"Ġaudience":10699,"ĠDebt":10700,"Ġagreeing":10701,"Ġvulnerable":10702,"Ġpursue":10703,"Ġoccupied":10704,"Ġexclusive":10705,"Ġchaos":10706,"Ġsuspicion":10707,"ĠAristide":10708,"'d":10709,"Half":10710,"Let":10711,"Ro":10712,"Tennis":10713,"Watch":10714,"iate":10715,"kin":10716,"nation":10717,"vo":10718,"vis":10719,"inting":10720,"Ġwrest":10721,"Ġbag":10722,"ĠCO":10723,"ĠCode":10724,"aders":10725,"Ġlived":10726,"ĠBacks":10727,"ĠFer":10728,"ĠNATO":10729,"ĠEmer":10730,"iano":10731,"ĠJeeves":10732,"ourney":10733,"Ġshadow":10734,"Ġworms":10735,"Ġscale":10736,"Ġendangered":10737,"Ġslid":10738,"Ġslashed":10739,"Ġliber":10740,"Ġreleasing":10741,"Ġ1980":10742,"Ġasset":10743,"Ġhosts":10744,"ĠGuill":10745,"shire":10746,"imbled":10747,"Ġapproves":10748,"Ġequal":10749,"ĠSymbian":10750,"ĠContinu":10751,"Ġnegotiating":10752,"ĠHarvard":10753,"ĠDebut":10754,"ylum":10755,"Ġbasis":10756,"Ġambassador":10757,"Ġvulnerabilities":10758,"Grand":10759,"ĠJonathan":10760,"Smith":10761,"Typhoon":10762,"ĠFavre":10763,"Ġambitious":10764,"Euro":10765,"Eagles":10766,"PP":10767,"Us":10768,"bird":10769,"eff":10770,"jet":10771,"rent":10772,"onage":10773,"Ġpays":10774,"Ġbrows":10775,"Ġmot":10776,"Ġdress":10777,"ĠCards":10778,"stri":10779,"ĠTiVo":10780,"ĠMOSCOW":10781,"ols":10782,"ĠBEIJING":10783,"irms":10784,"Ġsteep":10785,"Ġstolen":10786,"ĠGOP":10787,"ĠHa":10788,"ĠLog":10789,"aga":10790,"ateur":10791,"ighting":10792,"ĠKel":10793,"Ġprescription":10794,"Ġkids":10795,"ĠChapter":10796,"ĠYet":10797,"erek":10798,"Ġclues":10799,"Ġunw":10800,"odes":10801,"Ġresident":10802,"amples":10803,"Ġfines":10804,"Ġarrive":10805,"ĠSpecial":10806,"Investor":10807,"Ġregions":10808,"oots":10809,"elsewhere":10810,"afe":10811,"ĠEarn":10812,"wegian":10813,"ynam":10814,"bitration":10815,"agued":10816,"moil":10817,"Ġgathering":10818,"ĠReleases":10819,"Ġpursuit":10820,"Ġupdated":10821,"ĠStanley":10822,"Ġhammer":10823,"Earth":10824,"Ġuncertainty":10825,"Pacific":10826,"Ġsometimes":10827,"ĠSoyuz":10828,"Ġscheme":10829,"ĠIssues":10830,"Ġintellectual":10831,"Ġovercame":10832,"imbledon":10833,"CT":10834,"Pe":10835,"Pay":10836,"VICE":10837,"nes":10838,"Ġsort":10839,"itals":10840,"Ġwire":10841,"ĠSi":10842,"etooth":10843,"Ġling":10844,"Ġlength":10845,"ĠBaker":10846,"ĠBengals":10847,"imony":10848,"ĠGP":10849,"ĠHop":10850,"ĠLake":10851,"ĠStr":10852,"nington":10853,"izumi":10854,"ullah":10855,"Ġ46":10856,"Ġswap":10857,"afi":10858,"Ġfilms":10859,"ĠAssembly":10860,"Ġemployers":10861,"Ġdivided":10862,"ĠMedic":10863,"Ġfueled":10864,"ĠRobinson":10865,"ĠHolding":10866,"ĠTrail":10867,"Ġafford":10868,"Ġdominance":10869,"ĠATP":10870,"ALLAH":10871,"ĠBerlusconi":10872,"ĠRamirez":10873,"eremy":10874,"Ġadopt":10875,"Ġvulnerability":10876,"feit":10877,"ĠHomeland":10878,"Ġmeaning":10879,"ĠLatest":10880,"armaceuticals":10881,"Ġmysterious":10882,"terrorism":10883,"PTEMBER":10884,"Ġmicro":10885,"Ġfavourite":10886,"Ġlibrary":10887,"Ġgamers":10888,"Ġmilestone":10889,"rahim":10890,"ĠLenovo":10891,"Ġpermanent":10892,"Ġprofessionals":10893,"Ġconglom":10894,"Bag":10895,"Chip":10896,"Sox":10897,"Saudi":10898,"bell":10899,"brahim":10900,"cor":10901,"mn":10902,"Ġtanks":10903,"Ġcenters":10904,"Ġtow":10905,"isman":10906,"Ġmix":10907,"Ġdamp":10908,"ĠMill":10909,"Ġnortheast":10910,"ĠIR":10911,"otic":10912,"ĠRu":10913,"ithuan":10914,"ĠHurricanes":10915,"osa":10916,"ĠON":10917,"ĠKABUL":10918,"ĠThen":10919,"Ġspoke":10920,"ĠFredd":10921,"Ġuprising":10922,"ĠVirus":10923,"Ġintent":10924,"Ġtrucks":10925,"Ġarr":10926,"Ġorb":10927,"Ġstruct":10928,"Inf":10929,"Ġindef":10930,"REAL":10931,"Chief":10932,"Ġcharging":10933,"ĠAppeal":10934,"Ġadvice":10935,"ĠAnderson":10936,"Ġacquiring":10937,"Ġfacilities":10938,"Ġhowever":10939,"umbles":10940,"Ġlisted":10941,"IDG":10942,"ĠHolmes":10943,"ĠCheck":10944,"Ġslowly":10945,"Ġwriter":10946,"ĠMissile":10947,"ĠDVDs":10948,"Ġsquee":10949,"Ġarticle":10950,"Ġescape":10951,"indsay":10952,"ĠExtends":10953,"Ġbattling":10954,"ĠTelescope":10955,"ascus":10956,"ĠViktor":10957,"According":10958,"ucrative":10959,"ĠSERVICE":10960,"BT":10961,"Bur":10962,"Brown":10963,"OD":10964,"found":10965,"general":10966,"hattan":10967,"iat":10968,"selling":10969,"uers":10970,"vision":10971,"zens":10972,"Ġelsewhere":10973,"Ġtender":10974,"Ġtype":10975,"Ġsights":10976,"rock":10977,"ĠAims":10978,"Ġnote":10979,"ĠPav":10980,"Ġreign":10981,"Ġreass":10982,"ĠFears":10983,"ĠNat":10984,"ĠRights":10985,"ĠDave":10986,"ĠGer":10987,"ĠGiant":10988,"upert":10989,"ĠHamp":10990,"ĠLLC":10991,"ulations":10992,"ribe":10993,"Ġusually":10994,"plus":10995,"ĠLeaves":10996,"Ġflow":10997,"Ġfloor":10998,"Ġ72":10999,"Ġmaybe":11000,"Ġbatteries":11001,"armalat":11002,"Ġviolating":11003,"Ġdomain":11004,"Ġrevenge":11005,"SEATTLE":11006,"Ġprivacy":11007,"ĠMaver":11008,"Ġmonitoring":11009,"IMF":11010,"Ġtreaty":11011,"ĠHispan":11012,"Ġgirls":11013,"Ġassociation":11014,"ĠSummer":11015,"Ġdelegation":11016,"Ġpioneer":11017,"ĠMourinho":11018,"Ġexperimental":11019,"Greenspan":11020,"Ġtelephony":11021,"ĠOpteron":11022,";\\":11023,"Dream":11024,"Eight":11025,"Liverpool":11026,"Power":11027,"SM":11028,"TW":11029,"gn":11030,"Ġtall":11031,"Ġtort":11032,"Ġfilled":11033,"Ġcustody":11034,"ref":11035,"Ġink":11036,"Ġhip":11037,"ĠBC":11038,"ĠBanks":11039,"Ġreward":11040,"Ġstream":11041,"ĠFur":11042,"ĠFleet":11043,"imum":11044,"ĠRub":11045,"ĠGri":11046,"ewell":11047,"oser":11048,"ulating":11049,"apon":11050,"ĠKings":11051,"Ġunique":11052,"Ġunanim":11053,"erved":11054,"ĠShould":11055,"Ġsurpass":11056,"ĠPlace":11057,"Ġagreements":11058,"Ġconfront":11059,"ĠAlabama":11060,"Ġprovision":11061,"Ġassembly":11062,"bersecurity":11063,"ĠWithout":11064,"percent":11065,"Ġpatches":11066,"ĠSyracuse":11067,"ĠContent":11068,"Ġdoctor":11069,"Ġmassacre":11070,"ĠReturns":11071,"Alitalia":11072,"Ġwritten":11073,"ĠMalcolm":11074,"ĠCharge":11075,"Ġsitting":11076,"Second":11077,"Trans":11078,"inhua":11079,"Ġabsence":11080,"Ġachieve":11081,"Ġresumed":11082,"Ġdeparture":11083,"ĠJPEG":11084,"ĠJerusalem":11085,"ĠHornets":11086,"Ġestablished":11087,"67":11088,"CR":11089,"Celt":11090,"EE":11091,"KE":11092,"Sri":11093,"Trust":11094,"bacco":11095,"gar":11096,"mine":11097,"mare":11098,"rino":11099,"Ġicon":11100,"aning":11101,"Ġfault":11102,"Ġfaith":11103,"Ġwear":11104,"Ġpir":11105,"Ġtouc":11106,"Ġtobacco":11107,"Ġbes":11108,"Ġbail":11109,"isan":11110,"Ġhundred":11111,"leaguered":11112,"ĠCBS":11113,"ĠACC":11114,"ĠTow":11115,"Ġthinks":11116,"Ġthwart":11117,"eca":11118,"ĠPorts":11119,"Ġlucrative":11120,"olas":11121,"ĠFischer":11122,"Ġratings":11123,"ravel":11124,"ĠGal":11125,"ĠGDP":11126,"Ġconven":11127,"Ġexporter":11128,"Ġkil":11129,"ĠVows":11130,"overy":11131,"portun":11132,"Ġscrap":11133,"Ġcarries":11134,"ĠMarathon":11135,"Ġbridge":11136,"Ġguerrillas":11137,"ukat":11138,"ĠOrgan":11139,"Ġmarriage":11140,"Ġskipper":11141,"ĠDelaware":11142,"ĠRetire":11143,"Ġrepublic":11144,"uffle":11145,"Ġvolatile":11146,"ĠTommy":11147,"Ġclinical":11148,"Ġdiplomat":11149,"Ġpledge":11150,"160":11151,"ETRO":11152,"Ġrepresentatives":11153,"regon":11154,"SpaceShipOne":11155,"LOOM":11156,"Ġdisruptions":11157,"ĠOpposition":11158,"Ġsleep":11159,"Ġgrenade":11160,"ĠMaoist":11161,"Ġmicropro":11162,"Most":11163,"cano":11164,"hand":11165,"nold":11166,"winning":11167,"erated":11168,"aters":11169,"ĠSr":11170,"ĠSug":11171,"stream":11172,"acr":11173,"ĠPact":11174,"ĠPersonal":11175,"igar":11176,"ĠBali":11177,"Ġreop":11178,"ĠFun":11179,"ĠRisk":11180,"ĠRenault":11181,"ĠGam":11182,"early":11183,"ĠLarg":11184,"ĠLooks":11185,"essing":11186,"ĠYudhoyono":11187,"ĠThink":11188,"sequ":11189,"Ġintends":11190,"oviet":11191,"Ġtracks":11192,"ushchenko":11193,"USTR":11194,"Ġ57":11195,"Ġ71":11196,"Ġcommod":11197,"Ġbatting":11198,"Ġguy":11199,"Ġstrongest":11200,"Ġ''":11201,"ĠAbove":11202,"ĠQantas":11203,"Ġmatchup":11204,"ĠSlow":11205,"ĠSlov":11206,"Ġestimate":11207,"Ġtelevisions":11208,"Ġclearing":11209,"Ġdrama":11210,"ĠFederation":11211,"Athens":11212,"ĠBlackburn":11213,"Ġblocked":11214,"Ġarrival":11215,"Ġcanceled":11216,"Pakistani":11217,"Ġupgrades":11218,"Ġfilmmaker":11219,"Ġencounter":11220,"Ġsilicon":11221,"Ġbattled":11222,"ĠErnie":11223,"Ġpunish":11224,"Ġtemporarily":11225,"Ġdialogue":11226,"ĠRoyals":11227,"ĠLimited":11228,"bestos":11229,"ĠMadison":11230,"Phillips":11231,"ĠSuzuki":11232,"Ġsupermarket":11233,"Ġconglomerate":11234,"ETROIT":11235,"Bang":11236,"Cle":11237,"DI":11238,"DAL":11239,"FE":11240,"HS":11241,"May":11242,"Pfizer":11243,"Sant":11244,"pect":11245,"repr":11246,"Ġbound":11247,"ĠMoss":11248,"ĠBrett":11249,"Ġstick":11250,"ĠNuggets":11251,"ĠRovers":11252,"ĠDh":11253,"quille":11254,"ĠHawks":11255,"ĠEMC":11256,"ĠOuts":11257,"agger":11258,"ĠJos":11259,"Ġleap":11260,"Ġquake":11261,"Ġchair":11262,"ideast":11263,"ghans":11264,"ĠLeave":11265,"azing":11266,"Ġsupported":11267,"ĠResigns":11268,"Ġ92":11269,"Ġrebounded":11270,"Ġpayroll":11271,"Ġguide":11272,"Ġantivirus":11273,"ĠOnly":11274,"class":11275,"Ġcorrect":11276,"ĠMcG":11277,"Asia":11278,"Ġembry":11279,"ĠSyrian":11280,"Ġdistance":11281,"Ġsimultane":11282,"Ġrecovering":11283,"Ġdraws":11284,"Ġdamages":11285,"ĠTroy":11286,"ĠTimberwolves":11287,"ĠTreasuries":11288,"Ġastronaut":11289,"ĠSilicon":11290,"anguly":11291,"ĠAviation":11292,"Ġintegrated":11293,"hello":11294,"Ġsemifinal":11295,"Ġsensitive":11296,"Ġabandoned":11297,"ĠDirector":11298,"Halliburton":11299,"ĠKazakh":11300,"Ġroyal":11301,"Ġspectacular":11302,"Keefe":11303,"ĠMavericks":11304,"Broad":11305,"Fall":11306,"Free":11307,"GP":11308,"Har":11309,"Key":11310,"Out":11311,"Wireless":11312,"dam":11313,"growing":11314,"kom":11315,"lav":11316,"water":11317,"Ġsyn":11318,"itan":11319,"atures":11320,"Ġcouncil":11321,"Ġborn":11322,"Ġborrow":11323,"Ġmad":11324,"ĠSom":11325,"Ġdrawn":11326,"ĠCur":11327,"ĠAU":11328,"ĠMir":11329,"ĠMys":11330,"ĠPH":11331,"ĠPSP":11332,"ĠIbrahim":11333,"ĠWant":11334,"Ġstakes":11335,"ĠNV":11336,"ĠEsc":11337,"ocaine":11338,"ĠJump":11339,"ardier":11340,"ĠYen":11341,"ĠThousands":11342,"odge":11343,"ĠIssue":11344,"Ġelectrical":11345,"Ġ53":11346,"Ġdealt":11347,"ĠSerge":11348,"Ġtroop":11349,"official":11350,"puting":11351,"ĠManhattan":11352,"resent":11353,"ĠBridge":11354,"Ġreducing":11355,"richello":11356,"ĠDefence":11357,"Ġclubs":11358,"Ġpopularity":11359,"Ġ1996":11360,"Ġnegotiators":11361,"Ġblockbuster":11362,"Ġcelebration":11363,"ĠPayPal":11364,"Ġeffectively":11365,"ĠSurv":11366,"Ġcounterpart":11367,"ĠVoters":11368,"Ġburst":11369,"ĠRomania":11370,"Ġmistake":11371,"Ġslammed":11372,"Ġphysical":11373,"ĠPicture":11374,"ĠCritic":11375,"Ġcasualties":11376,"But":11377,"Bonds":11378,"Call":11379,"Football":11380,"Goran":11381,"JAKARTA":11382,"Many":11383,"but":11384,"sec":11385,"school":11386,"zed":11387,"onic":11388,"Ġsends":11389,"Ġtheory":11390,"Ġfol":11391,"Ġfest":11392,"acle":11393,"ĠMaine":11394,"Ġlov":11395,"ĠFel":11396,"ĠNortheast":11397,"imates":11398,"ĠRival":11399,"APL":11400,"Ġcompound":11401,"ĠKurd":11402,"Ġunchanged":11403,"ĠPres":11404,"Ġcrashes":11405,"angle":11406,"Ġblocks":11407,"ĠArk":11408,"Stock":11409,"iambi":11410,"Ġactive":11411,"That":11412,"Ġguards":11413,"struct":11414,"Ġanticip":11415,"ĠBruce":11416,"Ġcompetitor":11417,"Ġowns":11418,"umbent":11419,"Ġembargo":11420,"Ġrockets":11421,"amento":11422,"ĠMoqtada":11423,"Ġkidnapping":11424,"Ġpacked":11425,"arzeneg":11426,"ĠProtest":11427,"ĠMontgomerie":11428,"ĠBombs":11429,"Ġmoments":11430,"uznets":11431,"Ġcalendar":11432,"Ġanswers":11433,"Ġillness":11434,"Ġtribunal":11435,"BURG":11436,"ĠRevolution":11437,"Ġtelecoms":11438,"Ġlibraries":11439,"Ġcartel":11440,"ĠMuqtada":11441,"Ġpersuade":11442,"Ġlongtime":11443,"Ġdetonated":11444,"Baghdad":11445,"acramento":11446,"arzenegger":11447,"Pass":11448,"Tim":11449,"Zen":11450,"cane":11451,"orse":11452,"Ġwearing":11453,"Ġboys":11454,"Ġhikes":11455,"idance":11456,"ĠCustom":11457,"uri":11458,"ĠMeyer":11459,"Ġthrows":11460,"ĠIan":11461,"ĠBirmingham":11462,"Ġstable":11463,"imination":11464,"ĠRB":11465,"ĠDrive":11466,"ĠDaimlerChrysler":11467,"ĠGarden":11468,"Ġhed":11469,"ĠStrug":11470,"ĠStraw":11471,"oof":11472,"Ġjourney":11473,"Ġselect":11474,"Ġselected":11475,"Ġoutbreak":11476,"Ġresh":11477,"amps":11478,"anking":11479,"Ġcrunch":11480,"ples":11481,"inai":11482,"Ġimminent":11483,"itsu":11484,"Ġconsult":11485,"Int":11486,"ooting":11487,"Strong":11488,"Ġsuing":11489,"Ġbattery":11490,"Ġcostly":11491,"clestone":11492,"liners":11493,"mails":11494,"Ġinterested":11495,"ĠRepresent":11496,"ADS":11497,"Ġpresented":11498,"Ġpresidency":11499,"Although":11500,"Ġrolls":11501,"ĠExpands":11502,"ĠSurvey":11503,"aught":11504,"Ġbasic":11505,"Ġathletic":11506,"Ġvirtually":11507,"ĠJacksonville":11508,"ĠDamascus":11509,"ĠStanford":11510,"Ġsalary":11511,"ĠShaukat":11512,"while":11513,"controlled":11514,"ĠMahm":11515,"Ġexercise":11516,"ĠMercury":11517,"Officials":11518,"poena":11519,"ĠBankruptcy":11520,"69":11521,"DC":11522,"Iv":11523,"NT":11524,"Rad":11525,"RIM":11526,"SK":11527,"She":11528,"Sign":11529,"Seattle":11530,"bot":11531,"base":11532,"hist":11533,"Ġbonds":11534,"icits":11535,"ilo":11536,"ĠSells":11537,"ĠCore":11538,"ĠTurns":11539,"elro":11540,"ĠBoth":11541,"ĠWars":11542,"ĠFame":11543,"Ġrugby":11544,"ĠDrew":11545,"ĠUkrainian":11546,"ĠHO":11547,"occo":11548,"apes":11549,"Ġspots":11550,"Ġclock":11551,"ĠVotes":11552,"Ġcontain":11553,"ousand":11554,"ĠShawn":11555,"Ġ650":11556,"Ġpercentage":11557,"Ġsurve":11558,"ĠCole":11559,"ĠBlog":11560,"Ġdealing":11561,"erties":11562,"Ġundergo":11563,"ĠBrussels":11564,"ĠGuilty":11565,"iddles":11566,"Ġpromotion":11567,"Ġholidays":11568,"Ġtransform":11569,"UNITED":11570,"\\\\\"":11571,"ĠIslamist":11572,"Ġfeels":11573,"Ġfreshman":11574,"Ġtowns":11575,"ĠBelgian":11576,"Ġalleging":11577,"Ġescaped":11578,"ĠMalaysian":11579,"Ġmistakes":11580,"Ġabandon":11581,"ĠOptim":11582,"Ġsavings":11583,"Ġtougher":11584,"ĠRafael":11585,"Ġoverwhelming":11586,"ĠGAZA":11587,"mandu":11588,"reprene":11589,"uznetsova":11590,"Back":11591,"Cy":11592,"Cassini":11593,"Good":11594,"Kidnapp":11595,"Mem":11596,"YA":11597,"des":11598,"del":11599,"gies":11600,"Ġtumbled":11601,"Ġtoy":11602,"Ġbund":11603,"ĠToo":11604,"acc":11605,"ĠPurdue":11606,"ĠBAR":11607,"Ġgri":11608,"Ġstops":11609,"Ġstrokes":11610,"ĠNFC":11611,"ĠRac":11612,"ĠDw":11613,"Ġproof":11614,"ummer":11615,"Ġoffshore":11616,"ffield":11617,"Ġ61":11618,"Ġserved":11619,"ĠResc":11620,"Ġoperate":11621,"header":11622,"ĠAds":11623,"Ġsuburb":11624,"Ġguidance":11625,"Ġcloses":11626,"lete":11627,"TOBER":11628,"Ġpatient":11629,"Ġtradition":11630,"ĠDelays":11631,"Ġwithdrawn":11632,"ONTREAL":11633,"URT":11634,"egoti":11635,"ĠJuan":11636,"Ġpublishing":11637,"Ġcounted":11638,"ĠBelarus":11639,"ĠExplos":11640,"ĠMexican":11641,"Ġchallenging":11642,"ravaged":11643,"ĠCharlie":11644,"ĠPleads":11645,"ĠSalvation":11646,"definition":11647,"Ġcongressional":11648,"ĠEmploy":11649,"Ġdetainees":11650,"ĠShrine":11651,"450":11652,"700":11653,"FK":11654,"Game":11655,"Jets":11656,"Ray":11657,"Rangers":11658,"bound":11659,"car":11660,"wing":11661,"Ġsacked":11662,"Ġcow":11663,"Ġwr":11664,"ĠSaints":11665,"ĠCond":11666,"ĠPetroleum":11667,"ĠRick":11668,"ĠGround":11669,"ĠHil":11670,"Ġbeaut":11671,"Ġbeleaguered":11672,"Ġyoun":11673,"ĠStrate":11674,"Ġwhales":11675,"ustry":11676,"ĠKidd":11677,"Ġabuses":11678,"ureau":11679,"Ġkiller":11680,"Ġdeclines":11681,"ĠCoal":11682,"errard":11683,"Ġbru":11684,"Ġstriking":11685,"idnight":11686,"closed":11687,"ĠPhilip":11688,"ILLS":11689,"ĠPolicy":11690,"ĠNetflix":11691,"Ġdrink":11692,"Ġshutout":11693,"ĠInterior":11694,"Ġidentify":11695,"Ġimportance":11696,"ĠPortland":11697,"ĠHaitian":11698,"ĠPitcairn":11699,"service":11700,"ĠEricsson":11701,"ĠKhartoum":11702,"ĠThreatens":11703,"Ġpremium":11704,"ĠKeeps":11705,"Ġreliever":11706,"Ġcornerback":11707,"ĠBlockbuster":11708,"ĠCancer":11709,"Ġdesperate":11710,"ĠVenus":11711,"ĠVersion":11712,"PO":11713,"Sever":11714,"Windows":11715,"Zimbabwe":11716,"bal":11717,"government":11718,"ja":11719,"killer":11720,"low":11721,"sen":11722,"two":11723,"Ġtree":11724,"inid":11725,"Ġsick":11726,"Ġcargo":11727,"Ġbear":11728,"Ġbold":11729,"Ġmph":11730,"ĠPeyton":11731,"ĠBah":11732,"Ġreiter":11733,"Ġraw":11734,"ĠNJ":11735,"ĠNist":11736,"ĠNev":11737,"esty":11738,"ĠRising":11739,"ĠDanny":11740,"ĠLA":11741,"ĠLift":11742,"ĠERP":11743,"Ġbeer":11744,"Ġbeach":11745,"ulator":11746,"asty":11747,"Ġships":11748,"Ġplus":11749,"ivals":11750,"Ġaccompl":11751,"Ġunknown":11752,"Ġuniform":11753,"Ġopinion":11754,"gedy":11755,"eeper":11756,"eeping":11757,"enny":11758,"rawford":11759,"ĠTrack":11760,"spyware":11761,"ĠWithdraw":11762,"Ġreduction":11763,"Ġgrant":11764,"ujitsu":11765,"ACH":11766,"Ġfeaturing":11767,"Ġtwin":11768,"Ġdiscussions":11769,"ĠAutom":11770,"BERLIN":11771,"ĠCountry":11772,"Ġplatforms":11773,"Ġownership":11774,"ĠAviv":11775,"Ġdisappointed":11776,"ĠHotel":11777,"Ġattendants":11778,"PalmOne":11779,"Ġmargin":11780,"ĠRwanda":11781,"Ġoriginally":11782,"Ġdesktops":11783,"Ġcompromise":11784,"Ġcolleagues":11785,"ĠHampshire":11786,"ĠNistelro":11787,"/&":11788,"CK":11789,"Center":11790,"FP":11791,"Mil":11792,"Month":11793,"SEOUL":11794,"Vol":11795,"dict":11796,"holm":11797,"lif":11798,"Ġace":11799,"Ġce":11800,"alom":11801,"Ġtopped":11802,"Ġmud":11803,"ĠSouness":11804,"ĠSinai":11805,"Ġdot":11806,"Ġdubbed":11807,"ĠAction":11808,"ĠTottenham":11809,"ĠMGM":11810,"Ġforth":11811,"Ġnortheastern":11812,"ĠIRA":11813,"ĠBook":11814,"ĠWright":11815,"Ġstages":11816,"ĠRE":11817,"that":11818,"ĠDu":11819,"ĠHist":11820,"ulham":11821,"ĠOmar":11822,"riot":11823,"Ġproced":11824,"Ġunp":11825,"ĠMoney":11826,"Ġscen":11827,"ologist":11828,"Ġbusinessman":11829,"ĠPlane":11830,"Ġnearby":11831,"lington":11832,"Ġsmooth":11833,"Ġswimming":11834,"Ġdeliber":11835,"Ġstrain":11836,"Ġopposed":11837,"Ġdetailed":11838,"Ġmoderate":11839,"Ġregulations":11840,"Ġexperiment":11841,"wanted":11842,"ĠShell":11843,"NET":11844,"Ġsurvival":11845,"Ġgreenhouse":11846,"Ġhunger":11847,"Ġbriefly":11848,"Ġflooding":11849,"Defense":11850,"ĠSettlement":11851,"Ġcycling":11852,"ĠEarnhardt":11853,"LOOMFIELD":11854,"caneers":11855,"ĠNistelrooy":11856,"'m":11857,"87":11858,"Green":11859,"Gateway":11860,"Myanmar":11861,"Sonics":11862,"Vi":11863,"ais":11864,"boy":11865,"hot":11866,"hire":11867,"ienced":11868,"named":11869,"vidia":11870,"Ġaides":11871,"arc":11872,"Ġcert":11873,"ĠSar":11874,"ĠCars":11875,"ĠAwards":11876,"aco":11877,"ĠBT":11878,"ĠBurn":11879,"ĠBrowser":11880,"Ġreaction":11881,"ework":11882,"ĠLess":11883,"Ġasylum":11884,"ĠKath":11885,"ĠYUKOS":11886,"ĠVenture":11887,"outi":11888,"Ġabrupt":11889,"ogts":11890,"Ġopportun":11891,"achers":11892,"ovan":11893,"itez":11894,"oyed":11895,"Ġimag":11896,"ĠReaches":11897,"Ġsupports":11898,"hips":11899,"Ġcapped":11900,"errilla":11901,"ĠConrad":11902,"iamen":11903,"Ġtriple":11904,"Ġweapon":11905,"Thai":11906,"Ġsubst":11907,"Ġcheer":11908,"ĠDisput":11909,"Ġstepping":11910,"ĠAmelie":11911,"Ġnegotiate":11912,"ĠSuisse":11913,"Ġconviction":11914,"Ġcombination":11915,"Ġvalued":11916,"Ġblasted":11917,"ĠAntar":11918,"AKE":11919,"Ġcomplaints":11920,"Adv":11921,"ĠTropical":11922,"Ġcircuit":11923,"ĠNorwegian":11924,"ĠDouble":11925,"Ġhonor":11926,"Ġdevastated":11927,"Olympics":11928,"Ġunfair":11929,"Hamas":11930,"Ġchemical":11931,"Ġtreated":11932,"Ġwreckage":11933,"ĠLPGA":11934,"Ġadvocates":11935,"Ġaccusations":11936,"elebrex":11937,"37":11938,"64":11939,"BU":11940,"Bry":11941,"CEO":11942,"DEN":11943,"Hong":11944,"IO":11945,"Lead":11946,"WTO":11947,"yer":11948,"Ġerror":11949,"Ġawards":11950,"Ġpsych":11951,"ĠSites":11952,"Ġhide":11953,"Ġhaul":11954,"ĠFCC":11955,"ĠFreed":11956,"ĠNag":11957,"ĠNears":11958,"ĠNTT":11959,"ĠRat":11960,"ĠRow":11961,"ĠDraw":11962,"ĠDerek":11963,"ĠGall":11964,"ĠHim":11965,"ĠLive":11966,"ĠOregon":11967,"essor":11968,"ĠJet":11969,"Ġwhom":11970,"ĠYushchenko":11971,"avior":11972,"ĠSpring":11973,"IND":11974,"ĠAsks":11975,"Ġcooper":11976,"airy":11977,"ĠPresidential":11978,"Ġtalent":11979,"coa":11980,"ainsbury":11981,"Ġglory":11982,"Ġstrongly":11983,"Ġcamps":11984,"Ġspecific":11985,"Ġhandling":11986,"ĠWarning":11987,"ĠHeisman":11988,"Ġgolden":11989,"Ġvisited":11990,"Ġaviation":11991,"oneywell":11992,"ĠEddie":11993,"ĠSlips":11994,"Ġpolicemen":11995,"ĠMaur":11996,"Ġenth":11997,"ĠMissing":11998,"Ġaffected":11999,"Ġmonitors":12000,"Ġdisappointment":12001,"Ġfuneral":12002,"ĠIntrod":12003,"Ġlocker":12004,"ĠLegal":12005,"Ġpraise":12006,"Ġturmoil":12007,"boro":12008,"Steel":12009,"ĠStraight":12010,"cutting":12011,"ĠFreddie":12012,"Zeneca":12013,"150":12014,"32":12015,"Bell":12016,"Death":12017,"Government":12018,"SINGAPORE":12019,"after":12020,"brough":12021,"hol":12022,"Ġeld":12023,"inted":12024,"oria":12025,"rehens":12026,"Ġbranch":12027,"ĠSend":12028,"sted":12029,"ela":12030,"ĠPiracy":12031,"ĠBulls":12032,"Ġge":12033,"ĠWolf":12034,"ĠWNBA":12035,"ĠWarming":12036,"Ġstaged":12037,"ĠFBI":12038,"ĠNapster":12039,"ested":12040,"ĠRome":12041,"ĠLose":12042,"ĠLindsay":12043,"osis":12044,"ĠEight":12045,"Ġsaving":12046,"iang":12047,"Ġdeg":12048,"umar":12049,"ĠStay":12050,"Ġquits":12051,"Ġcomponents":12052,"ĠKurt":12053,"Ġkicks":12054,"Ġclassic":12055,"Ġcloning":12056,"ailing":12057,"computing":12058,"Ġtrim":12059,"ĠShot":12060,"Ġdeclining":12061,"Ġ74":12062,"enteris":12063,"Ġspecif":12064,"Ġ160":12065,"ijsters":12066,"Ġsolve":12067,"Ask":12068,"Ġchipmaker":12069,"Ġstatements":12070,"Ġprisoner":12071,"Ġblockade":12072,"Ġdrawing":12073,"Ġdifferences":12074,"Ġacquisitions":12075,"ĠPorto":12076,"Ġwildlife":12077,"ALLUJA":12078,"Ġprotecting":12079,"ĠInsurgents":12080,"Ġdemonstrated":12081,"Ġhalted":12082,"ĠBasque":12083,"Ġknockout":12084,"powered":12085,"Patriots":12086,"ĠBuccaneers":12087,"ĠPeterson":12088,"ĠHarrington":12089,"African":12090,"Ġregistered":12091,"Ġdistributor":12092,"ĠPortsmouth":12093,"ĠKazakhstan":12094,"89":12095,"Act":12096,"Bert":12097,"Chen":12098,"EBay":12099,"Golf":12100,"Mortgage":12101,"Tony":12102,"host":12103,"oos":12104,"uly":12105,"Ġtore":12106,"Ġfake":12107,"asa":12108,"Ġmun":12109,"ĠSue":12110,"ĠSacramento":12111,"Ġhook":12112,"stad":12113,"ĠAS":12114,"ĠABC":12115,"ĠMax":12116,"ĠMetro":12117,"ĠPension":12118,"ĠBrom":12119,"ĠWid":12120,"Ġstays":12121,"ĠFM":12122,"Ġrains":12123,"ĠNuke":12124,"ulted":12125,"Ġasp":12126,"Ġconvers":12127,"ĠJeremy":12128,"Ġexample":12129,"ĠKan":12130,"ometer":12131,"Ġaccuses":12132,"ĠSpurrier":12133,"ĠComcast":12134,"oken":12135,"alese":12136,"president":12137,"ATA":12138,"racted":12139,"RES":12140,"ĠAlaska":12141,"Ġgrows":12142,"Ġbombed":12143,"Ġdelight":12144,"Ġdelivers":12145,"Ġprogramming":12146,"beki":12147,"ĠWillingham":12148,"Ġfollows":12149,"respond":12150,"Ġviolated":12151,"ĠSanctions":12152,"Ġshortly":12153,"Ġpatrol":12154,"Ġshared":12155,"Ġdrinks":12156,"ĠHowever":12157,"utiny":12158,"Ġdefeating":12159,"College":12160,"ĠMissouri":12161,"Ġcompletely":12162,"ĠSilv":12163,"ĠStarts":12164,"Ġlabels":12165,"Ġindependence":12166,"ĠPanama":12167,"ĠLowe":12168,"Ġlackl":12169,"Ġcharacter":12170,"Howard":12171,"Server":12172,"Ġsymbol":12173,"ĠGraeme":12174,"Ġevacu":12175,"Ġceasefire":12176,"Nigerian":12177,"Ġlandslides":12178,"Ġmagnitude":12179,"ĠKlitschko":12180,"Ġgenetic":12181,"Ġcomfortable":12182,"Senate":12183,"ĠVIENNA":12184,"UAIR":12185,"ĠLuis":12186,"Ġerrors":12187,"Ġaerospace":12188,"ĠGazprom":12189,"Ġvideotape":12190,"Explos":12191,"AI":12192,"Astron":12193,"BE":12194,"BANG":12195,"End":12196,"HAM":12197,"Ireland":12198,"PK":12199,"Pad":12200,"bow":12201,"fare":12202,"jans":12203,"kina":12204,"now":12205,"pot":12206,"Ġtip":12207,"inf":12208,"Ġcocaine":12209,"alph":12210,"Ġpill":12211,"Ġbears":12212,"royo":12213,"ĠSU":12214,"ĠMuseum":12215,"amm":12216,"ĠBanc":12217,"ĠBudd":12218,"irmed":12219,"Ġgang":12220,"user":12221,"ĠFarm":12222,"ĠFamily":12223,"Ġrib":12224,"ĠNZ":12225,"ĠRO":12226,"ĠRuling":12227,"ĠHundreds":12228,"asted":12229,"Ġcomponent":12230,"ellation":12231,"avs":12232,"ocking":12233,"ĠAns":12234,"ĠLeon":12235,"ĠProgress":12236,"ĠExecut":12237,"ĠBlasts":12238,"ĠPlant":12239,"ĠClippers":12240,"Ġunderway":12241,"ĠSerie":12242,"Ġbankers":12243,"Ġexecution":12244,"ĠSeoul":12245,"Ġhomers":12246,"ĠMcDonald":12247,"share":12248,"Ġtradem":12249,"Who":12250,"ĠPatent":12251,"ĠAmong":12252,"ĠMedal":12253,"Ġactivist":12254,"ĠConsumers":12255,"ĠLoses":12256,"Ġtravelers":12257,"Ġidentification":12258,"Ġsurvive":12259,"ylan":12260,"ĠSanta":12261,"ĠIntegr":12262,"McDonald":12263,"ĠLabs":12264,"ĠStrikes":12265,"ĠProducts":12266,"Ġsubscription":12267,"Ġattempted":12268,"edding":12269,"olicited":12270,"ĠLiberty":12271,"Super":12272,"ĠPennington":12273,"ĠJamal":12274,"ĠAbdullah":12275,"Ġprimary":12276,"epsi":12277,"Angels":12278,"ĠRossi":12279,"Ġadapters":12280,"UALA":12281,"ĠCourse":12282,"Ġslugger":12283,";\\&":12284,"Boss":12285,"HD":12286,"Hundreds":12287,"Miami":12288,"Susp":12289,"VE":12290,"Woods":12291,"flight":12292,"rating":12293,"Ġtons":12294,"Ġsac":12295,"Ġsank":12296,"iton":12297,"itted":12298,"Ġfights":12299,"Ġoust":12300,"Ġpieces":12301,"ĠSex":12302,"Ġdu":12303,"Ġdaughter":12304,"ĠCome":12305,"ĠCIA":12306,"ĠAud":12307,"ĠAverage":12308,"ĠAyad":12309,"ĠTob":12310,"uration":12311,"ĠMideast":12312,"irit":12313,"Ġgambling":12314,"Ġstiff":12315,"ĠFI":12316,"ĠDig":12317,"ĠHend":12318,"ĠLike":12319,"ĠLiving":12320,"emic":12321,"opoly":12322,"essential":12323,"romedia":12324,"Ġshipped":12325,"Ġpriced":12326,"Ġalb":12327,"ĠVivendi":12328,"Ġrovers":12329,"ogg":12330,"avier":12331,"Ġ2009":12332,"Ġcontrolled":12333,"awati":12334,"Ġadults":12335,"Ġincumbent":12336,"inding":12337,"UST":12338,"INS":12339,"Ġinvestments":12340,"Ġ85":12341,"ika":12342,"iki":12343,"Ġ94":12344,"Ġsworn":12345,"Ġprofitable":12346,"Ġglass":12347,"ĠTrump":12348,"atories":12349,"ĠDecline":12350,"Ġinteresting":12351,"ĠSuns":12352,"Ġshortstop":12353,"Ġshell":12354,"GHz":12355,"Blast":12356,"ĠPolish":12357,"ĠDelay":12358,"Ġmetres":12359,"ĠHarris":12360,"Ġquestionable":12361,"Enter":12362,"ĠDrugs":12363,"Ġpurchased":12364,"Ġoccurred":12365,"Ġurgent":12366,"ĠExtend":12367,"Ġphotograph":12368,"ĠBluetooth":12369,"Ġsidelined":12370,"ĠArrested":12371,"ĠRwandan":12372,"ernandez":12373,"ĠScientific":12374,"iddlesbrough":12375,"BL":12376,"HONG":12377,"Mos":12378,"Ow":12379,"PN":12380,"SAP":12381,"Siemens":12382,"TAN":12383,"WS":12384,"gl":12385,"kies":12386,"oop":12387,"ruit":12388,"Ġx":12389,"iner":12390,"hening":12391,"enged":12392,"Ġfee":12393,"Ġcripp":12394,"Ġpending":12395,"Ġbounce":12396,"iser":12397,"aya":12398,"ĠSoft":12399,"Ġdawn":12400,"ĠAIDS":12401,"urich":12402,"Ġforms":12403,"ĠProsecut":12404,"iri":12405,"uties":12406,"ĠWel":12407,"Ġstability":12408,"Ġriot":12409,"ĠRonald":12410,"very":12411,"ĠLyon":12412,"andals":12413,"essions":12414,"ĠJint":12415,"ĠJazz":12416,"umin":12417,"ĠFred":12418,"ĠFront":12419,"ensus":12420,"Ġcontaining":12421,"ebuck":12422,"pled":12423,"Ġregain":12424,"Ġmayor":12425,"Ġcarmaker":12426,"Ġremarks":12427,"Ġpowered":12428,"Ġinfected":12429,"ĠXinhua":12430,"Ġinstalled":12431,"ĠFires":12432,"Ġjumps":12433,"ĠBayern":12434,"Ġsafely":12435,"ĠRoebuck":12436,"mirates":12437,"ĠAstron":12438,"Ġtracking":12439,"ĠBelow":12440,"Ġspeak":12441,"ĠUsing":12442,"ĠBangalore":12443,"Ġunders":12444,"ĠProduction":12445,"ĠHotels":12446,"Ġdeterior":12447,"Ġplotting":12448,"ĠArgentine":12449,"Ġfighter":12450,"Ġhelicopters":12451,"initi":12452,"Ġindividuals":12453,"PTI":12454,"Cardinals":12455,"ĠGunners":12456,"Ġbirthday":12457,"ĠRolls":12458,"Ġmuscle":12459,"ĠEstimates":12460,"Ġcoffee":12461,"ĠMickelson":12462,"ĠAnimation":12463,"Ġrichest":12464,"350":12465,"42":12466,"88":12467,"COR":12468,"Hait":12469,"Jet":12470,"Paris":12471,"bian":12472,"case":12473,"laim":12474,"poin":12475,"ximately":12476,"Ġiron":12477,"Ġpond":12478,"Ġpensions":12479,"Ġble":12480,"ouds":12481,"ĠCFO":12482,"ĠTies":12483,"ĠTough":12484,"ĠMain":12485,"ĠPitch":12486,"oli":12487,"ĠWimbledon":12488,"ĠFre":12489,"ĠFew":12490,"ĠEth":12491,"ulent":12492,"ulous":12493,"Ġconcl":12494,"Ġexcess":12495,"Ġchurch":12496,"abr":12497,"ĠVac":12498,"ĠVince":12499,"Ġsecured":12500,"odox":12501,"ropri":12502,"Ġincor":12503,"Ġteamed":12504,"Ġprev":12505,"ĠAlthough":12506,"Ġeconomies":12507,"iented":12508,"Ġimpossible":12509,"ĠManuel":12510,"ĠHeads":12511,"Ġstockp":12512,"Ġcampaigns":12513,"Spanish":12514,"Ġcellphone":12515,"Ġpleads":12516,"ĠConsider":12517,"ĠPlanet":12518,"unkett":12519,"Ġdistributed":12520,"ĠHealthDay":12521,"Ġbrokers":12522,"ĠVenezuelan":12523,"Seven":12524,"Ġtribal":12525,"Ġtextile":12526,"ĠMeeting":12527,"Ġinnoc":12528,"About":12529,"Small":12530,"ĠBreaks":12531,"Ġpornography":12532,"Ġodds":12533,"Ġmedicine":12534,"Ġcosm":12535,"frame":12536,"Ġincentives":12537,"ĠGibbs":12538,"Ġremarkable":12539,"ĠContinues":12540,"DR":12541,"Here":12542,"Houston":12543,"Like":12544,"Ma":12545,"Miss":12546,"Par":12547,"ba":12548,"dis":12549,"gie":12550,"gio":12551,"oa":12552,"sol":12553,"Ġeth":12554,"Ġtear":12555,"inging":12556,"Ġwer":12557,"Ġwrapped":12558,"rek":12559,"Ġbed":12560,"Ġmurd":12561,"ĠSorenstam":12562,"Ġhung":12563,"ĠCandid":12564,"ados":12565,"Ġforest":12566,"ĠPull":12567,"olfer":12568,"ĠBureau":12569,"Ġgar":12570,"ĠWould":12571,"ĠFact":12572,"ĠDa":12573,"ĠDip":12574,"ĠUlt":12575,"tson":12576,"ĠHILLS":12577,"Ġanonym":12578,"ĠLove":12579,"oslav":12580,"ĠETA":12581,"agged":12582,"ema":12583,"ĠKa":12584,"Ġscor":12585,"Ġwarl":12586,"prus":12587,"ĠArms":12588,"ĠClimate":12589,"Ġnears":12590,"Ġdemocratic":12591,"Ġprotocol":12592,"ĠBehind":12593,"arma":12594,"ĠSouthampton":12595,"parts":12596,"ĠNorthwest":12597,"ĠBrands":12598,"Ġrefusing":12599,"ospitals":12600,"Ġexpecting":12601,"Ġskills":12602,"Ġexplosive":12603,"ĠHoly":12604,"Art":12605,"acedon":12606,"ĠBilliton":12607,"Ġ1998":12608,"Ġfactor":12609,"ĠPaula":12610,"Ġplead":12611,"GAZA":12612,"ĠSheffield":12613,"ĠValencia":12614,"Prot":12615,"ĠSantander":12616,"ĠIntelligence":12617,"Ġintegrate":12618,"Ġmounting":12619,"Ġvariety":12620,"ĠVolkswagen":12621,"ĠMessenger":12622,"Ġracist":12623,"Ġpanels":12624,"ocoPhillips":12625,"ĠKoizumi":12626,"ĠIncrease":12627,"Ġhellip":12628,"ĠInstead":12629,"Ġfrozen":12630,"ĠOntario":12631,"ĠOrganisation":12632,"57":12633,"63":12634,"LY":12635,"Ne":12636,"Saf":12637,"Technology":12638,"distance":12639,"handed":12640,"ken":12641,"liest":12642,"mical":12643,"xious":12644,"Ġskept":12645,"itting":12646,"Ġcement":12647,"Ġcateg":12648,"Ġpin":12649,"rote":12650,"Ġmidnight":12651,"ayan":12652,"Ġhamp":12653,"ĠCold":12654,"ĠPath":12655,"ĠBund":12656,"ĠNA":12657,"ĠRivers":12658,"ĠGiambi":12659,"ĠHope":12660,"Ġancest":12661,"ĠLind":12662,"tersh":12663,"ocation":12664,"ĠInsp":12665,"Ġchose":12666,"Ġaging":12667,"ĠChurch":12668,"ĠYanks":12669,"ubai":12670,"Ġunity":12671,"anta":12672,"eoples":12673,"ĠIndy":12674,"Ġimpr":12675,"ĠReform":12676,"ĠReported":12677,"ĠBlazers":12678,"Ġrunner":12679,"luding":12680,"ĠOpportunity":12681,"Ġtragedy":12682,"Ġswitches":12683,"Ġguerrilla":12684,"Annan":12685,"Ġ120":12686,"Ġstudies":12687,"Ġmainly":12688,"Ġbroader":12689,"Ġstead":12690,"ĠCrisis":12691,"Ġlisten":12692,"Ġmerch":12693,"ĠPolitical":12694,"Ġmeteor":12695,"ĠSuite":12696,"Ġmultimedia":12697,"iveness":12698,"Ġspecialist":12699,"Ġcreditors":12700,"Ġvaluable":12701,"Enron":12702,"Ġvolcano":12703,"ĠBrothers":12704,"Ġdeeper":12705,"flation":12706,"Ġresolving":12707,"ĠKyi":12708,"ĠRelief":12709,"alymp":12710,"Office":12711,"Ġhybrid":12712,"ĠBetter":12713,"ĠWilson":12714,"robat":12715,"ĠCentrino":12716,"Ġsprinters":12717,"Hewitt":12718,"Ġbenchmark":12719,"ĠJaguars":12720,"Ġdelegates":12721,"Beijing":12722,"Ġmastermind":12723,"Ġbullpen":12724,"Ġdisplays":12725,"ĠBRUSSELS":12726,"Ġarchitecture":12727,"Ġculture":12728,"Ġroughly":12729,"ĠChildren":12730,"Ġdreams":12731,"Malaysia":12732,"ĠBambang":12733,"Ġstructure":12734,"Ġsimultaneously":12735,"Ġhedge":12736,"Several":12737,"ĠJintao":12738,".)":12739,"Lay":12740,"Mets":12741,"Nep":12742,"Rich":12743,"Roddick":12744,"ROME":12745,"Sears":12746,"fund":12747,"oiled":12748,"pnet":12749,"Ġaver":12750,"Ġfrag":12751,"Ġpetroleum":12752,"roeder":12753,"Ġmice":12754,"Ġmotion":12755,"ĠSave":12756,"ĠSCO":12757,"ĠSutton":12758,"Ġhub":12759,"Ġduty":12760,"ĠCelebrex":12761,"ĠAim":12762,"ĠMand":12763,"ĠMob":12764,"Ġnov":12765,"ĠPip":12766,"ĠPubl":12767,"ĠPossible":12768,"ĠBash":12769,"ĠBargh":12770,"Ġgay":12771,"ĠFidel":12772,"ĠRule":12773,"ĠRSS":12774,"ĠDuring":12775,"ching":12776,"ĠLocal":12777,"aping":12778,"ĠJud":12779,"ĠStars":12780,"Ġshaky":12781,"Ġchat":12782,"ĠKos":12783,"ĠKyle":12784,"abies":12785,"ĠThunder":12786,"erez":12787,"comes":12788,"Ġtruce":12789,"ousing":12790,"ĠShuttle":12791,"Ġdeficits":12792,"ttawa":12793,"Ġ79":12794,"ĠPlot":12795,"Ġtrio":12796,"Ġchiefs":12797,"Ġguys":12798,"ĠDean":12799,"Ġcampus":12800,"ĠAgreement":12801,"Ġcollection":12802,"Ġmemor":12803,"Ġengaged":12804,"Ġbanning":12805,"Ġpressed":12806,"attrone":12807,"Ġsuccessive":12808,"Ġurge":12809,"ĠElena":12810,"Union":12811,"Argent":12812,"Ġdownloading":12813,"Ġimprovements":12814,"ĠExpo":12815,"ĠSurge":12816,"ĠVoice":12817,"Ġpitches":12818,"CLA":12819,"ĠAustin":12820,"Ġstunned":12821,"Ġanimal":12822,"Insurgents":12823,"ĠTerrell":12824,"ĠBoosts":12825,"ĠIMF":12826,"Ġadviser":12827,"ĠInjured":12828,"Ġarguments":12829,"ĠCDs":12830,"ĠSchwab":12831,"ĠQuestions":12832,"Ġfatal":12833,"Ġexecs":12834,"Ġtropical":12835,"Ġrestaurant":12836,"ĠKentucky":12837,"Ġjunior":12838,"ĠSilvio":12839,"Form":12840,"XBOR":12841,"fast":12842,"from":12843,"uy":12844,"virus":12845,"Ġtrem":12846,"inz":12847,"itational":12848,"Ġcigar":12849,"ila":12850,"Ġdrought":12851,"ĠTed":12852,"ĠTendulkar":12853,"ĠMills":12854,"Ġlie":12855,"ĠWired":12856,"ĠWells":12857,"ĠFan":12858,"ĠFat":12859,"ĠDU":12860,"ĠLay":12861,"ĠLik":12862,"ĠEle":12863,"ĠOR":12864,"ĠOther":12865,"again":12866,"Ġproper":12867,"ĠJun":12868,"ĠJerry":12869,"asting":12870,"ĠKumar":12871,"ieva":12872,"eploy":12873,"Ġ350":12874,"ĠShip":12875,"encer":12876,"Ġpartial":12877,"ementieva":12878,"Ġbooming":12879,"riving":12880,"Ġswift":12881,"leyball":12882,"Ġtestimony":12883,"Ġstrip":12884,"ĠTrust":12885,"Ġresearcher":12886,"ĠButton":12887,"Ġprocesses":12888,"annon":12889,"Ġfindings":12890,"Ġcauses":12891,"Ġtransport":12892,"ĠRepl":12893,"Ġbehavior":12894,"Experts":12895,"Ġentreprene":12896,"Ġportal":12897,"Ġqualify":12898,"Ġdisputes":12899,"icipal":12900,"ĠInterest":12901,"Ġconnected":12902,"Ġuncon":12903,"Ġreadies":12904,"Ġwalking":12905,"Ġresolved":12906,"ĠMemory":12907,"iracle":12908,"Philips":12909,"Ġteenage":12910,"VIENNA":12911,"ĠBernie":12912,"TEHRAN":12913,"Ġunsolicited":12914,"Ġbeheading":12915,"profit":12916,"RealNetworks":12917,"ĠShaquille":12918,"Ġwelcomes":12919,"Ġencourage":12920,"Ġencouraged":12921,"ĠQueen":12922,"Ġenjoyed":12923,"Ġgrocer":12924,"Ġexperiments":12925,"Ġscreensaver":12926,"demand":12927,"ĠLawsuit":12928,"Ġfalse":12929,"Ġshrugged":12930,"xygen":12931,"Ġgadgets":12932,"ĠSettles":12933,"Ġemotional":12934,"Ġreiterated":12935,"Blo":12936,"Beckham":12937,"Cost":12938,"Fresh":12939,"Human":12940,"Lat":12941,"Mor":12942,"Pan":12943,"Ten":12944,"eering":12945,"gages":12946,"lift":12947,"mor":12948,"pts":12949,"sm":12950,"sup":12951,"sign":12952,"wise":12953,"Ġtum":12954,"Ġsamples":12955,"orry":12956,"Ġfold":12957,"Ġpig":12958,"Ġtox":12959,"ĠSong":12960,"Ġdug":12961,"ĠTex":12962,"ura":12963,"ĠMol":12964,"ĠMaking":12965,"Ġnav":12966,"ĠBatt":12967,"ĠBett":12968,"Ġstabil":12969,"ĠFe":12970,"ĠNi":12971,"ĠNBC":12972,"ĠUF":12973,"ĠGap":12974,"ĠLatham":12975,"ĠEmirates":12976,"istle":12977,"ĠKat":12978,"Ġprinters":12979,"ĠChancellor":12980,"obod":12981,"ĠVirtual":12982,"ĠVonage":12983,"Ġoutstanding":12984,"Ġrocks":12985,"commerce":12986,"oven":12987,"ĠSpyware":12988,"ilitary":12989,"efeated":12990,"Ġ82":12991,"Chile":12992,"Ġbrink":12993,"Ġsmoke":12994,"Ġ2010":12995,"Ġdebuts":12996,"ĠGreg":12997,"Ġhalfway":12998,"uja":12999,"ĠMotley":13000,"Ġcreates":13001,"Ġlikes":13002,"ACK":13003,"ĠWeis":13004,"ĠSuu":13005,"Ġdoubleheader":13006,"Ġtwist":13007,"Ġtourism":13008,"Ġpurchases":13009,"ĠIndustrial":13010,"ĠRichards":13011,"Ġprosecution":13012,"Ġlicenses":13013,"Ġradar":13014,"Ġcirculation":13015,"rigley":13016,"Ġclears":13017,"Ġlegislative":13018,"HEIM":13019,"ĠDiscuss":13020,"Ġstemming":13021,"ĠRivera":13022,"Ġproceedings":13023,"Ġadjust":13024,"ĠConcerns":13025,"ĠSilverstone":13026,"ĠWriter":13027,"ĠEnvironmental":13028,"ĠBarbados":13029,"Gunmen":13030,"Ġrotation":13031,"Ġundisclosed":13032,"ĠProblems":13033,"Ġspreading":13034,"ĠGriff":13035,"ĠRepresentatives":13036,"Ġenthus":13037,"Ġweren":13038,"BB":13039,"East":13040,"Mars":13041,"MMC":13042,"Musharraf":13043,"SI":13044,"Under":13045,"Wenger":13046,"cell":13047,"fold":13048,"iw":13049,"waves":13050,"incess":13051,"inental":13052,"eri":13053,"Ġsch":13054,"atement":13055,"atlin":13056,"Ġwish":13057,"ĠSEOUL":13058,"ĠAk":13059,"ĠAer":13060,"Ġnom":13061,"Ġlights":13062,"irm":13063,"Ġgest":13064,"ĠWoes":13065,"Ġrub":13066,"ĠRatings":13067,"ĠLifts":13068,"ript":13069,"Ġisol":13070,"Ġyouth":13071,"Ġsaved":13072,"allah":13073,"Ġvig":13074,"ĠKuznetsova":13075,"ĠKenteris":13076,"ardo":13077,"Ġoffseason":13078,"ellites":13079,"ĠCho":13080,"abi":13081,"ĠVoting":13082,"ternal":13083,"ilever":13084,"Ġenables":13085,"mann":13086,"manned":13087,"azir":13088,"Ġdowntown":13089,"Ġquarterbacks":13090,"Ġnightmare":13091,"ĠArts":13092,"Ġdoors":13093,"Ġ81":13094,"airo":13095,"Ġattacker":13096,"Ġpeaceful":13097,"Ġeval":13098,"ĠDeputy":13099,"THER":13100,"ĠAcrobat":13101,"ĠSteven":13102,"SEPTEMBER":13103,"Ġintroducing":13104,"Ġmetal":13105,"Ġaffili":13106,"Ġspeeds":13107,"ĠRealNetworks":13108,"ĠEcclestone":13109,"Ġapproximately":13110,"ĠMSFT":13111,"ĠSolutions":13112,"ĠTyler":13113,"ĠSantana":13114,"ĠDenies":13115,"Ġdeployed":13116,"Ġsecretly":13117,"Ġcybersecurity":13118,"Ġreferee":13119,"Ġawaits":13120,"Ġpurported":13121,"ĠDunhill":13122,"ĠSummit":13123,"Ġoccupation":13124,"ĠSalvador":13125,"ĠQuestion":13126,"Ġexploit":13127,"ĠInvitational":13128,"rieve":13129,"Ġdismant":13130,"ĠCompetition":13131,"bourne":13132,"ĠSusilo":13133,"ĠToward":13134,"Ġopportunities":13135,"Ġtrademark":13136,"obodan":13137,":-":13138,"Bus":13139,"Dolphins":13140,"Er":13141,"Gates":13142,"Kn":13143,"Napster":13144,"Old":13145,"Roman":13146,"Sales":13147,"Va":13148,"Work":13149,"bels":13150,"lis":13151,"math":13152,"nell":13153,"pet":13154,"session":13155,"iture":13156,"Ġpriz":13157,"ĠSD":13158,"ĠSpl":13159,"Ġdinos":13160,"ĠCOL":13161,"ĠTamil":13162,"etown":13163,"ĠMaker":13164,"ĠIA":13165,"ĠBuck":13166,"ĠBrief":13167,"ĠWat":13168,"ĠWord":13169,"ĠRalph":13170,"unning":13171,"ĠGateway":13172,"ĠLed":13173,"ĠLic":13174,"ĠLuke":13175,"Ġasbestos":13176,"ĠYao":13177,"Ġseize":13178,"Ġselection":13179,"ieves":13180,"Ġexpense":13181,"eph":13182,"ortion":13183,"Ġ59":13184,"oughlin":13185,"Ġbuyer":13186,"ARA":13187,"Ġswim":13188,"Ġexploration":13189,"Ġattacking":13190,"Ġattackers":13191,"Ġlegacy":13192,"ĠUNITED":13193,"ĠMcGr":13194,"Ġformats":13195,"Ġempire":13196,"ĠGren":13197,"Ġdetention":13198,"Ġobst":13199,"IAEA":13200,"ournament":13201,"Ġaffairs":13202,"Ġspotted":13203,"Ġtourist":13204,"ĠMorris":13205,"ĠValent":13206,"Ġwaited":13207,"ĠCasey":13208,"Ġ802":13209,"Ġcatcher":13210,"ĠCyprus":13211,"ĠBeta":13212,"Ġeleph":13213,"Els":13214,"Ġturf":13215,"Ġconservation":13216,"Ġpolitician":13217,"MLB":13218,"ĠSachs":13219,"Ġindefinitely":13220,"Ġpirated":13221,"ĠSlovak":13222,"ĠMahmoud":13223,"rehensive":13224,"ĠLikud":13225,"59":13226,"Foreign":13227,"Following":13228,"GC":13229,"Host":13230,"HOL":13231,"KF":13232,"Low":13233,"Link":13234,"TIA":13235,"cite":13236,"member":13237,"nasdaq":13238,"Ġtears":13239,"Ġfed":13240,"Ġfier":13241,"Ġwing":13242,"Ġpose":13243,"Ġmention":13244,"Ġhers":13245,"terdam":13246,"ĠAuction":13247,"ĠTs":13248,"ĠTry":13249,"ĠTreat":13250,"ĠTerm":13251,"Ġforget":13252,"Ġnone":13253,"ĠPierce":13254,"ĠIchiro":13255,"Ġgross":13256,"ĠFlex":13257,"ĠRos":13258,"vered":13259,"ĠGE":13260,"ĠGators":13261,"ĠGanguly":13262,"ĠLibr":13263,"ulators":13264,"Ġconcent":13265,"Ġven":13266,"ĠInn":13267,"porations":13268,"Ġspurred":13269,"Ġjoy":13270,"ondavi":13271,"ograp":13272,"Ġtrick":13273,"Ġincidents":13274,"Ġdecisions":13275,"Inj":13276,"appers":13277,"ledge":13278,"Ġsole":13279,"Ġcarbon":13280,"ĠFlash":13281,"Ġheadlines":13282,"Ġpointed":13283,"Ġindustries":13284,"Ġrestart":13285,"ĠManufacturing":13286,"ĠBrady":13287,"AMP":13288,"Ġhomeland":13289,"Ġinvestigations":13290,"Ġregulation":13291,"Ġclearly":13292,"Ġoldest":13293,"ĠMoore":13294,"Photo":13295,"ĠInvestig":13296,"Ġuncovered":13297,"ĠCharged":13298,"Ġreaders":13299,"Ġconcert":13300,"Ġsporting":13301,"Schilling":13302,"Ġinitiatives":13303,"Notre":13304,"ĠWilkins":13305,"Ġbargain":13306,"Ġpraised":13307,"Ġbullet":13308,"Pacers":13309,"ĠJoins":13310,"Ġcycle":13311,"ĠCastro":13312,"Ġrecruits":13313,"Ġacademic":13314,"ĠArmstrong":13315,"ĠKathmandu":13316,"Ġelder":13317,"34":13318,"?\"":13319,"Hung":13320,"KO":13321,"Leg":13322,"Nor":13323,"SW":13324,"aigning":13325,"dec":13326,"iop":13327,"pers":13328,"Ġrom":13329,"Ġsne":13330,"atists":13331,"Ġflee":13332,"Ġfleet":13333,"Ġburn":13334,"Ġmild":13335,"Ġminds":13336,"Ġdip":13337,"Ġdiver":13338,"eto":13339,"Ġlaser":13340,"Ġgolfer":13341,"Ġeg":13342,"ĠWash":13343,"ĠFix":13344,"Ġrings":13345,"Ġranging":13346,"ĠRout":13347,"ĠHon":13348,"ĠHart":13349,"ĠHoya":13350,"ĠLU":13351,"ĠLycos":13352,"ĠLithuan":13353,"ĠOthers":13354,"terson":13355,"ĠJunich":13356,"ftime":13357,"Ġexcept":13358,"ĠKirk":13359,"Ġpride":13360,"Ġjack":13361,"Ġupheld":13362,"Ġoutfit":13363,"ĠPrim":13364,"ounty":13365,"oody":13366,"ĠShopping":13367,"plant":13368,"Ġdefin":13369,"Ġdowngr":13370,"atching":13371,"Ġworkst":13372,"Ġinvesting":13373,"Ġ101":13374,"Ġ103":13375,"athlon":13376,"Ġassum":13377,"Ġhosted":13378,"Ġ95":13379,"Ġbombers":13380,"ISH":13381,"Ġtestified":13382,"ĠOffensive":13383,"ĠSeveral":13384,"Ġturnaround":13385,"enges":13386,"ĠGrid":13387,"ĠOutput":13388,"Ġpromoting":13389,"ittal":13390,"Ġskies":13391,"Ġoptical":13392,"Ġballistic":13393,"ĠEastman":13394,"Ġconvinc":13395,"147":13396,"Ġgeneric":13397,"Ġpicking":13398,"Ġdifference":13399,"ĠVienna":13400,"ĠStockholm":13401,"Ġupgrading":13402,"Play":13403,"Ġreviews":13404,"Ġislands":13405,"ĠBenitez":13406,"Ġboxes":13407,"Ġlabel":13408,"ĠJeffrey":13409,"Ġfixes":13410,"Ġideas":13411,"Ġstrengthening":13412,"Swiss":13413,"Ġsideline":13414,"Ġsurprisingly":13415,"Ġmargins":13416,"Ġobtained":13417,"ĠWeighs":13418,"Ġhurdles":13419,"ĠKeith":13420,"Nextel":13421,"ĠBeltran":13422,"Ġdictator":13423,"Ġextradition":13424,"Ġconceded":13425,"Ġtactics":13426,"Ivory":13427,"ĠHOUSTON":13428,"tershocks":13429,"KFURT":13430,"Cambodia":13431,"Honda":13432,"Kodak":13433,"MADRID":13434,"Ohio":13435,"Pit":13436,"SCO":13437,"VEMBER":13438,"bat":13439,"court":13440,"hans":13441,"hole":13442,"las":13443,"tz":13444,"Ġessential":13445,"ito":13446,"ĠCircuit":13447,"steps":13448,"ĠAy":13449,"eting":13450,"Ġlists":13451,"Ġgal":13452,"illes":13453,"Ġstuck":13454,"ĠFear":13455,"ĠRober":13456,"ĠRupert":13457,"ĠUtd":13458,"ĠLate":13459,"ĠLloy":13460,"andy":13461,"ĠOvers":13462,"ĠStem":13463,"Ġshield":13464,"Ġshocked":13465,"Ġshattered":13466,"Ġwholesale":13467,"Ġexist":13468,"Ġplastic":13469,"ugly":13470,"ugged":13471,"Ġwors":13472,"ĠVilla":13473,"Ġroof":13474,"anticipated":13475,"exmark":13476,"odom":13477,"ĠPred":13478,"Ġresulted":13479,"Ġscams":13480,"Ġrecalls":13481,"icting":13482,"Ġuseful":13483,"USC":13484,"Ġdecisive":13485,"ĠEuropeans":13486,"errero":13487,"Ġunderw":13488,"rival":13489,"ĠRedmond":13490,"ARS":13491,"echan":13492,"ĠJohnny":13493,"ĠAdams":13494,"Ġminer":13495,"clays":13496,"Ġgrim":13497,"ĠPressure":13498,"Ġharder":13499,"Ġhardly":13500,"Ġembrace":13501,"Ġlocation":13502,"ĠSharp":13503,"Ġintroduces":13504,"ĠDesign":13505,"Ġfreestyle":13506,"company":13507,"Ġgunfire":13508,"ĠConserv":13509,"ĠExpand":13510,"ĠInvestments":13511,"Ġsquare":13512,"trick":13513,"OUGH":13514,"Ġwebsites":13515,"Ġorganizers":13516,"Consumers":13517,"Ġinfluential":13518,"ĠMovie":13519,"FOXBOR":13520,"Ġrecommended":13521,"BURGH":13522,"ĠGunmen":13523,"Ġfortunes":13524,"Ġpeacekeeping":13525,"ĠRaymond":13526,"Ġtrophy":13527,"ĠFilm":13528,"ĠEllison":13529,"MRK":13530,"Ġextinction":13531,"Ġnervous":13532,"Ġorbiting":13533,"Ġunanimously":13534,"ĠPHILADELPHIA":13535,"Ġfolks":13536,"Are":13537,"Auburn":13538,"Doc":13539,"FD":13540,"Ivan":13541,"Kmart":13542,"My":13543,"NZ":13544,"Network":13545,"Press":13546,"PIT":13547,"Toyota":13548,"euro":13549,"hop":13550,"lig":13551,"mont":13552,"nesty":13553,"turn":13554,"uous":13555,"Ġing":13556,"oni":13557,"aration":13558,"arely":13559,"Ġbump":13560,"Ġinstr":13561,"ĠSoviet":13562,"Ġdairy":13563,"ĠCrawford":13564,"ĠTodd":13565,"eli":13566,"acted":13567,"ĠPaper":13568,"ĠPoint":13569,"olved":13570,"ĠBit":13571,"Ġeat":13572,"ĠFulham":13573,"ĠNazi":13574,"ĠRover":13575,"ĠHague":13576,"ĠLord":13577,"ĠLah":13578,"ĠOscar":13579,"rome":13580,"identified":13581,"Ġabusing":13582,"aved":13583,"ĠIndepend":13584,"ĠSpirit":13585,"Ġblind":13586,"USA":13587,"Ġdeciding":13588,"Ġslain":13589,"Ġslams":13590,"onsored":13591,"Ġgoalk":13592,"aunch":13593,"Stud":13594,"Ġmedi":13595,"erto":13596,"Ġintervention":13597,"Ġairports":13598,"Ġsignaled":13599,"ĠAustralians":13600,"ĠPharmaceuticals":13601,"Ġefficient":13602,"Ġsubpoena":13603,"Ġanywhere":13604,"Analysis":13605,"liner":13606,"Ġmainstream":13607,"ĠGrace":13608,"Ġ130":13609,"Ġremainder":13610,"ĠCrim":13611,"Ġdivisions":13612,"Ġlocations":13613,"ĠAugusto":13614,"Ġchallenged":13615,"Ġelig":13616,"Ġverdict":13617,"Ġdelivering":13618,"Ġpredicts":13619,"itnesses":13620,"swapping":13621,"Ġknowledge":13622,"Ġprobes":13623,"Ġstaying":13624,"Ġalongside":13625,"Ġwidened":13626,"ĠLaboratories":13627,"Ġaudit":13628,"Ġrepresents":13629,"ĠUrban":13630,"Ġwindow":13631,"ĠTyrone":13632,"ĠCampbell":13633,"otebooks":13634,"Ġexcited":13635,"OTTAWA":13636,"Ġfixing":13637,"ĠSuspected":13638,"stitutional":13639,"Serena":13640,"ĠMatthew":13641,"Swed":13642,"Ġawaiting":13643,"Ġvillagers":13644,"Ġmaintained":13645,"Abb":13646,"ĠBuilding":13647,"ĠAcquire":13648,"Ġinstitution":13649,"Ġlandslide":13650,"Ġhurdle":13651,"MIAMI":13652,"Anti":13653,"Ġcoordinator":13654,"Ġreflecting":13655,"Ġauthentication":13656,"ĠMiguel":13657,"Ġdisrupted":13658,"Redskins":13659,"ĠJunichiro":13660,"AY":13661,"BUS":13662,"FS":13663,"Mus":13664,"Mag":13665,"NM":13666,"People":13667,"Smart":13668,"TI":13669,"bsp":13670,"da":13671,"ferred":13672,"law":13673,"vens":13674,"Ġtar":13675,"Ġavert":13676,"Ġawait":13677,"oriented":13678,"alia":13679,"Ġwrist":13680,"Ġwrote":13681,"Ġbounced":13682,"ĠSMB":13683,"Ġhanging":13684,"Ġduties":13685,"ĠCit":13686,"ĠAth":13687,"ĠMoya":13688,"Ġthumb":13689,"Ġnbsp":13690,"aments":13691,"ĠBase":13692,"ĠBOS":13693,"utu":13694,"ĠWind":13695,"ĠRic":13696,"thodox":13697,"ĠDer":13698,"ĠDism":13699,"rapping":13700,"ĠGmail":13701,"ĠHok":13702,"riends":13703,"astrop":13704,"Ġcomprehensive":13705,"ĠTheo":13706,"Ġupper":13707,"Ġclar":13708,"Ġuniverse":13709,"Ġunwanted":13710,"ensed":13711,"Ġreconstr":13712,"Ġarray":13713,"ĠSpani":13714,"ĠSpencer":13715,"Ġslim":13716,"Ġsliding":13717,"INCE":13718,"Ġconsiders":13719,"ĠArroyo":13720,"Ġsoar":13721,"ALCO":13722,"Ġformerly":13723,"ĠProfessional":13724,"Ġsmugg":13725,"Ġgloom":13726,"Ġraided":13727,"ĠColo":13728,"Ġinfilt":13729,"Ġrestive":13730,"ĠManny":13731,"ottest":13732,"ĠDecision":13733,"ĠResearchers":13734,"Ġformula":13735,"Ġempty":13736,"annels":13737,"Ġdetect":13738,"Ġanaly":13739,"ĠParad":13740,"Ġtransaction":13741,"ĠIslamabad":13742,"ynix":13743,"ĠWeapons":13744,"Ġwriters":13745,"Ġtalked":13746,"NAJAF":13747,"ĠMean":13748,"ĠViacom":13749,"ĠEnterprises":13750,"Ġviewing":13751,"ĠAdvances":13752,"ĠRaise":13753,"regular":13754,"Ġveterans":13755,"Ġrestructure":13756,"Ġspectrum":13757,"esliga":13758,"Ġoverturn":13759,"OCTOBER":13760,"ĠInjury":13761,"Turkish":13762,"ĠStudios":13763,"Ġfrustrated":13764,"ĠCollins":13765,"Ġinstitutions":13766,"ĠLawsuits":13767,"ĠRamadan":13768,"ĠMarcus":13769,"ĠCasino":13770,"ĠContinue":13771,"ĠTribune":13772,"ĠYugoslav":13773,"Hitachi":13774,"Ġfuels":13775,"Ġovershadowed":13776,"ĠGuillen":13777,"ĠMaurice":13778,"Bertrand":13779,"Ġlackluster":13780,"ĠGrenada":13781,"06":13782,"79":13783,"Ac":13784,"Credit":13785,"Fans":13786,"GI":13787,"Jagu":13788,"Mike":13789,"Royal":13790,"aipe":13791,"kara":13792,"lana":13793,"zing":13794,"Ġsample":13795,"Ġocean":13796,"Ġwal":13797,"Ġwaste":13798,"Ġmood":13799,"ĠSMS":13800,"Ġhints":13801,"ĠCairo":13802,"ĠAFC":13803,"ĠTH":13804,"aciers":13805,"ĠMd":13806,"ĠMing":13807,"Ġnic":13808,"ĠPra":13809,"ĠPak":13810,"ĠPope":13811,"ĠParmalat":13812,"Ġlending":13813,"Ġloud":13814,"ĠFail":13815,"Ġru":13816,"ĠNad":13817,"ĠRou":13818,"thard":13819,"ĠGard":13820,"ĠLi":13821,"Ġsabot":13822,"ĠJumps":13823,"ĠKost":13824,"iful":13825,"ablo":13826,"Ġsealed":13827,"iev":13828,"ĠVogts":13829,"ollah":13830,"ovt":13831,"issan":13832,"Ġnotes":13833,"Ġdisgr":13834,"Ġaccur":13835,"Ġmanip":13836,"Ġslows":13837,"insula":13838,"Ġmilitiamen":13839,"msterdam":13840,"Ġundergoing":13841,"Ġassured":13842,"ĠMarat":13843,"Ġexplore":13844,"Ġsubmitted":13845,"Ġlegit":13846,"ESTER":13847,"Ġmainland":13848,"ĠBarrichello":13849,"Ġfundament":13850,"ĠHighbury":13851,"ĠParalymp":13852,"Ġcurrencies":13853,"ĠSlobodan":13854,"ĠDefends":13855,"onaut":13856,"Ġentr":13857,"EMC":13858,"Ġsnow":13859,"Ġwriting":13860,"Ġfocusing":13861,"ĠBobcats":13862,"oulthard":13863,"Ġapartment":13864,"ĠLosses":13865,"Ġtechnique":13866,"ĠArea":13867,"Ġinspired":13868,"ĠSteps":13869,"ĠStandards":13870,"ĠRomanian":13871,"Insurance":13872,"ĠNepalese":13873,"IEV":13874,"cahn":13875,"ĠChilean":13876,"ĠHardie":13877,"ĠNeeds":13878,"Record":13879,"ĠSEATTLE":13880,"ĠMegawati":13881,"ĠCommunist":13882,"Nigeria":13883,"Ġsponsors":13884,"ĠChampion":13885,"December":13886,"Ġrestrictions":13887,"EVA":13888,"Ġenemy":13889,"ĠCopy":13890,"Ġhydrogen":13891,"Ġliberal":13892,"ĠAnsari":13893,"Ġherself":13894,"hansson":13895,"aipei":13896,"Fox":13897,"Harden":13898,"Mic":13899,"MIN":13900,"Qwest":13901,"Ut":13902,"Virus":13903,"Vijay":13904,"ci":13905,"cop":13906,"dated":13907,"gles":13908,"mile":13909,"pound":13910,"works":13911,"Ġ_":13912,"erous":13913,"only":13914,"Ġsociety":13915,"isure":13916,"Ġmaj":13917,"Ġmouse":13918,"Ġhazard":13919,"Ġhospitals":13920,"lects":13921,"ĠCP":13922,"etter":13923,"ĠMun":13924,"Ġnor":13925,"Ġlobby":13926,"illance":13927,"Ġrid":13928,"ĠNelson":13929,"ĠRen":13930,"ĠRookie":13931,"ĠUg":13932,"ĠLands":13933,"akar":13934,"ĠEases":13935,"kster":13936,"astro":13937,"ĠStreak":13938,"Ġshops":13939,"TheDeal":13940,"Ġseal":13941,"keley":13942,"Ġsecrets":13943,"ignment":13944,"Ġarena":13945,"Ġcrushed":13946,"ebast":13947,"Ġhighway":13948,"Ġmilitias":13949,"ĠAlban":13950,"ĠSecret":13951,"Ġreluct":13952,"ELBOUR":13953,"Ġfollowers":13954,"Ġhanding":13955,"ĠWarriors":13956,"Ġbarred":13957,"ĠWhy":13958,"oppy":13959,"Ġpersonnel":13960,"ĠRece":13961,"UND":13962,"Ġfirewall":13963,"ĠFedEx":13964,"ĠGoldman":13965,"Ġsinger":13966,"Ġconvince":13967,"148":13968,"Ġquestioning":13969,"Ġsupercomputing":13970,"Ġcancel":13971,"ĠSurgery":13972,"nyse":13973,"vetlana":13974,"Ġsexually":13975,"ĠMarketing":13976,"Ġtroubles":13977,"ĠBenef":13978,"OUTH":13979,"rigging":13980,"ĠImpact":13981,"Ġattempting":13982,"Ġdramatically":13983,"Ġrecalling":13984,"Editor":13985,"Ġlearning":13986,"ĠOval":13987,"Ġextremists":13988,"Ġsustain":13989,"Ġparticipate":13990,"Ġcruise":13991,"ĠPictures":13992,"ĠBolton":13993,"Ġassessment":13994,"ĠMcNair":13995,"Ġgovernance":13996,"September":13997,"ĠHawai":13998,"ĠLukoil":13999,"Mexico":14000,"Atlantic":14001,"ĠDispute":14002,"Ġconvincing":14003,"Hardenne":14004,"ELBOURNE":14005,"92":14006,"Ben":14007,"Bri":14008,"Cam":14009,"Coca":14010,"Del":14011,"Election":14012,"Pre":14013,"WO":14014,"bitz":14015,"iy":14016,"iSign":14017,"Ġugly":14018,"Ġcited":14019,"Ġcaf":14020,"Ġburning":14021,"asse":14022,"ĠSends":14023,"ĠCreat":14024,"ĠToys":14025,"ĠMI":14026,"ĠMO":14027,"ĠMining":14028,"ĠMitsubishi":14029,"ĠMondavi":14030,"ĠPot":14031,"Ġlunch":14032,"ĠWis":14033,"ĠWinn":14034,"ĠFollowing":14035,"Ġrural":14036,"estine":14037,"ĠRing":14038,"ĠRole":14039,"ĠRivals":14040,"una":14041,"ĠLows":14042,"riati":14043,"iances":14044,"Ġheated":14045,"endants":14046,"usty":14047,"Ġchicken":14048,"Ġcomply":14049,"undi":14050,"ĠKell":14051,"Ġspare":14052,"Ġspike":14053,"obody":14054,"icked":14055,"keys":14056,"Ġsection":14057,"bery":14058,"ovich":14059,"Ġcracked":14060,"eyond":14061,"Ġteaming":14062,"Ġslipping":14063,"ieri":14064,"Storm":14065,"Stewart":14066,"istani":14067,"racks":14068,"ĠConv":14069,"Ġinterface":14070,"Ġdemol":14071,"Chirac":14072,"Ġhosting":14073,"Ġrelax":14074,"Ġ900":14075,"ENG":14076,"ENEVA":14077,"ĠWebS":14078,"Ġbats":14079,"ĠAppeals":14080,"rete":14081,"Ġcolon":14082,"Ġrefund":14083,"Ġvisa":14084,"Ġinvestigated":14085,"ĠQuick":14086,"Ġdetected":14087,"Ġtransition":14088,"umbai":14089,"Ġobvious":14090,"ĠDeficit":14091,"Ġclubhouse":14092,"Ġproductivity":14093,"Iranian":14094,"TSBURGH":14095,"Ġapproached":14096,"Ġthoughts":14097,"Ġpainkiller":14098,"Ġdepend":14099,"Ġundefeated":14100,"Ġlaboratory":14101,"Ġrequested":14102,"ĠActiv":14103,"ĠLooking":14104,"ĠDeaths":14105,"ĠPalmOne":14106,"ĠInfineon":14107,"Ġapology":14108,"Guard":14109,"Ġplunge":14110,"Ġshelves":14111,"Ġextremely":14112,"Ġcollaboration":14113,"ernando":14114,"Survey":14115,"Ġrestaurants":14116,"ĠRamadi":14117,"Ġdedicated":14118,"ĠCroat":14119,"ĠAhmed":14120,"Electronic":14121,"ĠMasterCard":14122,"ĠThunderbird":14123,"58":14124,"AZ":14125,"Circuit":14126,"Hz":14127,"Ill":14128,"JP":14129,"KOK":14130,"Luc":14131,"Min":14132,"Poll":14133,"Prod":14134,"Summary":14135,"business":14136,"eu":14137,"five":14138,"iots":14139,"km":14140,"mode":14141,"wind":14142,"zie":14143,"Ġtumble":14144,"orian":14145,"orough":14146,"Ġfoul":14147,"Ġcoin":14148,"Ġpump":14149,"Ġpocket":14150,"Ġtoys":14151,"Ġbone":14152,"Ġinev":14153,"ĠSenior":14154,"ione":14155,"Ġdim":14156,"Ġdipped":14157,"ĠAway":14158,"ĠTries":14159,"ĠTournament":14160,"ĠMall":14161,"igo":14162,"ĠBud":14163,"Ġreporter":14164,"ĠWR":14165,"Ġstance":14166,"ĠDementieva":14167,"ĠLink":14168,"osite":14169,"Ġconsequ":14170,"ĠJoy":14171,"iah":14172,"Ġexch":14173,"ugabe":14174,"aba":14175,"Ġjeop":14176,"Ġups":14177,"Ġoutgoing":14178,"Ġunmanned":14179,"ishop":14180,"Ġcontention":14181,"Ġkillings":14182,"ĠAny":14183,"Ġflies":14184,"Ġmedall":14185,"Ġaired":14186,"Ġcountrys":14187,"Ġrelent":14188,"Ġsmoking":14189,"Ġdiscr":14190,"Ġclosure":14191,"Force":14192,"Ġenterprises":14193,"Ġmarines":14194,"Ġunveiling":14195,"looking":14196,"incial":14197,"Ġintroduction":14198,"Ġsuffers":14199,"Ġplease":14200,"unta":14201,"ĠRobb":14202,"Ġrevealing":14203,"Ġcancelled":14204,"Ġvolleyball":14205,"Ġweakened":14206,"Ġseparatists":14207,"tenance":14208,"Ġsettling":14209,"aughan":14210,"ĠCountries":14211,"ĠRogers":14212,"Ġwindows":14213,"ĠHuskies":14214,"ĠSuspects":14215,"ĠOsset":14216,"PHILADELPHIA":14217,"Ġhalftime":14218,"ĠConfidence":14219,"Supreme":14220,"ĠCentre":14221,"Ġargument":14222,"Ġreverse":14223,"Ġbreast":14224,"Ġfrustration":14225,"Ġresponded":14226,"iability":14227,"Agassi":14228,"Ġcongrat":14229,"Ġsandwich":14230,"ĠBoxing":14231,"ĠExecs":14232,"Colombia":14233,"ĠRuud":14234,"ĠIntroduces":14235,"stadt":14236,"Mauresmo":14237,"Bloomberg":14238,"ĠAthlon":14239,"72":14240,"96":14241,"Ber":14242,"Ball":14243,"Bird":14244,"Fred":14245,"PORT":14246,"book":14247,"dig":14248,"ihad":14249,"search":14250,"Ġid":14251,"Ġaware":14252,"Ġwages":14253,"Ġwedding":14254,"asks":14255,"Ġharsh":14256,"Ġdil":14257,"ĠMail":14258,"adies":14259,"ĠPRO":14260,"iggs":14261,"amin":14262,"amework":14263,"Ġrevel":14264,"Ġstamp":14265,"Ġstories":14266,"ĠDR":14267,"ĠDuke":14268,"ĠGerrard":14269,"Ġprojected":14270,"Ġyuan":14271,"Rebels":14272,"mentary":14273,"ellar":14274,"ordinary":14275,"Ġaftermath":14276,"Ġclashed":14277,"berger":14278,"actice":14279,"Ġcontrolling":14280,"oundup":14281,"ibillion":14282,"Ġhighlights":14283,"Ġslumped":14284,"ierry":14285,"ĠArg":14286,"ĠArnold":14287,"Ġprofile":14288,"ĠAlb":14289,"Ġacting":14290,"ermo":14291,"ISS":14292,"Ġrebuild":14293,"iversities":14294,"ĠZurich":14295,"remen":14296,"ĠDeals":14297,"Ġmisses":14298,"isoned":14299,"ificial":14300,"ĠGrey":14301,
[...]
